#version: 0.2
Ġ t
h e
Ġ a
Ġ "
o u
Ġ s
Ġ m
i n
Ġ w
r e
h a
n d
Ġt he
Ġ b
i s
e r
o r
l l
Ġ f
i t
Ġ o
Ġ d
Ġ c
e s
Ġ I
Ġ l
Ġ y
Ġ n
o n
e n
Ġ h
Ġt h
a r
Ġy ou
Ġ p
Ġt o
Ġa nd
ha t
Ġ he
v e
Ġo f
o t
a n
Ġ g
o w
in g
o m
s t
. "
, "
a t
Ġb e
Ġ in
s e
c e
Ġ ha
Ġm y
l e
Ġ T
e t
a y
l d
Ġ A
e d
u t
Ġm e
i m
it h
i r
c h
Ġn ot
Ġ is
g h
' s
i ll
Ġt hat
Ġ e
Ġf or
ou r
o o
k e
Ġ u
Ġw e
Ġw ith
Ġ it
t er
a d
Ġ W
Ġyou r
a s
i d
he r
en t
Ġh is
a l
Ġs t
Ġ k
r i
Ġth ou
r a
Ġ S
Ġh im
Ġth is
Ġha ve
Ġ re
om e
gh t
or d
l y
Ġs o
' d
Ġo n
Ġl i
Ġa s
u r
v er
Ġ H
o re
ou ld
Ġ B
Ġd o
Ġw ill
Ġd e
Ġ E
r o
a in
oo d
h i
u s
Ġ C
Ġs ha
c k
Ġ M
es t
a m
e a
i on
es s
Ġhe r
Ġs e
Ġb ut
Ġn o
Ġa n
u n
? "
ĠA nd
a nd
Ġth y
g e
Ġl o
Ġa ll
i f
A nd
Ġ O
ĠT he
a ke
t h
Ġs p
Ġs u
e ll
Ġ '
Ġ F
i l
Ġ L
Ġf a
Ġk n
Ġsha ll
c t
ha n
e ar
Ġa re
Ġthe e
Ġ v
h o
: "
i ght
Ġ our
r om
Ġ P
Ġ G
Ġb y
u e
Ġs h
a st
Ġm an
ar d
Ġn e
T he
an t
ar t
Ġa t
u st
e nd
Ġl ord
Ġa m
ou s
Ġw hat
Ġu p
in e
se l
Ġc om
' ll
Ġg o
ou t
Ġ D
i ve
Ġ N
Ġw he
Ġg ood
i e
! "
Ġp r
on e
re s
Ġc on
in d
b le
Ġs he
v en
Ġf rom
hi ch
e m
Ġ r
on g
u l
er s
Ġkn ow
- -
n t
Ġt r
n ter
Ġlo ve
Ġthe m
Ġw ould
Ġthe re
u m
Ġw as
r ow
q u
Ġm ore
Ġb l
Ġ R
h y
i c
r y
Ġn ow
Ġ if
Ġs w
Ġc an
Ġc a
ot h
re at
p p
Ġthe y
u re
Ġ hat
o st
Ġ Y
Ġthe ir
Ġ or
Ġl et
f e
e p
Ġs ir
Ġt han
sel f
Ġa r
Ġs ay
Ġhe re
Ġw or
Ġu s
in k
at e
l a
ĠT o
is h
e l
T o
ĠE x
am e
at h
or t
o l
Ġwe ll
ot her
Ġthe n
Ġb r
Ġc ome
f ore
Ġon e
Ġhat h
at her
Ġse e
v es
oo k
Ġli ke
a k
ĠT h
i g
Ġu n
o d
Ġ j
Ġk ing
ou nd
Ġd id
Ġm ay
Ġsh ould
Ġm ad
Ġm ake
Ġ en
ĠT hat
an ce
Ġs a
n g
Ġh o
g ain
ea k
Ġd is
E N
Ġ out
T hat
Ġup on
Ġm ust
e re
ĠB ut
Ġwe re
un t
i ce
ĠW hat
ver y
Ġha d
id e
Ġw hich
Ġto o
Ġp ro
it y
p e
en ce
a re
Ġwhe n
p t
i es
im e
Ġh on
Ġsu ch
Ġha nd
u ch
Ġp o
Ġsp eak
Ġhe art
T h
Ġg ra
t her
i re
or n
Ġy et
Ġe x
a u
Ġa gain
n ess
a ll
Ġw ho
is e
o se
o nd
Ġof f
U S
Ġa l
Ġh ow
Ġs ome
w n
Ġthe se
Ġe y
Ġth ink
ĠE nter
f f
Ġ qu
ad y
is t
Ġf ather
as s
ou gh
ur n
Ġf o
i ck
e unt
Ġf ri
B ut
Ġm ine
c i
o y
Ġg ive
a ge
A s
Ġa b
' t
u d
Ġhe a
Ġg reat
Ġt ake
Ġp l
ow n
e et
he n
Ġc ha
Ġm ar
Ġ ro
Ġm uch
Ġt ell
Ġwhe re
w ay
ent le
f ul
Ġt ime
at ion
Ġt w
Ġm ost
a ve
he re
W hat
re e
Ġ J
Ġhe ar
Ġfri end
A R
ĠH e
ĠF or
ast er
Ġl ook
in ce
Ġbe t
Ġne ver
it her
ing s
Ġm en
Ġd ay
ig n
E nter
Ġd es
Ġl ea
p er
ĠM y
ĠY ou
t is
Ġl e
a ck
Ġbl ood
b er
Ġw ord
Ġde ath
Ġhon our
res s
Ġe ar
Ġo ther
Ġ K
, --
Ġar t
l i
Ġf l
Ġp art
Ġli fe
u ll
i o
t o
F or
ĠI f
n ot
ou l
ĠEx eunt
ĠA s
Ġw r
o ve
Ġf ear
i gh
ou nt
a g
Ġg entle
a se
EN E
t le
Ġp le
Ġs er
oo l
Ġ V
Ġfa ir
Ġan y
Ġst r
Ġcom m
Ġ ri
Ġhea ven
Ġw ar
ĠEx it
nd er
Ġs on
h ing
Ġca ll
Ġp er
Ġs c
o ld
Ġo wn
M y
m ent
it e
Ġa d
I N
f t
w ard
an s
C ENE
Ġmad e
e ed
s s
Ġ ra
Ġpr ay
e e
row n
u se
m an
Ġn ight
Ġ very
ou se
Ġha st
Ġd oth
c es
Ġw h
Ġtr ue
Ġ ke
n ce
Ġsw eet
a ble
E R
ĠG od
Ġp re
l es
Ġcan not
Ġbe en
ct ion
Ġa pp
O N
v ing
Y ou
Ġa way
o ck
Ġl a
ll ow
c he
Ġw it
Ġm a
Ġc our
Ġwor ld
Ġd one
l and
au gh
Ġbe ar
Ġa f
Ġw ay
ĠB e
or row
Ġbr other
Ġey es
p le
c c
Ġc l
s w
Ġl ady
t y
Ġn or
Ġe ver
Ġb re
Ġst and
W ith
Ġn ame
Ġd own
ĠH ow
Ġw om
ĠTh is
H e
I f
Ġ im
Ġhe ad
Ġar m
g er
p s
Ġlea ve
ĠC a
Ġtw o
ĠW hy
Ġp res
ĠI n
Ġp la
Ġbe fore
Ġno ble
if e
Ġf ool
Ġcon t
ĠL ord
k s
q ue
ow er
A N
Ġth us
Ġm ight
Ġbe g
ir st
ĠN o
Ġha r
Ġthou ght
at ter
Ġcom es
ear s
ve d
Ġgra ce
l ess
Ġc ould
u ke
Ġl ong
ĠW ith
e f
o s
ou ght
Ġ" '
ain t
u ck
as on
Ġo ld
E S
Ġh ouse
is s
Ġre m
Ġs oul
Ġp ur
Ġcom p
d s
or s
le d
i ous
ĠC ome
Ġbet ter
Ġm aster
I n
ĠS o
T is
Ġde ad
c ome
e w
Ġke ep
ĠM ar
Ġne w
Ġf ind
Ġpo or
augh ter
a ch
ea ce
Ġin to
re d
Ġbe ing
Ġsh ow
Ġre p
Ġb est
Ġmy self
Ġnot hing
nt o
m e
Ġb oth
ĠI s
Ġe nd
f or
ĠS ir
Ġm er
ĠI t
at ch
O L
Ġman y
er t
n e
c y
t end
ak es
Ġg l
un e
ĠW ho
Ġfriend s
Ġp ut
i ed
Ġd aughter
W hy
Ġli ve
Ġf ell
i an
Ġe m
Ġe very
Ġ U
Ġb ra
hi p
i er
it tle
Ġfo llow
Ġs m
m en
r ance
H ow
Ġw ife
ĠO f
Ġin d
i us
v il
Th is
Ġli e
ĠThe re
i a
w ell
Ġn at
Ġs et
re n
Ġst ill
I US
N o
Ġ que
Ġl ittle
ĠE ng
ĠL et
O f
E x
se d
Ġfor t
ĠTh ou
B e
ha ll
Ġth ing
Ġd r
ar k
re t
S o
Ġt ong
Ġf irst
O R
Ġho ld
Ġg r
Ġc hi
Ġs le
b e
ĠW e
Ġth ose
Ġc o
in t
on s
Ġd ie
Ġpla ce
Ġh igh
Ġde ar
Ġan sw
Ġque en
al k
Ġh our
Ġp a
ĠA n
ĠR ome
es ar
Ġlord s
ie ld
Ġt ra
ha r
Ġu nder
Ġg one
Ġcon s
Ġyou ng
et h
ĠN ow
Ġe l
ĠW here
ĠW hich
Ġcon f
i le
W ho
Ġhim self
Ġser v
w e
Ġm other
Ġg u
r u
in ess
W hich
Ġre st
I t
Ġt ri
in s
it s
Ġagain st
Ġpl ay
il t
Ġc h
Ġcour t
ut h
Ġp ass
ĠB y
Ġple ase
g et
Ġst ay
ĠI I
ist ress
g ed
Ġm ind
Ġfa ll
Ġt ill
Ġc ount
Ġbr ing
Ġwom an
Ġn one
ul t
Ġsw ord
Ġk ind
Ġwor th
Ġansw er
ce ive
Ġre s
Ġfa ce
est y
Ġb oy
Ġey e
Ġg i
b l
ou d
ĠW hen
Ġg ri
ow s
l f
ir t
t he
Ġcha r
is on
Ġp eace
Ġme an
ĠO r
e ct
Ġf ull
Ġword s
ĠCa esar
Ġt a
W e
Ġpres ent
l t
Th ou
Ġtong ue
Ġel se
Ġt urn
Ġth ine
Ġthere fore
Ġthou gh
I s
ĠF rance
Ġth r
Ġh us
p on
um p
it ion
Ġp e
Ġchi ld
ĠA t
Ġbe l
Ġfor th
Ġd ra
Ġc ur
ĠH ere
Ġaf ter
Ġme et
Ġv ill
Ġne ed
b and
Ġt re
Ġc ou
S CENE
Ġb id
Ġc he
Ġc rown
en s
ĠS CENE
Ġwho se
Ġri ght
s and
as ure
Ġc han
Ġse em
Ġm atter
Ġw hy
ant s
Ġsa id
ee ch
Ġb ack
ĠA nt
hi le
ĠS t
b t
p ose
is ed
T I
at i
Ġwr ong
Ġp ri
ri ed
Ġre ason
Ġon ce
Ġhus band
B y
Ġre t
Ġlet ter
i x
ĠA N
W here
ĠA y
Ġu nto
Ġpr ince
Ġstr an
Ġe ven
. '
is ter
Ġth ree
Ġear th
c l
or se
Ġa cc
Ġk ill
Ġho pe
E L
Ġsp ir
The re
Ġh um
Ġfa ith
Ġha s
, '
Ġh ome
Ġim p
Ġwh om
Ġd re
Ġab out
Ġan other
Ġo ver
Ġb od
W hen
Ġb es
ĠB r
ut y
Ġsu b
Ġp ower
Ġhe ard
Ġind eed
L et
Ġhe l
Ġli ght
Ġb reat
Ġca use
Ġd ou
ĠD o
ĠY our
Ġmad am
Ġas s
t w
Ġhe nce
Ġhand s
Ġs l
Ġm on
an y
ĠR e
sel ves
ar ry
or y
Ġp ra
Ġnat ure
A y
Ġdis c
c le
Ġ i
on t
r ay
Ġ [
en ter
ard on
Ġthan k
Ġsle ep
Ġgo ds
Ġf al
Ġthou sand
A L
ar y
Ġst re
Ġwith in
Ġsu re
Ġdo st
U C
C ome
ĠW ell
a p
ĠThe n
Ġv irt
b s
Ġso ld
ĠG o
pe ct
Ġbe d
Ġm is
Ġd uke
d ay
-- "
O r
Ġj ust
fe ct
om et
As ide
on y
Ġgo ld
Ġla w
ci ous
ve re
Ġtr uth
Ġh ither
a ce
a il
Ġst ate
Ġm akes
Ġfal se
E T
f ort
ain s
Ġv al
Ġma id
Ġs ent
Ġc ame
N ow
Ġb us
im es
Ġu se
ĠS he
et s
e al
ar s
Ġsha me
Y our
Ġd i
Ġm o
Ġe re
ĠG ood
Ġwe l
Ġf ight
ur y
che s
ĠEng land
ad e
Ġbre ak
ut e
Ġb an
v y
ur d
Ġdo es
ĠH er
Ġs ame
r ant
y al
Ġs ince
Ġy e
Ġfort une
e el
Ġw ind
Ġ" [
Ġr ather
ou ch
ĠN or
Ġhel p
Ġb u
g u
Ġfell ow
ĠA l
Ġth ings
Ġl ast
Ġha ng
Ġf ar
Ġen ough
Ġnew s
ĠThe y
R e
a ir
Ġl and
Ġde vil
Ġm istress
ie ve
Ġgentle man
I O
Ġha pp
Ġst ri
get her
Ġs ea
Ġad v
Ġs un
at es
Ġwith out
ct or
IN G
ent s
Ġsha lt
a b
n ight
p en
he s
ĠW ill
our s
Ġma j
Ġs ound
Ġse c
Ġen ter
Ġt ears
u ff
Ġbod y
I C
Ġen em
Ġyou th
id es
Ġhon est
en er
Ġwel come
g ue
ion s
Ġb o
Ġin st
Ġse nd
Ġl ay
ver s
The n
i ld
Ġp ati
p l
he d
AR D
n er
ĠN ay
Ġcomm and
i ly
Ġyour self
P H
Ġp ers
Ġde ed
Ġfa ult
Ġstran ge
Ġd an
H ere
S T
Ġf ire
C T
m s
or k
ĠH is
Ġfa re
Ġca re
Ġsa w
Ġgri ef
a c
Ġarm s
Ġme ans
Ġp al
Ġsw ear
Ġj oy
Ġs omet
Ġse en
Ġ ill
j ect
Ġg re
we en
Ġ ent
Ġn ear
us ic
ho ld
ous in
Ġmaj esty
Ġon ly
n ing
at s
Ġlo st
Ġr un
Ġrem em
Ġret urn
S t
Ġwe ep
Ġs la
Ġw ish
Ġk iss
i ers
Ġp ardon
Ġof t
Ġl ess
Ġg et
d om
Ġstr ong
i z
ĠE d
Ġd are
ond er
g s
li ke
i ke
Ġh orse
Ġre ad
Ġsp o
T han
Ġf ree
Ġp rom
m orrow
it t
ĠN ot
d d
Ġspir it
Ġt alk
Ġd en
Ġyour s
The y
Ġcount ry
ĠT han
H is
Ġbus iness
it he
Ġst ra
one y
,-- "
W ell
c om
Ġs en
Ġit self
au se
Ġle ft
k en
Ġb orn
Ġto gether
o ple
el s
Ġro yal
Ġvill ain
Ġg ener
Ġhar d
er v
Ġf ly
D o
Ġdes ire
ert ain
Ġt em
ou th
r an
Ġw ant
Ġpro ve
Ġj ud
Ġs orrow
if t
Ġsee k
Ġthr ough
Ġg row
Ġcom fort
ren ch
Ġbe a
Ġv o
Ġpur pose
Ġdou bt
I A
for m
Ġw ilt
er y
Ġha lf
G ood
Ġf ur
Ġc r
ad s
Ġc ry
N ot
N ay
Ġthought s
Ġcou n
u nd
Ġs ing
o f
Ġa w
Ġto ld
le t
Ġex ce
Ġbreat h
L O
Ġf oul
ĠT ro
Ġre ven
Ġf ound
ĠY ork
en ry
ĠH ave
Ġserv ice
ĠS hall
ithe e
o p
Ġs ick
Ġm et
Ġm urd
ĠJ o
Ex eunt
b our
Ġl ate
ĠD uke
Ġdra w
u res
Ġde f
ro ss
Ġsay s
Ġpe ople
S he
Ġblood y
Ġsu pp
Ġc ra
Ġat tend
e ver
it or
Ġs ister
Ġp ity
gain st
Ġdis t
Ġo ath
Ġc ousin
b y
Ġf ield
Ġli es
ĠP r
Ġf ore
Ġa ir
Ġ Q
al th
ĠM aster
c han
Ġwor k
Ġmar k
Ġs ight
m ost
Ġpr oud
Ġg ave
Ġpr ison
Ġqu ick
I L
l ish
Ġwe ar
ĠH enry
har d
ĠC ass
ha m
Ġb ri
Ġsu ff
Ġdan ger
A T
l s
Ġb ound
Ġal one
ĠAnt ony
n ow
ĠA ll
Ġfur ther
ĠF rench
ĠY et
x t
Ġs il
Ġw at
Ġas k
ĠAN TI
Ġbes eech
Ġt end
m er
Ġb ro
ce d
Ġd am
ĠC la
S ir
c ess
v our
Ġso on
Ġfo ot
Ġc ast
ĠK ING
Ġgener al
h n
oo se
om an
Ġhat e
G o
H ave
W ill
u es
Ġin f
Ġlo se
Ġdre am
S hall
i or
u p
Ġc ar
st er
Ġin t
ĠO ur
p eak
u c
Ġc ond
Ġmar ry
i ble
un es
Ġlook s
c ause
i et
Ġs ad
Ġs in
Ġb a
Ġl ear
Ġde p
Ġcomp any
Ġw o
Ġm usic
Ġw in
Ġc old
Ġc ertain
Ġthy self
Ġtr ust
Ġgra ve
OL US
ĠII I
PH OLUS
ĠANTI PHOLUS
Ġt er
Ġc ho
ĠK ing
Ex it
Ġun cle
Ġworth y
r ing
Ġde l
Ġcomm on
Ġs k
ad am
w ick
Ġchar ge
u b
Ġa ff
Ġbr ought
ĠJo hn
ĠT hy
Ġv i
Ġgra cious
Ġe ach
Ġknow s
Ġho ly
! '
l ing
Ġf it
la im
Ġhigh ness
Ġother s
Ġgi ven
Ġbel ieve
Ġw a
Ġw is
ink s
che d
v ent
Ġc ut
Ġre c
Ġy ears
Ġlo ves
Ġknow n
Ġwar rant
ĠEd ward
b ed
Ġw ound
ot t
f ord
Ġs it
Ġw ise
ar wick
Ġt imes
Ġdis p
ud e
o or
ie f
Ġfare well
h ould
Ġy ield
Ġlove d
n o
Ġm in
Ġp ar
Ġser ve
Ġbet ween
Ġvirt ue
ci us
s o
Ġso vere
Ġs ide
Ġb ir
ure d
Ġhapp y
Ġm ove
ha l
Ġb ar
are well
Ġcont ent
i al
Ġm oney
ĠM AR
Ġday s
a v
e c
Ġa ge
Ġhe ll
A S
re nce
ce ed
et er
ĠW arwick
ow ard
Ġfor g
Ġbra ve
Ġbe at
ĠF rom
Ġpr in
Ġple asure
Ġremem ber
ĠG ive
a z
Ġa ct
Ġb at
Ġkn ight
ic es
Ġli ves
ak ing
n ed
Ġp ay
est ion
ie ce
Ġrep ort
Ġw hile
re w
Ġt ouch
Ġp ast
Ġtr u
Ġpo int
N or
i ant
i ves
p r
ent y
ic hard
Ġpo ss
T w
Ġm outh
O ur
k es
re st
fe ction
Ġgr ound
T hy
Ġc or
Ġg all
Ġre qu
ĠEng lish
s hip
Ġpro f
Ġm orn
ment s
Ġheart s
Ġmer cy
A l
Ġc ol
ĠA r
ut us
us h
ess en
Ġg ar
Ġsu it
ur t
I S
o int
Ġe at
F rom
oo f
Ġear s
ceive d
Ġenem y
Ġs ake
Ġm ock
Ġgo es
Ġbea uty
b ly
u ght
ces ter
Ġpers on
ll y
Ġde ep
Ġkn ave
Ġdr ink
e k
i res
Ġf our
Ġin c
A ll
Ġs ign
st and
Ġri ch
Ġwom en
Ġpati ence
Ġdes er
Ġle ad
A n
b ra
Ġa c
Ġw onder
hi l
Ġsu m
Ġr ing
es h
Ġt en
Ġb old
Ġcha m
Ġconf ess
Ġtend er
Ġw oo
ĠR ichard
A M
Ġ est
ĠA re
Ġfa st
Ġv is
Ġpr ot
Ġdi v
in ed
ĠU pon
ix t
Ġent reat
Y et
Ġne xt
Ġhea vy
s ue
Ġo pen
Ġ ord
ĠS erv
Ġdo g
Ġat t
Ġsovere ign
p h
ĠI V
Ġr u
all y
Ġsub ject
Ġpal ace
Ġc reat
Ġl ad
ĠG l
u ous
ir m
as k
ĠD id
Ġbl ack
Ġsa ve
g ar
Ġde v
Ġqu ar
Ġhast e
Ġb urn
os om
Ġs ur
Ġw atch
Ġbe hold
our ish
Ġstra ight
Ġbl ess
Ġcan st
R Y
U pon
v o
ge l
Ġgentle men
Ġcour se
ĠAt tend
Ġpra ise
Ġb osom
Ġvo ice
L E
Ġd uty
ot s
ĠW ould
Ġre d
ĠL ook
Ġsh ort
Ġne ither
re ady
Ġd ro
Ġha ir
Ġsp eed
Ġchan ge
ĠC l
ort al
Ġmurd er
Ġw alk
Ġh ot
Ġto wn
Ġto ward
al t
Ġkn ew
ĠBr utus
g es
Ġth ri
ri es
ES T
eth inks
R O
ĠC h
Ġtoo k
Ġsomet hing
ou cester
Ġw all
it es
ra h
Ġs at
on es
Ġmer ry
ow ers
ri age
Ġson s
Ġtra itor
essen ger
Ġw ret
Ġwor se
ĠHe ctor
e em
Ġp en
Ġtw enty
Ġsold ier
c a
Ġc ity
Ġex p
Ġf eel
Ġnot e
Ġwe ak
Ġlie ge
Ġb ase
ve l
at ed
Ġqu estion
Ġban ish
it ies
Ġde li
ull y
Ġcoun sel
Ġapp ro
Ġcl ose
Ġgl ad
a ff
ea st
ea ch
um ent
Ġpl ain
Ġval iant
o ver
Ġo pp
Ġc oward
ĠC an
Ġcom ing
Ġheaven s
t hat
Ġdid st
ere d
p are
ce pt
Ġthem selves
ĠGl oucester
w ith
Ġst ir
ĠP ro
Ġapp ear
Ġpresent ly
Ġwat er
g g
Ġb ad
ĠH el
ĠO n
ĠD ON
Ġoff end
Ġpre t
Ġsuff er
ot e
ĠP er
ĠV I
Ġfa vour
row s
ĠBe fore
Ġreven ge
Ġtr ump
Ġhar m
Ġjust ice
Ġmo on
dd en
A re
Ġcon st
Ġfl esh
Ġsp eech
ol k
Ġmar ried
ĠH ath
Ġdes p
Ġsc orn
c her
f ter
Ġc le
Ġl am
Ġal ready
Ġro om
Ġwit hal
Ġneed s
Ġspo ke
Ġre g
Ġpr ithee
Ġstand s
en ess
Ġsp ort
ast e
fe it
Ġal most
H ath
Ġsold iers
t ing
Ġd ark
et ch
Ġpl uck
Ġden y
b it
Ġu nd
Ġgu ard
re l
Ġg ro
im on
i p
m ed
Ġli ps
Ġtr ou
Ġres pect
h ood
w eet
pt ain
Ġwar s
ĠU n
ĠM ay
Ġmorn ing
r ist
Ġf ra
Ġl ack
ck s
ĠF l
em pt
ci ence
Ġb ond
ĠE ven
.' "
Ġa ction
Ġfor b
un k
Ġlo ss
um ber
Ġab ove
Ġcham ber
Ġhe ir
Ġin ter
Ġsw orn
Ġthan ks
Ġf east
ĠL A
Ġr an
Ġsc ar
use d
Ġgr ant
Ġstri ke
al m
ur se
ĠThere fore
Ġdeli ver
as h
as hi
Ġj est
Ġex t
ES S
Ġstre ng
ir d
Ġre ady
Ġsu dden
i ence
Ġu nt
Ġad d
m and
Ġpro p
Ġoff ice
Ġpa le
c ri
g ry
h ind
Ġl ow
oo p
Ġdr um
v ol
Ġspeak s
Ġt it
Ġbat tle
EST ER
Ġp u
Ġbe ast
Ġbe come
th y
Ġwr it
Ġsl ain
A G
A t
O M
o ss
in es
ast ers
Ġking dom
Ġbeg in
Ġgri e
Ġsen se
Ġpri v
U E
s es
y ou
Ġw ild
ll ent
Ġmar riage
be y
Ġhour s
Ġunder stand
Ġwo e
G ive
p es
Ġm ot
Ġm od
Ġh ide
Ġse ver
ĠThe se
Ġv ile
AN D
Ġchild ren
F F
I AN
W ould
e ep
Ġm ount
ut ion
Ġletter s
ĠCass io
Ġl augh
Ġha ving
al s
am p
Ġsla ve
D id
m b
is f
Ġd ire
ar um
Ġdo or
ro ke
Ġsha d
E ven
O n
c on
Ġf at
ĠS ome
I R
g ment
is hed
Ġd ish
Ġso ft
Ġse lf
end s
ak en
aint ed
ĠRome o
a le
t ain
Ġs hi
Ġp it
Ġhonour able
r on
la ck
Ġwho le
Ġoff er
With in
Ġtru ly
Ġ id
Ġb ook
an g
Ġfort unes
en ch
Ġre l
Ġex c
Ġstreng th
G od
Ġt y
Ġf e
ĠW as
Ġserv ant
Ġres ol
Ġm al
ver n
ire d
Ġra ge
Ġla bour
Ġch ur
! --
Ġf ashi
ĠF arewell
Ġab s
U n
p it
Ġm ortal
en ge
Ġbe hind
ĠM ore
ign ior
Ġpass ion
Ġdre ad
Ġ ve
Ġg ot
Ġe ither
Ġli ber
Ġking s
Ġwit ness
Ġcons cience
Ġj o
ation s
Ġlords hip
tw as
re y
ĠL u
ie u
ĠServ ant
ĠAttend ants
p in
Ġf am
Ġspir its
Ġlear n
U R
g ing
in al
Ġis sue
ĠP ray
Ġwh ite
Ġmight y
ump h
und red
hil st
Ġs igh
Ġple as
ĠWho se
Who se
Ġpret ty
f fect
l er
Ġf ive
Ġst eal
ur al
Ġca se
ere r
Ġche er
ĠCh rist
u nder
y ing
Ġf ing
st r
ĠM adam
Ġlo ving
ĠL UC
K E
a ith
n y
Ġm orrow
it ter
ĠT ake
ĠP om
ant age
Ġoff ence
Ġem per
Ġtre ason
Ġsec ret
Ġoft en
Ġm ist
ĠT r
Ġli ving
Ġsat isf
L A
is es
Ġl ust
Ġn ay
Ġpo ison
Ġal ong
Ġenem ies
Ġfashi on
ĠT imon
ĠS ay
Ġre vere
Ġwould st
Ġsa fe
i ent
Ġt ent
Ġf etch
it ed
Ġc ross
Ġg ift
ĠC A
ĠC om
il s
ĠL e
Ġour selves
ĠP ar
res h
um b
ĠTh ough
Ġhead s
Ġta le
Ġt each
Ġf eed
Ġl im
Ġh ost
Ġe as
id d
ĠP age
ĠD U
Ġmar ch
ĠK ate
Ġad m
ĠCla ud
Ġord er
C E
o ly
Ġ ut
Ġa g
Ġa y
Ġs ho
Ġh undred
an cy
id er
ĠH EN
Ġex ec
Ġsoul s
Ġseem s
ĠHEN RY
g ra
Ġb le
Ġf ill
Ġh urt
Ġfor m
b b
Ġs im
Ġm ir
an ch
Ġe ffect
Ġli on
ond on
ag es
Ġsec ond
Ġo b
ĠL ondon
oth ing
Ġpres ence
Ġaw hile
M ore
v est
Ġ ign
re m
ĠT y
ra w
ĠH a
Ġpart s
OR D
Ġgi ves
Ġval our
Ġdeed s
Ġtrou ble
S ome
Ġd ied
ĠM istress
Ġdanger ous
T ON
f ully
w d
z e
Ġw ood
Ġb ow
Ġd rown
Ġbe ard
Ġgo d
Ġlong er
Ġchan ce
Ġlad ies
I T
n own
Ġd a
en ed
ĠM ost
ĠO F
ĠL ady
Ġpro ceed
Ġwis dom
k ed
er n
Ġth row
al b
ĠL E
ĠR oman
el come
Ġbre ast
Ġch oose
Ġdou ble
UC ESTER
Ġpati ent
Ġprom ise
LO UCESTER
u gh
Ġa p
Ġo cc
ri ght
ĠP l
ĠG LOUCESTER
ĠJ ul
Ġcomm end
Ġbri ef
ĠClaud io
E M
U N
Ġw ed
en e
Ġp ost
ĠW ere
Ġun k
Ġjud gment
Ġemper or
W as
h om
Ġo bs
Ġcons ent
Ġcur se
Ġbir th
b ut
n ers
Ġd in
ing ly
et y
ĠS ee
il us
ard inal
ak ed
ove d
Ġaf fection
Ġsm all
IC H
Ġac qu
Ġtit le
se t
Ġfor ce
Ġpro v
c ent
Ġhe alth
ĠT ill
Ġv ow
Ġwor ship
hen s
Ġfl atter
Ġbear s
Ġbre ed
eal ous
Ġbu y
Ġdep art
Ġprin ces
s h
Ġin s
Ġpa per
L ook
T ill
u ed
Ġ er
Ġs n
Ġfor get
ĠL a
ast ard
Ġd ri
ar ch
Ġno ise
Ġan gry
Ġpra ct
C H
p her
Ġw ent
Ġg ates
le ep
Ġre b
Ġcon qu
ĠR ICH
Th ough
Ġfool s
ĠLord s
led ge
ru pt
Ġm atch
Ġf ine
ĠG entle
Ġgo ing
ĠY es
H er
g in
i ct
m on
on our
Ġst ud
Ġpr ide
Ġlea st
Ġhum our
Ġenter tain
Ġs or
Ġm asters
ĠA way
ĠS peak
Ġso le
ĠD e
Ġwor st
Ġun w
Ġexce llent
: '
t s
Ġl an
as ion
if f
if y
ĠO ne
il ity
b ury
ĠT alb
th ough
Ġsu cc
Ġwr ite
Ġper form
Ġquick ly
p o
v ia
y ra
es sed
Ġr ound
um e
Ġpro c
tw ere
Ġjud ge
M ost
ĠT ell
Ġfor sw
ĠS ignior
Ġam b
Ġbl ow
Ġen c
Ġpray ers
Ġvirt uous
Ġposs ess
m y
il es
ue l
em n
os ition
Ġshow s
Ġquar rel
C an
k ing
Ġf resh
Ġo pin
Ġsha r
Ġem bra
ĠTalb ot
A CT
W ere
ĠA CT
ĠS c
Ġher self
pe y
au ght
M ay
er ing
ĠA d
ur s
The se
Ġsa f
Ġpre pare
Ġfool ish
ĠAl as
Ġchur ch
r or
in a
Ġw hi
Ġe le
ea ven
ie w
ĠJ ew
Ġfear ful
Ġke pt
g l
u ri
Ġme asure
ra ct
Ġse al
ĠL ike
Ġam ong
Ġbl ind
Ġpla gue
L I
b orn
g ers
i led
s a
an c
ch ief
ill es
Ġfor ward
ĠH ad
Ġne igh
Ġcou nter
Ġt or
Ġno b
Ġan on
ĠR O
Ġj ealous
Ġper ceive
There fore
ĠHel en
u al
Ġy ear
Ġkn ock
Ġgo vern
ic ul
ound s
ĠMar ry
L ike
T H
g y
he ad
Ġw on
er ve
Ġc arry
Ġp iece
ea se
Ġv ain
ĠTh us
Ġqu al
ĠAN TON
Ġfault s
Ġm ed
Ġh orn
Ġp ains
Ġst ar
ĠM essenger
Ġqu iet
r id
Ġw ert
se m
Ġsha ke
un ning
Ġour s
Ġj ew
uck ing
ĠTro y
ĠCla rence
O P
Ġb itter
Ġf ier
Ġp ain
as c
ĠS aint
ĠC har
am es
Ġal ive
itt ed
UE EN
ĠPom pey
ĠPar is
ĠDU KE
e ks
Ġt aken
Ġde mand
ĠTro ilus
O ne
Ġd u
on a
ar ge
ve y
ur st
am let
Ġman ner
Ġgra nd
Ġcr uel
Ġcast le
Ġdin ner
r um
ĠT it
ĠS uff
Ġcon cl
ĠJ ove
ĠV en
ĠQ UEEN
a x
Ġs ort
re nt
Ġd ull
Ġin no
ir on
Ġst ood
ĠG ree
ĠR os
per ate
Ġwh ore
Ġforg ot
Ġsor ry
c ha
Ġt akes
Ġs us
Ġo bey
ĠL ove
ĠD es
Ġtr oth
Ġca p
Ġcall s
Ġscar ce
Ġc red
Ġc ardinal
st ance
ch illes
id ed
Ġv iew
Ġpro per
Ġhon esty
ick ed
Ġsm o
Ġign or
pher d
S ay
k er
Ġc ir
Ġth ro
Ġth ither
for ce
Ġinst ant
Ġgre en
Ġtem p
s per
Ġf rown
it iz
Ġin tend
ĠO ut
il ty
Ġpr oof
ose d
Ġgl ory
Ġfell ows
Ġmon th
Ġgold en
Ġm ut
it ors
Ġd est
Ġme l
Ġwhere fore
Ġla id
Ġtri b
Ġimp ort
Ġvi ol
' re
T ake
re ed
Ġe vil
Ġu r
id ow
Ġst op
Ġun s
Ġbeg gar
ĠAn gel
Ġcourt es
Ġdef end
Ġs ch
Ġb astard
Ġf led
Ġsh ore
Ġar g
Ġhad st
ĠV al
ĠMar cius
Ġbra in
Ġopin ion
Ġshar p
ĠSuff olk
L ES
g are
m n
Ġs land
Ġs ix
re r
ter s
Ġli ved
ĠH amlet
us ion
if ul
Ġtr y
Ġbl ame
fe rence
Ġoff ic
Ġarm y
ĠAngel o
M adam
re ad
Ġl ist
Ġsha pe
Ġv an
Ġca ptain
M arry
w s
Ġ es
ou nter
at ors
Ġbe ha
Ġpur se
Ġdr unk
IC K
ph in
Ġjo in
ucking ham
Y es
Ġh un
Ġg ent
ĠC or
Ġdel ight
d ing
Ġw ine
Ġg ross
ĠH arry
ĠE D
ĠM oor
ĠL uc
Ġthen ce
Ġwall s
Ġpu bl
ĠRICH ARD
gare t
Ġm ethinks
Ġw ast
Ġh or
ve ll
Ġg a
ĠA h
Ġst or
ĠS hould
Ġre f
ĠB uckingham
ho se
Ġsir rah
Ġfo lly
Ġcha st
Ġrequ est
Al as
R A
i v
u g
z en
nd eed
or thy
Ġhe ld
le y
ent ine
ĠS il
Ġre ceive
Ġkn eel
ust om
Ġtra in
j oy
Ġf ie
Ġd ance
Ġn urse
Ġwe alth
ho st
ĠP eace
Ġcon ce
ĠAn other
Ġdra wn
Ġpri est
Ġprison er
Ġwound s
Ġcol our
Ġwret ched
Ġsucc ess
Ġp owers
Ġv ir
ci ent
Ġle g
Ġstr uck
iss ion
ĠMar garet
Ġremem b
com es
U M
p ar
Ġf i
Ġp et
Ġbe cause
Ġin v
ĠA chilles
Ġre ceived
Ġcont in
Ġplease d
Ġhum ble
ĠCass ius
H a
H ad
b roke
e en
m ore
p he
y s
Ġa ught
Ġs hip
Ġm id
Ġo bed
at ri
Ġe qu
ĠS h
ĠM ake
ic al
Ġsw ift
uth or
ĠAnt on
Ġbro ke
Ġmove d
Ġprot ect
Ġtrump et
ĠRos al
c us
Ġ ver
Ġb ones
ĠJ ack
Ġwit s
ĠLu cius
C om
S ee
c ul
i ans
Ġc laim
Ġc unning
es ter
Ġl end
Ġp ure
Ġin j
le ase
Ġe ld
Ġde c
ĠC on
Ġknow ledge
Ġgreat er
Ġway s
Ġrem ain
anch oly
S hould
Ġt ear
Ġth reat
Ġth ird
al es
ĠS weet
ĠB el
ĠM ust
ic ious
ag o
Ġdisp atch
Ġpriv ate
Ġsever al
h ouse
er c
Ġc atch
Ġl oud
ed y
Ġfa il
Ġfa ire
Ġgood ly
bl ing
Ġprince ly
chan ce
Ġcond ition
Ġvis it
Ġcreat ure
Ġcle ar
Ġforb id
itiz ens
Ġ ed
Ġp un
ĠS ince
ĠH ast
Ġne ck
Ġun f
Ġbest ow
Ġstre et
air s
Ġembra ce
d e
m ia
v ail
at ure
Ġme re
Ġyour selves
Ġde are
Ġr asc
Ġdis m
Ġhonour s
pl oy
Ġgre et
Ġdam n
Ġcho ice
ĠS old
ĠS IR
Th us
ber t
ock s
Ġborn e
Ġmot ion
I D
g o
n a
o llow
Ġf ru
Ġl est
om er
ĠS al
ell ow
au phin
Ġgreat ness
way s
Ġhear ing
ĠSt and
u ce
Ġt aste
ĠF ort
Ġcon j
Ġr ough
Ġboy s
Ġprom ised
Ġter ms
O ut
U T
r t
u a
Ġw icked
Ġb are
Ġd ies
Ġc amp
Ġth under
ce nd
ut ation
Ġde g
Ġan cient
Ġr ise
Ġbl essed
Ġwhen ce
Ġend ure
Ġche eks
T r
e g
w oman
y our
Ġc orn
Ġme m
Ġne cess
Ġex pect
Ġsm ile
Ġut ter
Ġble ed
Ġmel ancholy
a cle
i ance
m p
t ake
v ish
or al
ar l
an io
Ġbe nd
ĠT ower
Ġu sed
id ent
Ġtr ans
are nt
Ġpre cious
Ġcomp l
Ġem p
Ġem ploy
Ġhold s
Ġadv antage
ott en
Ġsum mer
Ġdro p
Ġmal ice
ĠChrist ian
Ġcourtes y
omer set
: --
Ġa uthor
Ġc at
ay s
am ent
ĠThe ir
ĠF ord
Ġbl ows
Ġcont r
ĠMar k
Ġmon ster
Ġfore st
Ġsaf ety
E Y
i ch
Ġb ount
Ġhe els
our se
ĠS omerset
and er
Ġlo d
Ġcom ple
ĠD auphin
hy s
Ġus ur
Ġro b
Ġle gs
Ġwr ath
Ġche ek
TI O
Ġpers u
Ġbri ght
ugh ter
Ġproc laim
I M
S peak
T ell
Ġl arge
Ġg ir
Ġst ars
ĠS uch
Ġre vol
Ġde al
Ġde bt
ĠM ac
Ġman ners
Ġqu ite
Ġbear ing
Ġtong ues
Ġwrong s
ĠBr it
Ġgrow s
ĠPr ince
Ġdam ned
Ġliber ty
G AR
M ake
P ray
c ing
w ise
ll o
Ġo we
Ġme nd
ĠC am
Ġsp end
Ġshould st
Ġcour age
Ġgu ilty
ru ction
pose d
iz e
Ġwa it
S ince
m it
Ġo w
ard s
Ġr ude
Ġcha in
ĠAn ne
Ġcol ours
Ġocc asion
H AR
c um
is ing
or ous
Ġp ol
Ġme at
Ġno se
Ġan ger
if ford
Ġam az
Ġshe pherd
Ġr ans
Ġfo es
Ġwhere in
Ġdes ires
Ġsword s
gu es
Ġmin ister
Ġthri ce
Ġshad ow
ron ic
str ous
Ġenc ounter
Ġm our
Ġb en
Ġf ig
Ġp in
Ġhe at
ĠA R
Ġsh r
Ġmad ness
Ġro gue
Ġaw ake
Ġpubl ic
I ST
e ous
m ong
w hat
w ill
Ġs ong
or ge
Ġc ried
Ġg ain
im ent
Ġst ory
Ġst eel
ĠC all
Ġwas h
Ġsa il
Ġcha ll
Ġfear s
Ġthr one
ĠAt hens
Ġmaid en
ĠHer o
Ġsil ence
gy pt
hys ic
M ust
e es
Ġf ond
Ġd ue
Ġp ort
Ġst o
ĠE gypt
pp y
Ġad ieu
Ġra re
Ġbrother s
Ġsla ughter
Ġprot est
Ġappro ach
Ġexc use
Ġvir gin
ĠAnton io
E D
h is
j ax
Ġa id
Ġs ens
or ious
Ġf ought
Ġwe ary
ord s
Ġkn ee
Ġfo e
Ġdes ert
Ġra in
Ġkeep s
Ġrep ent
Ġsil ver
Ġid le
Ġpract ise
A gainst
ha ve
Ġth ief
at ing
ĠA gainst
Ġst uff
Ġse ven
Ġdes perate
Ġoath s
ĠCl ifford
Ġdire ct
Ġdish onour
Ġsole mn
ĠVal entine
F aith
U L
Ġs li
Ġb row
Ġf ury
Ġd ry
Ġy ea
Ġh unt
Ġst ain
ĠB l
Ġlo ver
ĠF al
Ġkn a
ĠJ O
ors es
Ġreason s
Ġmon strous
Ġmis er
A h
a unt
e ad
Ġf ood
Ġf aint
Ġd well
Ġc ustom
Ġdo om
ĠR o
Ġqu oth
Ġle is
R ESS
f er
Ġw ag
en ance
Ġas ide
ĠE arl
ĠM ont
el ve
ol ing
Ġfri ar
ru ly
Ġwant on
Ġprof ess
Ġtoward s
S uch
a id
i ol
r ate
s u
w ixt
Ġf le
es ides
Ġhe ed
Ġe ase
ĠB ass
Ġtw ice
Ġbet ray
Ġgl ass
Ġlam ent
Ġrans om
A B
U D
c il
t hi
ou nce
in ation
Ġf ame
Ġf ew
Ġh ol
an e
Ġfor mer
ĠH ear
ĠH ark
ĠB oling
Ġdo ing
if ied
Ġsp ring
Ġv ows
Ġper fect
Ġim ag
Ġfollow s
ARD IN
Ġwin ter
Ġfing er
ĠBoling broke
F arewell
P r
g le
Ġw hilst
Ġw idow
Ġo d
Ġn iece
Ġp ot
Ġp hysic
st aff
Ġwe ight
Ġon es
Ġwhe ther
Ġshe ep
la w
Ġun less
Ġcomp an
Ġsm ell
Ġfall s
Ġexp ress
Ġcir cum
Ġleis ure
V IUS
d ain
j o
k in
Ġt une
Ġb as
Ġf eet
Ġd ust
Ġd uc
om ach
Ġk ins
Ġv enge
Ġcon c
ic les
pp ed
Ġfl at
Ġfl owers
Ġpart icul
ER T
Ġpa id
Ġlaw ful
Ġdread ful
Ġeas y
Ġsim ple
Ġcounter feit
Ġfru it
he art
Ġw ives
ar ing
Ġto p
Ġst art
ĠH eaven
ĠB ened
ĠF irst
The ir
Ġear n
Ġwar like
Ġgu ilt
Ġprin cess
oint ed
Ġsubject s
ĠRO S
Ġrememb rance
? '
R AN
c an
d er
f l
p ir
t ed
Ġw ench
Ġd et
Ġy onder
Ġh it
ĠA jax
Ġme ant
ro ad
Ġsp ent
ie ur
Ġr id
Ġun ha
Ġwit ch
Ġnat ural
Re ads
St and
up id
AS S
Ġforg ive
Ġgall ant
ĠLe on
Ġsland er
Ġfi end
ĠSold iers
m o
r at
Ġs qu
Ġf ee
ĠI ago
Ġl ed
ĠA b
Ġst one
Ġv ent
Ġmay st
Ġdis gra
Ġpro sper
Ġtw elve
Ġbeg g
Ġcons ider
Ġgu est
Ġforsw orn
Ġarg ument
b alt
p ers
ou ds
Ġm essenger
Ġf ain
it ude
Ġn umber
Ġst omach
Ġre ign
ĠC y
ĠL anc
Ġtri al
Ġtri umph
ac her
Ġdeser ve
Ġstud y
ĠLanc aster
b ar
i ving
Ġf ancy
en et
Ġbe f
ĠA E
ill s
ĠP R
ĠY ea
Ġwhere of
Ġlea ves
ĠAs ide
Ġcall ed
Be fore
Ġkind ness
Ġsoon er
Ġconqu er
sa fe
Ġneigh bour
B Y
a fter
e y
y ond
Ġt able
re ck
Ġb ab
Ġha p
ed s
Ġst ol
Ġse at
Ġsp ite
ĠG reat
Ġsh ut
Ġcon vey
Ġfl ood
Ġaf fect
Ġfollow ing
Ġcrown s
Ġbreat he
Ġsl ow
itt ing
ĠQ u
Ġbro ken
Ġvi ct
ote us
Ġexec ution
ĠFort une
A way
P eace
S weet
Ġc re
Ġc uck
am ed
ĠN ever
la ce
Ġun p
Ġen joy
all ow
Ġro se
Ġrem edy
Ġdisc ourse
Ġweep ing
Ġposs ible
Ġcor rupt
ĠRosal ind
A ST
a ult
d o
i est
Ġw ont
en ant
le x
am s
Ġlo yal
Ġsp are
ĠP o
ĠG u
ĠD is
Ġgood ness
Ġbr ide
Ġdis ple
Ġthink s
eet h
Ġfl ower
Ġchar ity
ace d
eter m
Ġwret ch
ĠLE ON
Ġjew el
ĠSil via
Ġpun ish
Ġb ig
Ġd ign
Ġl en
Ġst ones
ĠC upid
ĠG e
Ġab road
Ġem b
Ġthri ve
Ġrevere nd
l o
o ot
p ing
in ing
Ġc al
Ġc ost
Ġl ine
om ans
Ġwe igh
Ġas leep
Ġdo ors
Ġse ason
ĠD oth
pp ing
el t
Ġfl ight
Ġwar m
ĠBe cause
OL K
Ġmean ing
ĠPr oteus
Ġmir th
yra m
Ġsch ool
Y ea
er ving
Ġf un
Ġd ag
Ġh orses
Ġdo ctor
ĠO ff
ĠG re
Ġpro d
Ġal ways
Ġheaven ly
Ġcount enance
Ġtre m
Ġsomet ime
Ġvo ices
Ġsupp er
Ġru in
Ġty rant
O T
i b
v ours
Ġd if
Ġc ure
om p
ut enant
id ius
Ġst ep
ĠC ount
ĠM il
il ing
ard en
Ġsa c
Ġho pes
Ġdis gu
Ġro ot
ĠK now
IN E
Ġcl ot
Ġem pt
Ġbel ow
Ġland s
Ġba wd
ask et
Ġtrump ets
Ġstor m
Ġdeare st
er ved
Ġf irm
Ġg own
ĠW elcome
ĠC le
Ġcom b
ĠN e
Ġsw ore
Ġho llow
ĠBe ing
Ġsing le
Ġlear ned
Ġdeser ved
Ġlan gu
ĠVen ice
Ġgir l
C on
P ro
a ct
n at
o ard
Ġt eeth
Ġm ain
Ġb and
en ces
Ġto mb
Ġg ate
ed ious
ri us
ri ble
Ġre alm
Ġde ceived
ĠC ARDIN
Ġv ouch
ĠP AG
oth s
Ġun c
Ġen vy
ud ge
Ġcl o
Ġcl ouds
Ġbeg ins
Ġhar k
Be cause
Ġchi ef
Ġta il
tw ixt
Ġbu ried
Ġhapp iness
Ġgrief s
Ġtem pt
ĠANTON Y
Ġprotect or
Ġduc ats
ĠBened ick
ĠCARDIN AL
ĠPAG E
v al
Ġw ings
Ġg rown
Ġlo ath
Ġkn ees
Ġdaughter s
Ġtra itors
Ġhum bly
Ġstre ets
Ġspo ken
Ġaff airs
ĠFl ourish
Ġran k
ĠJul iet
Ġcred it
Ġben ef
Ġparticul ar
e x
m und
u ct
Ġ ing
Ġt edious
Ġa im
Ġa ble
Ġs al
Ġm ild
Ġb ought
Ġn ine
an us
id ings
ĠH old
Ġher s
Ġlo vers
ic y
Ġout ward
pt ion
Ġal as
Ġfri ght
ress id
Ġim per
Ġcont empt
aint ain
ne y
Ġgu ess
Ġtre acher
Ġsomet imes
Ġfree ly
Ġint ent
ĠVI I
Ġdesp air
Ġund one
L ord
p ort
t here
Ġd eterm
et ween
Ġre nown
Ġall ow
Ġfa ces
Ġper il
Be ing
Ġtri ck
Ġbid s
Ġacc ount
Ġbes ides
ont ent
Ġext rem
ĠCor iol
Ġearn est
h im
v ious
Ġm il
in y
Ġb uck
ĠA lex
ĠC O
Ġno bl
Ġsh rew
ĠR omans
Ġgreat est
Ġpl ot
Ġser ved
Ġmeet ing
pen se
ST A
Ġden ied
ott om
Tw as
Ġprof it
ca pe
umph rey
uri ous
ĠTit us
Ġtemp est
Ġoffic er
i vil
s he
Ġt ree
Ġw ond
Ġb orrow
Ġd ig
Ġha z
ĠT IT
Ġde ce
ĠC ressid
Ġv ice
ble d
Ġmind s
Ġbo ot
ĠPer cy
Ġunk ind
h um
Ġa ud
ha ps
Ġb ark
is bury
it er
Ġc her
Ġn ought
Ġn aked
Ġth ick
Ġp ack
Ġbe ll
Ġe ag
ad es
Ġre ward
ur sed
Ġan gel
ĠL y
ĠN othing
ĠY OR
Ġsay ing
ig ence
ci an
Ġle an
Ġfl ies
ction s
Ġwom b
Ġdead ly
Ġhang ed
Ġtem per
ĠPr ithee
Ġest ate
Ġabs ence
ĠTy balt
ĠChar les
Ġinno cent
IST RESS
Ġvenge ance
yram us
ĠYOR K
b les
b eth
d em
h or
Ġw ide
Ġp ound
ce l
ĠA m
ĠE p
ĠC LE
ĠM ISTRESS
Ġse as
Ġkn ife
ĠD em
ĠD ian
Ġex am
Ġpre vail
Ġapp ears
Ġdisp osition
Ġsudden ly
Ġqual ity
ĠFal staff
C all
D oth
H ear
b ear
i ar
Ġ z
Ġt idings
Ġm ess
Ġm aking
in ius
Ġh id
Ġp ress
Ġg host
et rius
Ġme lt
ter n
Ġre nder
Ġlo ck
ĠP ri
ind s
em ent
Ġbl est
Ġbr ings
Ġj oint
Ġcomm ission
os es
Ġco ver
eth ought
Ġvirt ues
ĠEd mund
Ġsick ness
so oth
Ġconst ant
Ġreg ard
Ġforb ear
Ġsigh s
Ġsatisf ied
Ġap art
Ġacqu aint
atri ce
Ġemp ress
r ough
s c
Ġs alt
is ion
Ġf ish
Ġf urn
Ġc ere
Ġc ries
Ġc ivil
Ġg arden
ĠT H
ĠH umphrey
ĠC OR
Ġse arch
Ġple ad
Ġpre vent
Ġim m
Ġcomp ass
Ġvill any
ati ence
Ġstran ger
Ġwind s
Ġcra ck
Ġru le
Ġty ran
ĠLUC IUS
Ġthro at
Ġviol ent
Ġrasc al
Ġauthor ity
. --
A C
D Y
U FF
f olk
n et
s on
s hi
Ġa pt
is ho
Ġl oose
Ġin cl
im er
Ġsp ake
ant ag
Ġshe d
Ġca pt
ak est
Ġfl ourish
Ġapp re
ĠCa ius
Ġbel oved
Ġmis chief
Ġcoun cil
Ġprop he
ĠSal isbury
ĠMont ag
C a
d raw
e at
Ġw ol
Ġh oney
Ġp ict
ĠA g
ĠS p
ver se
Ġan t
ĠF are
Ġsa ck
Ġwh is
Ġarm our
ĠMar cus
!' "
Ġmod esty
Ġchall enge
ĠLeon at
Ġlen g
F l
H old
U G
W ICK
b us
h ither
Ġt ort
in ate
Ġd urst
Ġn ames
Ġg az
om as
at har
Ġbe comes
ill o
ĠW hom
ck et
ĠM AC
ct av
ĠP yramus
Ġsw ell
Ġbr ook
ĠV ol
Ġper j
Ġwh ither
Ġpur cha
Ġend s
ĠIt al
Ġunder take
Ġthr ust
Ġtre asure
tw ill
UC K
IS H
Ġdro ps
Ġob ject
Ġsus pect
Ġignor ant
Ġequ al
Ġcontr ary
Ġempt y
o pe
Ġh ig
Ġth ie
ĠS en
Ġso re
ĠAnd ronic
ĠD ost
Ġmer it
Ġseem ing
cl ock
ĠTro j
Ġcond emn
Ġcond uct
Ġsk ill
Ġamb ition
Ġmem ory
D is
W hom
i pe
r s
r ont
ou red
Ġs y
Ġw ing
Ġw ake
Ġc ease
Ġp ie
id ence
ri ved
ĠM en
ĠM ort
Ġlove ly
ic ate
AR WICK
ES AR
Ġgl orious
Ġtri f
Ġbod ies
ĠNor folk
ĠAl arum
Ġbir d
Ġdiv ine
Ġoffend ed
ĠUn less
Ġmount ain
Ġobed ience
UT US
Ġcomple x
Ġkins man
ĠGe orge
Ġsac red
ISH OP
A b
Ġs ides
Ġp age
an ces
Ġha bit
ĠW ARWICK
ĠB R
ĠB oy
Ġsp e
Ġv ar
Ġun b
Ġdis dain
Ġear ly
Ġpri ze
Ġimp oss
Ġexce pt
Ġgar ments
Ġatt empt
Ġgift s
ĠCA ESAR
ĠMac beth
Ġvict ory
H N
e ld
l ook
t ime
re es
Ġb ade
Ġb rows
Ġc up
Ġbe w
Ġfor feit
ri a
Ġre ck
ord ing
Ġli est
ore d
ĠB ian
ĠF air
ĠP oor
Ġsh ot
Ġthere in
ĠR ich
el ess
ĠTh ink
ĠTh omas
IN IUS
IN CE
Ġco z
Ġcur sed
Ġass ure
Ġass ured
ET H
ET R
Ġsent ence
Ġadv ance
Ġmurd erer
Ġmark et
Ġrevere nce
Ġlim bs
UN T
Ġfier y
Ġsmo oth
Ġbeha lf
ĠDem etrius
i ver
p ed
ĠH al
ĠO ctav
ĠP et
Ġbl ush
for th
Ġfollow ers
ĠSt ay
Ġcra ve
C A
I nto
N O
r im
r as
Ġs its
Ġm iss
Ġm aintain
in ite
in ia
ĠI nto
Ġp at
Ġst ock
ĠS AL
ĠM al
rom io
ĠP ost
Ġcha ir
Ġpart y
ĠBe atrice
Ġlady ship
ĠCa ptain
ĠCa pit
ĠMar s
Ġbra ins
Ġserv ants
Ġtre ad
ail s
ĠHer mia
ham ber
Ġbeat en
Ġdev ice
umber land
rid ge
dem ona
v ous
Ġc am
et ter
ĠW ilt
ra ld
ĠS e
ro s
Ġsu ck
ĠG et
Ġpr on
Ġr ash
od y
Ġen g
Ġqu it
Ġab used
ĠK athar
Ġpart ed
Ġcl im
Ġrep utation
Ġsm iles
Ġpa ir
Ġret ire
chan ge
Ġest eem
Ġshort ly
Ġdesp ite
Ġresol ved
Ġda res
Ġhorn s
ĠAndronic us
ĠBR UTUS
ĠCapit ol
a ul
h ow
k ind
l ock
m ond
r ust
u ge
he st
Ġa vo
Ġm ag
Ġw aste
nd y
Ġf ro
Ġf ix
Ġp ear
Ġp ier
Ġp ainted
Ġin fect
Ġin form
ĠT w
Ġis land
ra id
ĠS ha
hi les
ĠC LA
un s
Ġsu per
ĠF ri
ct ed
Ġv en
ie ved
em ber
Ġca ve
Ġsa v
EN CE
Ġpro vo
all s
ci al
Ġra ise
ER N
ER S
Ġpre fer
ons ieur
Ġconf irm
ump et
EL LO
ĠBr ook
UC H
Ġbu ild
Ġadv ice
iz ed
chan t
Ġinf inite
Ġdream s
Ġaff li
av inia
Ġfat al
Ġdeg ree
Ġamaz ed
ĠJO HN
nat ural
antag enet
ĠMontag ue
ĠMort imer
ĠBian ca
ĠCLA UD
F irst
H AM
N ever
s ing
Ġw ither
Ġf its
Ġc ool
Ġc ock
Ġhe rald
ĠB ur
ro ach
Ġshall ow
ĠP ER
Ġr ide
Ġser p
Ġaf raid
Ġcl oud
Ġdear ly
Ġturn s
Ġsorrow s
Ġwo es
Ġburn ing
ĠHast ings
Ġdag ger
Ġhaz ard
H ark
b ours
d ge
p ic
r ous
w hich
he nd
Ġs an
Ġs our
Ġw reck
Ġd umb
Ġc ell
ĠI ndeed
en ing
Ġbe yond
ut es
Ġwe a
ad o
as y
ent io
al ks
ea ve
ea rer
Ġse es
ĠO CT
th is
il ius
Ġr hy
Ġsw ay
Ġhere after
Ġgra ces
les ome
Ġbre d
ĠMar ch
Ġchar m
Ġchan ged
Ġdisc har
Ġmis ery
Ġmaid s
gu ndy
Ġdare st
Ġprison ers
Ġwa x
pr ise
ĠAr t
Ġgro an
Ġfra me
Un less
Ġve x
ĠSc ot
ĠDes demona
Ġkna ves
Ġod ds
ĠBur gundy
ĠOCT A
c o
l ic
s ome
s hall
re ak
Ġf if
Ġd ying
Ġc ens
Ġp ick
ut s
Ġfor sooth
ĠE re
ĠC o
ĠF ollow
ĠD romio
Ġtr ade
ink ing
Ġal ike
Ġbet wixt
Ġbeg u
Ġfriends hip
Ġvill ains
ott ed
Ġmin ute
Ġdev ise
ĠCam illo
Ġpol icy
A d
K now
i am
i ate
n ock
t a
Ġ iron
Ġy o
Ġp il
om ed
Ġin vent
ad ies
ra in
ur ing
ĠB ISHOP
Ġde er
ĠC al
il iar
ast ing
ol ute
EN T
ere st
Ġfair ly
IN A
ĠU nder
Ġch ide
sand er
ET ER
Ġreven ged
Ġunt il
Ġmod est
Ġfaire st
Ġrevol t
Ġdisple asure
W elcome
b an
g en
w or
Ġ eter
in ous
Ġw ants
Ġso oth
ĠB a
ĠM ine
Ġsp r
Ġv es
ĠP AR
ĠD i
ĠR em
Ġwor thi
Ġhea v
Ġnor th
ĠCa p
ĠWith out
Ġnat ive
Ġsle w
Ġmon ument
ĠNor th
Ġsk y
Ġunk nown
ĠGentle men
Ġprepare d
Ġmid night
ĠBass anio
ĠLEON AT
Ġthie ves
? --
I ON
U nder
W ARD
s p
u f
w ear
Ġs now
Ġf in
Ġd er
Ġn umb
Ġp arent
ĠA L
ad ed
ra nd
ĠB o
ĠB ar
ro ll
ĠM usic
am our
un g
un ate
th ur
ĠF ie
EN TIO
Ġheart ily
Ġfather s
Ġro ck
Ġtell s
li p
Ġgentle woman
Ġpre y
ert es
Ġcons ul
Ġpe ers
Ġban qu
ING HAM
Ġcountry men
Ġsen ate
Ġba be
bit ious
vol io
Ġcuck old
z z
Ġt aught
he ther
Ġf ant
se qu
Ġst aff
ĠE n
Ġri pe
Ġpray er
Ġapp are
Ġput s
ĠBr ing
Ġdisc over
Ġsound s
ĠMAR K
ĠPro v
Ġgrie ve
ĠPl antagenet
Ġmonth s
Ġchast e
Ġfig ure
ĠOff ic
Ġves sel
G reat
V IA
d ed
f aced
n al
t on
Ġt est
Ġt ide
in ct
Ġf ate
Ġc itizens
Ġp or
at or
ĠT ime
ĠA p
ut ed
Ġe v
oo ps
Ġwe eds
ad ua
as es
Ġst e
Ġst at
Ġst roke
ĠS at
ĠS yra
ĠO R
th ou
Ġsh ine
sel ess
ie ge
Ġsw allow
ig ious
Ġun natural
Ġj our
Ġsa ved
Ġspeak ing
Ġal ter
Ġal though
ass ad
ĠK ent
Ġper force
ON IUS
ĠWith in
Ġrep air
Ġsl ight
Ġsleep ing
ute ous
Ġattend ed
Ġhate ful
Ġac cept
ĠServ ants
Ġbless ing
Ġfier ce
Ġeld er
Ġed ge
Ġbount y
Ġmour n
ERT R
Ġclot hes
isho p
Ġcomplex ion
Ġimposs ible
ĠDi omed
B el
a f
m end
p lace
Ġt arry
Ġb ite
Ġf art
Ġc row
Ġdo gs
Ġse ll
ĠL avinia
Ġv ol
ĠP is
ĠP RO
ĠG R
Ġmar ks
ĠSir rah
Ġdevil s
St ay
ĠQ ue
ĠMAR C
Ġpriv ile
Ġfing ers
Ġdisgra ce
Ġpict ure
Ġwhis per
B r
D e
N othing
d is
Ġs aint
Ġb ind
Ġc la
Ġc alm
en cy
ar m
om ent
at er
ĠT hose
ĠA fter
ri b
ur ance
Ġwill ing
Ġde w
ĠM erc
Ġbut cher
ĠF ran
ĠL est
Ġfa vours
ĠP lease
ĠP adua
Ġne gle
out s
Th ink
ĠV er
Ġfair y
Ġim age
Ġpur p
Ġfind s
ĠU nto
Ġlie utenant
OR A
Ġkill ed
,' "
hes us
ĠWill iam
itt en
ĠMAR GAR
Ġbanish ment
Ġadm ir
ĠLuc entio
Ġbenef it
Ġspe cial
Ġpron ounce
Ġbanqu et
D R
D es
a ld
f ather
i vers
p ul
r is
Ġt ame
Ġs cept
Ġb ury
Ġd im
Ġh ill
Ġis le
Ġe ight
Ġst ick
ĠS erving
ĠH ence
ro y
ast ed
ĠD en
Ġfo x
With out
Ġco ff
Ġconf ound
Ġsleep s
Ġban ished
Ġint ell
Ġdark ness
ĠFl ore
ĠLA DY
Ġfam iliar
ĠRich mond
ĠNorth umberland
B U
F ie
U nto
a ction
a cy
c is
g an
o ll
r ument
Ġt ask
he ld
Ġs and
Ġm oment
Ġb ottom
Ġf elt
Ġo dd
Ġy ond
Ġy ester
Ġn ice
Ġn aught
Ġp our
Ġp omp
om in
ĠW in
ur k
ĠB oth
ĠB UCK
us es
ĠC ould
ge ls
Ġsp le
ĠP and
ĠP ardon
ĠG U
Ġne phe
ĠD O
ĠD ou
nt il
ĠR et
ĠTo by
Ġsee ing
Ġun g
Ġsa u
Ġhand ker
Ġwr ought
IN C
Ġapp et
ĠHere ford
EL L
Ġfaith ful
ap ons
Ġinst rument
Ġsend s
els h
Ġdel ay
Ġknight s
ĠAr thur
Ġcreat ures
ĠGree k
Ġignor ance
Ġtrib unes
Ġconce it
cul es
Ġunf old
Ġnecess ity
Ġdif ference
ĠEp hesus
ĠVol s
Ġreck on
uf idius
ĠMARGAR ET
BU RY
ĠBUCK INGHAM
g ood
Ġb ent
Ġp ill
Ġe ast
our t
Ġwe ather
Ġwe apons
Ġse est
ĠP eter
ep t
Ġwor m
Ġen vious
Ġpro ved
Ġcl er
Ġhang s
Ġdef ence
Ġlam b
ĠGentle man
Ġentertain ment
Ġnob ility
ĠPR INCE
ĠLy sander
Ġleng th
ĠQue en
I ndeed
L est
M aster
T EN
b ow
l ight
l ove
r uch
u gg
y m
ou n
Ġm art
in o
Ġf il
Ġd ot
ar us
ar ies
at ra
Ġin k
Ġha il
ill ing
Ġfor ces
ĠW ales
ĠW elsh
her s
Ġst ret
ĠS UFF
Ġre pe
Ġre com
Ġli p
ĠC ASS
ĠM ade
il ia
ĠL ie
Ġv antage
Ġsw eat
Ġdis s
are d
Ġpo cket
Ġab use
Ġpl ant
Ġtw ain
ĠK AT
ove red
ft y
Ġpla ces
Ġrem ains
Ġgl ove
ret ion
bl ood
Ġhum an
Ġsec ure
Ġsla ves
Ġhard ly
ran io
Ġexce ed
op atra
up iter
Ġmouth s
Ġund o
Ġfe ather
Ġpleas ures
idd le
Ġnob les
Ġusur p
ĠBrit ain
Ġconc ern
Ġdisgu ised
Ġmil k
Ġshrew d
Ġpie ces
Ġsan ct
ĠOCTA VIUS
Ġpurp oses
ruch io
ĠSUFF OLK
b oy
Ġm ood
Ġm ult
Ġbe lly
Ġin her
ĠA men
ĠA ufidius
Ġre jo
th ink
ĠP ut
ĠP OL
ĠD ies
Ġsa cri
Ġthink ing
Ġab hor
Ġfriend ly
ĠK eep
Ġfl ow
Ġsc ene
Ġcont ract
Ġsle pt
Ġres c
ĠHer cules
Ġcommand ed
Ġrun s
Ġsil ent
ĠANTON IO
Ġsens es
Ġcompan ion
Ġcircum stance
Ġlangu age
A r
A fter
B oth
I G
L Y
M ade
P er
R I
f old
l ong
l eness
m es
p et
u bert
v ior
Ġm ass
it able
Ġl un
Ġy es
Ġh ind
Ġp ause
Ġha unt
Ġde b
ĠM e
ĠM ethinks
Ġno bly
Ġan gels
ous es
Ġwor n
Ġro ar
ress ion
Ġra ven
AN IO
Ġhar sh
Ġgl o
Ġpass age
Ġkind ly
the llo
Ġass ist
Ġpra ised
AL STA
Ġlaw s
Ġadv ise
Ġstrong er
Ġcommon we
Ġrec over
Ġwound ed
Al arum
ĠCl own
Ġexp ed
Ġopp os
ĠPer icles
Ġgro ans
med iate
Ġpit ch
Ġmiser able
AB EL
heart ed
hum us
Ca esar
Ġavo id
ĠKAT HAR
ALSTA FF
E n
E re
M ine
d es
e ve
j ust
p ro
w ould
Ġt all
Ġb ot
Ġst ab
ĠB an
ĠB esides
ĠO thello
ĠF ALSTAFF
ĠP hi
Ġam bitious
Ġr otten
Ġbl own
Ġca res
pp er
ire ct
ĠJ upiter
Ġdes cend
Ġother wise
Ġra il
Ġarm ed
Ġpri ck
Ġsub stance
Ġadv ised
Ġshi ft
Ġbook s
ĠLa un
Ġdri ve
Ġconj ure
Ġunha ppy
Ġdign ity
Ġvouch safe
ĠTIT US
ĠPri am
ĠItal y
Ġappare l
B ETH
I EL
L AND
Q u
T hose
W hile
a w
c ame
c ol
g n
p ass
Ġs ink
Ġw hip
Ġw rest
Ġb urt
or at
Ġl uck
on est
ar row
Ġg ather
ĠW hile
Ġk in
ĠS le
ur b
ain e
est ed
am emn
Ġam iss
Ġgo dd
ĠN OR
em per
Ġsay est
Ġal arum
Ġmar vel
tle d
Ġper ish
Ġpre par
AN US
Ġcourt ier
Ġstay s
ĠSt ill
EL IA
ĠRe ads
IL IA
AT RA
Ġpleas ant
Ġaffection s
OP ATRA
reed om
ĠMil an
ĠCle opatra
Ġmess age
Ġtort ure
ĠMAC BETH
ĠPost humus
Ġsav age
Ġnumb ers
ABEL LA
amemn on
c use
t hen
Ġs ings
is hes
Ġh uge
ot ion
Ġfor s
Ġwe ars
Ġst ore
Ġst oop
Ġso ci
ĠC L
ĠL ong
Ġsh ri
Ġcon ference
Ġun se
Ġen force
Ġab oard
Ġlea gue
Ġser ves
Ġyoung er
Ġacc use
Ġsure ly
omet hing
Ġwind ow
Ġinst ru
ham ed
Ġred eem
Ġconst able
Ġdrum s
Ġbeast s
ĠCLE OPATRA
Fl ourish
ĠOffic ers
Ġhandker chief
Ġsacri f
C ould
P l
Q U
b ell
d le
p ier
z ed
Ġa ch
Ġm oral
or a
it ing
Ġhe ight
Ġha ll
le ans
ir ty
ĠB id
Ġwill ingly
Ġsp l
ĠL adies
ĠG oths
Ġsh own
qu ire
Ġar rest
ort ens
ig o
od er
EN C
Ġqu ench
ci ans
Ġper haps
Ġnight s
ER O
che ster
AN S
ew is
Ġserv ices
Ġchar ged
Ġearth ly
Ġsub tle
Ġfalse hood
Ġadv ent
CT OR
Ġstra in
Ġtem ple
Ġcho ler
Ġrec ord
Ġdeser ves
cri ption
Ġsho ot
Ġacqu ainted
ĠED WARD
Ġfaire r
Ġcre ep
Ġacquaint ance
Ġserp ent
ĠCap u
Ġappet ite
Ġgodd ess
' "
s er
w ife
Ġt ou
Ġs ought
Ġs ins
Ġb ag
Ġo ak
ĠT ranio
Ġst ub
ĠH ubert
Ġbl us
el iver
Ġex per
Ġwho lesome
Ġcha se
Ġdes ign
Ġpart ly
Ġcomm itted
ĠWhere in
ĠOr leans
Ġenter prise
Ġbo ast
Ġgre y
Ġread ing
Ġwis hes
Ġbar ren
Ġsign s
Ġliber al
Ġwed ding
ĠLa ertes
Ġunw orthy
Ġjealous y
Ġwond rous
Ġfurn ish
ĠAg amemnon
ĠTroj an
ĠPet ruchio
ĠMal volio
ĠFran cis
Ġscept re
D ER
E B
F air
b ble
g on
r ison
u x
Ġt ro
re ase
re land
re ls
ha nd
Ġb ore
Ġd ow
ĠI reland
Ġp ee
at ive
le nd
Ġfor ced
ri ke
ĠB EL
ro g
ĠC HAR
ĠF aith
Ġkn it
ard ed
ĠN ature
pt ist
Ġex change
Ġal so
Ġro bb
AR ENCE
Ġad o
Ġaf ear
Ġstand ing
Ġco at
ĠWhere fore
Ġtri cks
Ġpass ing
Ġturn ed
TI AN
Ġacc us
ap les
Ġstri fe
Ġsen ators
Ġwat ers
Ġdep end
Ġgar land
Ġguard ed
IAN A
Ġmist ake
ĠTr ue
Ġsatisf action
ked om
ĠJul ia
Ġamb assad
Ġtor ch
Ġdu kedom
Ġpet ition
IM ON
Pr ithee
Ġflat t
Ġstol en
Ġtrem ble
ĠCO UNT
Ġz eal
Ġtyran ny
pic ion
Ġyo ke
ĠProv ost
Ġsple en
orat io
ortens io
ĠCapu let
Ġpee vish
H eaven
a pp
g ged
m ark
Ġ et
Ġs ine
Ġm ill
Ġth orn
Ġth rown
om en
se ll
Ġas hamed
ĠH EL
ĠC itizens
ĠL O
ĠL ewis
Ġkn ot
Ġper fection
Ġch id
the y
Ġbel ong
Ġvill an
Ġmon arch
Ġter m
Ġcor on
Ġmed ic
ĠGre cian
ĠBa ptist
ĠCL ARENCE
B US
B ER
M e
M ethinks
P ardon
b es
c est
c ence
n ew
Ġb ay
Ġf ret
Ġf ront
Ġd ress
Ġn ation
Ġh ie
Ġp aint
Ġto il
ing er
st ain
ĠT om
ld om
ĠA pp
ut ies
Ġst ing
Ġst amp
ra c
ĠS OM
Ġsp ur
ĠF ORD
ĠL o
Ġam en
ous ly
ĠD raw
ĠN aples
res ent
Ġcon ven
Ġknow ing
Ġthere of
qu o
qu es
fe rent
ol er
Ġbr id
ist ol
Ġcha rac
ag ed
Ġke y
Ġbeg an
os ing
Ġrem orse
ĠIs ab
for ced
Ġsm iling
Ġtra vel
Ġtra vell
Ġconf usion
Ġkind red
Ġneed ful
Ġhel m
Ġdisc retion
Ġsound ed
Ġkiss es
Ġbir ds
Ġru led
vo c
Ġobs erv
Ġer ror
Ġwhi les
Ġga it
cel ot
ĠTw o
Ġfif ty
Ġeter nal
Ġjour ney
Ġnephe w
Ġsau cy
ĠSle nder
Ġafear d
N e
l ive
o ff
Ġs iege
Ġb on
Ġb ill
Ġf ed
ar ried
st ant
ĠT am
ĠW est
Ġst age
ĠB ra
ĠB ear
ĠM urd
th ing
Ġsu p
Ġr ouse
Ġshould ers
Ġab ide
Ġapp ointed
Ġcl ock
Ġbre ad
Ġbre ach
Ġgi ving
Ġwise ly
Ġcomb at
Ġwol f
Ġhig her
Ġprivile ge
Ġstub born
ĠBaptist a
E US
L o
P oor
T oo
f ellow
g ive
m aster
s hould
s cape
t e
u pt
x ford
Ġt ut
Ġs tern
Ġm ask
Ġw est
Ġb ur
is ible
or ough
Ġf la
Ġc orse
Ġh ur
Ġp ate
ill on
ĠE m
ĠM ess
Ġan cest
ge on
Ġlo vest
Ġsp urn
Ġsp ace
Ġsu its
Ġfa res
Ġr ust
Ġtr oop
Ġca ught
Ġar ch
ak er
Ġpo et
au g
Ġser ious
Ġwar ri
Ġcould st
Ġrem oved
Ġmer ri
Ġco ll
Ġplay s
ĠAt hen
Ġstre am
Ġval ue
Ġstri ve
Ġjoy ful
Ġweep s
Ġfore ign
ĠQ U
Ġpar ley
so ever
Tw ere
Ġvis age
Ġtown s
ĠHel p
Ġgrant ed
Ġshi ps
Ġshi eld
Ġresol ution
Ġabs olute
erer s
Ġeas ily
Ġda ily
Ġtor ment
Ġpet ty
Ġobed ient
mong st
Ġclo ak
ĠCoriol anus
Ġeag le
Ġpurcha se
Ġven om
ERS ET
Ġcens ure
Ġstret ch
oder igo
ĠSOM ERSET
A m
B ring
H el
R em
S P
b r
h ra
l ain
m aid
r ite
Ġb asket
Ġf reedom
Ġn on
ĠS et
Ġli qu
Ġas pect
Ġsp it
Ġr um
Ġtr im
ud d
Ġlook ed
li ed
Where in
Ġhum ours
Ġpal m
Ġprop ort
Ġpit iful
Ġabs ent
Ġtrouble d
Ġpossess ion
Ġjew els
ĠSh ow
Ġprod ig
ĠLeonat o
Ġclim b
ĠBo he
ĠWin chester
Ġburt hen
L ET
O G
b ridge
c ap
l se
o on
u ries
Ġa v
ou bt
Ġw and
Ġw ander
Ġb all
Ġb ull
Ġb urst
is ons
Ġo pe
Ġc rest
Ġl ent
Ġn et
Ġn im
Ġn ails
Ġg oose
Ġbe held
ill ain
Ġwith draw
ĠS T
Ġre ach
Ġli ft
ĠH oratio
ĠH ortensio
ĠM ON
ĠO LI
Ġsh un
Ġr at
Ġbl unt
ic a
Ġcan n
fe red
Ġun m
Ġlook ing
Ġpart ing
to gether
Ġsc our
ĠThis by
Ġend ed
Ġcur st
Ġcur ses
Ġcur rent
cl am
Ġimp rison
Ġhence forth
Ġstre w
IC LES
Ġcommand s
Ġjoy s
Ġspo il
Ġlate ly
Ġint erest
Ġdel icate
no on
pr us
Tw o
Ġinc en
Ġhair s
Ġgrie vous
Ġsever ally
Ġlust y
Ġconqu est
LI FF
Ġinv isible
Ġbef all
Ġaud ience
Ġappre hend
ĠSen ators
Ġrhy me
Ġprepar ation
ĠMON T
' ?
D ost
P ut
c er
l us
m ony
u pon
w ar
z y
Ġw ail
Ġf ran
ĠI S
Ġwe pt
Ġre ce
ĠH ost
ĠE ither
am ing
Ġall eg
ĠO xford
ĠF ool
ĠG ra
ĠG aunt
ĠR ep
el ing
Ġgra ves
Ġhear s
Ġlea p
Ġle ads
Ġwr itten
Ġstr umpet
Ġper chance
Ġsc ru
Ġad vers
Ġmer chant
Ġpa wn
Ġpe as
cl us
Ġdisc ontent
Sir rah
Ġcar ried
Ġter ror
Ġbrave ly
Ġcor re
Ġpen ny
Ġfeel ing
ĠOn ly
Ġag o
ĠTy re
Ġamong st
Ġconcl ude
Ġconcl usion
Ġsus picion
Ġgent ly
Ġcontin ue
Ġexam ple
Ġcam est
ĠPER ICLES
Ġinstru ct
A rt
I OL
O W
c ra
c hamber
f oot
g rim
m ian
s ire
t han
u pp
w here
Ġ ir
Ġt um
Ġa unt
Ġb ud
Ġc and
Ġn est
Ġh om
ar ro
Ġto w
Ġto ken
ĠT O
ĠT oo
Ġwe ek
Ġst eed
ĠS H
ĠS ic
Ġso il
Ġlo ad
Ġsu c
ĠP ho
ard ol
ust ice
res sed
Ġtr oops
Ġthem e
ĠR oderigo
Ġtheir s
Ġking ly
AR BUS
Ġcomm it
Ġla p
Ġplace d
Ġpa ce
Ġtre es
Ġhusband s
Ġover th
Ġlight s
Ġsl ay
Ġban k
Ġhang ing
Ġbea uteous
Ġcry ing
Ġfield s
iet y
Ġter rible
Ġbar bar
ĠMAR IA
IS BURY
Ġest im
Ġquar ter
Ġbehold ing
Ġclose t
Ġaction s
Ġadd ition
Ġfam ous
EM ETR
Ġprov ide
uri o
Ġgovern ment
Ġdest roy
Ġur ged
Ġref use
Ġinj ury
ĠBel ieve
Tr ue
ĠRo bert
Ġfle et
ĠCy prus
Ġhap ly
Ġcal f
ĠVII I
inds or
ĠSAL ISBURY
Ġwea pon
IOL ANUS
ardol ph
EMETR IUS
K eep
L ove
W ilt
b in
b on
s ha
Ġm ile
Ġw ink
it ness
Ġn un
Ġg idd
Ġin ward
ĠT urn
Ġnot ice
Ġre nd
Ġli king
ĠH AM
Ġdo zen
Ġde cl
ĠM ight
Ġsp y
ĠF ear
ĠP ort
Ġsh ook
ĠD EMETRIUS
ĠN one
Ġar rived
ĠTh ree
ound ed
Ġcomm ons
ĠAnt ip
Ġpri ce
Ġacc ident
Ġass urance
Ġmis c
Ġsupp ly
Ġinc rease
stand ing
Ġbleed ing
Ġtreacher ous
ĠCOR IOLANUS
Ġfart her
ĠPOL ONIUS
ĠLaun celot
ĠBohe mia
ĠIS ABELLA
ĠHAM LET
M ark
c hard
e z
n z
t ic
t les
Ġt aking
Ġa ged
re me
Ġo ce
Ġd un
Ġd ote
Ġl ower
Ġl aughter
ar on
ve ls
an k
at ro
ĠA G
ĠA lack
Ġe vent
Ġfor ty
ĠW indsor
as ca
Ġst ro
ur vy
ĠB AST
ĠE X
ro om
ĠM ant
ĠM EN
Ġse ize
ĠO nce
Ġsu e
il ful
Ġman hood
Ġcom est
ĠD on
ive d
ive red
Ġor acle
el ia
Ġshould er
Ġdis sem
ĠMy self
ĠK ENT
Ġfl out
Ġra ised
Ġapp la
land o
Ġcont ro
Ġbeg et
os op
Ġbra ce
OR TI
Ġgr at
Ġgi ld
ump ets
Ġdre w
Ġpra ises
AL B
Ġjust ly
ac les
St ill
Ġstrong ly
IL US
ĠAr m
hil osop
Ġred ress
RO ILUS
Ġve ins
ĠCA P
Ġobs c
po llo
ĠAd ieu
head ed
ĠGree ks
Ġur ge
Ġeld est
Ġpersu ade
Ġpin ch
mo gen
Ġprosper ous
Ġdece it
Ġcere mony
Ġperj ured
Ġdischar ge
Ġpil grim
ĠSyra cuse
Ġrecom pense
ĠBan quo
ĠTam ora
Ġsuc ceed
atro clus
ĠBAST ARD
B l
E ither
H ang
a cc
a bs
f ed
f all
i ven
i ps
he l
in ent
Ġw ot
Ġb urd
Ġf an
Ġc ro
ĠI nd
ĠI mogen
Ġto oth
at he
ce llent
ĠT ROILUS
ĠW hither
as p
Ġli kes
Ġas sem
ĠH y
Ġwill s
Ġde ceive
ĠC ade
un ken
ĠL ay
ĠP aul
ĠN urse
ven ge
Ġun just
Ġper f
Ġra pier
Ġbra w
ĠSt ep
Ġless er
Than ks
Ġcar ri
Ġcor p
Ġcoward s
Ġreb ell
Ġwhore son
Ġthro ats
Ġdest ruction
ĠED GAR
ĠAR IEL
Ġtail or
ĠKathar ina
ĠFri ar
B ARBUS
D EN
F ORD
S ave
a ches
c ate
e le
i que
r atch
s ide
s cri
w ing
Ġs outh
er al
ĠI AG
Ġy ellow
ow l
at ic
Ġbe like
le an
ad le
ĠW hilst
id us
Ġst ale
ri al
ĠH o
ĠH ail
ĠB IAN
Ġde af
ĠE NO
Ġsha re
Ġsha pes
Ġse ldom
Ġv oy
ie l
Ġhat ed
Ġsir s
ĠEx eter
Ġbr u
Ġsee ks
Ġlike wise
Ġun l
Ġex ile
Ġoff ices
oy al
ĠJ a
AR US
ĠV ery
Ġfair ies
My self
ON G
che ss
Ġim mediate
Ġbeg un
Ġrem ove
Ġnew ly
Ġmer c
Ġdr unken
ĠOr lando
Ġafter noon
Ġcou ch
Ġche que
Ġlight ning
Ġyouth ful
Ġbo x
Ġdesire d
Ġgrow ing
Ġdraw s
Ġlear ning
pr ised
Ġdiv or
Ġresol ve
Ġap ace
Ġobs erve
Ġbreed ing
Ġreb els
ĠDe ath
Ġforsw ear
Ġwhi pped
gl as
ĠHelen a
Ġgrand am
Ġsch ol
Ġimag ination
Ġpot ent
Ġloyal ty
lo gue
Ġextrem ity
Ġpier ce
Ġinvent ion
ĠLEONAT O
ERTR AM
ĠDou glas
hers ites
Ġinher it
ĠIsab el
ĠAthen ian
clam ation
ĠIAG O
ĠBIAN CA
ĠENO BARBUS
B esides
F ear
a res
o e
Ġa le
Ġb ol
Ġl ying
Ġn ap
ĠA cc
ĠH ang
ĠB ERTRAM
ĠE ros
ĠM onsieur
Ġse m
un ed
ĠP ol
Ġr he
ase d
Ġper pet
ward s
Ġwh it
Ġpur sue
Ġend ea
Ġbid ding
Ġbreak s
Ġinst rum
Ġroyal ty
Ġexce ll
Ġmet al
Ġdist ress
Ġbar gain
Ġgrand sire
ĠSat urn
ĠPis anio
ĠHEL EN
Ġalleg iance
Ġinstrum ents
B id
H ast
P lease
W hilst
b ol
g entle
r ish
s ion
x com
Ġt ied
Ġa x
Ġa lack
Ġm ing
Ġm akest
re g
Ġf ever
it ch
it ic
Ġd ine
es eech
Ġl ines
Ġn amed
Ġth read
Ġp hilosop
st it
ĠT ruly
ĠT urk
ut ch
ill y
Ġu g
Ġst um
ri end
ore nz
ĠB ARD
ĠC asca
and al
Ġsp read
ĠL ear
han t
ĠG on
ĠG host
Ġsh ines
ant us
Ġam end
ĠD OM
Ġcon ceive
em antus
Ġr ush
nt y
Ġor chard
ep idus
Ġthan e
Ġbr an
ig nty
Ġho le
Ġout ra
Ġbet imes
Ġle v
li pp
Ġsc ore
Ġsweet ly
ON A
Ġpres erve
Ġpur su
ĠMar ina
OL PH
ne as
Ġco ast
Ġgu ide
ati ent
Ġstran g
Ġacc used
Ġbreat hed
Ġbus h
ab ly
Ġbo ots
Ġstrange ly
Ġgre w
Ġtalk ing
Ġcoun sell
Ġdef y
Ġsupp osed
Ġsister s
Ġwo ful
Ġsign ify
ĠAttend ant
Ġbosom s
Ġweak ness
Ġopp osed
Ġsuffer ance
Ġshad ows
IR ON
Ġsecret s
Ġmarch ing
Ġmir acle
Ġeffect s
IT IUS
ĠAd am
ĠChar mian
Ġtrib ute
Ġbeha vior
Ġcondition s
Ġow es
UL ET
Ġimper ial
Ġcher ish
ĠDian a
Ġimm ortal
UG H
Ġgaz e
Ġtrif le
Ġpear l
ĠScot land
Bel ieve
Ġyester day
Ġcommonwe alth
Ġoppos ite
Ġoce an
ĠCAP ULET
orenz o
ĠBARD OLPH
ĠDOM ITIUS
F ollow
G entle
M ight
M akes
N one
T urn
o very
r oth
r oof
s ame
Ġ ought
Ġt e
Ġw ore
Ġw ard
or p
Ġh y
Ġp ull
Ġp hra
st one
se c
ĠH ugh
ĠC orn
ĠM akes
ĠG ar
Ġr ate
ul f
qu is
ĠR E
ĠR ous
Ġsw ears
Ġdis ci
Ġdis ease
Ġpro cess
Ġal oud
Ġal together
ick le
ĠYou ng
Ġear l
ĠBe hold
Ġever l
Ġcont ents
Ġnat ures
It em
the m
Ġbus y
Ġrun ning
ĠThan ks
Ġmet tle
Ġwork ing
Ġinf irm
Ġdep uty
Ġinter p
On ly
Ġsatisf y
Ġmut iny
Ġoffic ers
Ġstep s
ĠVer ona
Ġrejo ice
Ġvillan ous
Ġgidd y
ĠPort ia
Ġphra se
A lack
M ILIA
S ha
Y M
e ction
l ter
o ft
r ity
v oy
Ġt ur
Ġb rown
er le
Ġl ark
Ġp ite
Ġg ame
at hed
Ġbe ams
ĠT hersites
Ġnot ed
Ġst out
ri c
ri ve
ra m
ĠS ave
ĠS IL
Ġli very
ĠB iron
ĠB ardolph
Ġwill ow
ĠE MILIA
ĠC ry
ĠC ons
ĠC AT
ess ica
th ought
Ġsp ect
ĠF L
ĠL Y
ĠL eave
ĠL epidus
Ġfa ct
Ġv ul
ĠP H
ĠG ON
Ġman if
Ġgo ss
Ġr uff
ul ate
Ġtr unk
Ġthere by
um ed
Ġbl ue
ic ient
Ġsw ain
Ġor n
ĠTh urio
ig ent
Ġex pl
ĠJ essica
io ch
Ġfear ing
Ġsc atter
Ġsc ope
Ġra ck
Ġke en
ER D
Ġpre ced
Ġapp oint
Ġhar bour
aint s
Ġpur s
Ġrep ose
OL LES
Ġind ign
Ġco in
Ġco xcom
Ġmother s
bl ance
the e
Ġta x
ens ion
ĠAN G
Ġacc ess
Ġacc ursed
Ġsub d
Ġbreat hing
ĠDo ctor
Ġthank ful
Ġstri kes
Ġcra ves
Ġcra ft
Ġdist emper
Ġdel ivered
Ġsk in
Ġsovere ignty
Ġcontent ed
Ġrequ ite
Ġdrink ing
ĠPro ceed
Ġprop hes
Ġkingdom s
Ġshad e
rem io
Ġprov ided
rum io
Ġinstant ly
Ġevil s
Ġlod ge
Ġmiser ies
ĠAE neas
Ġbab es
Ġtreacher y
Ġrenown ed
Ġvar let
ĠPAR OLLES
ĠAp emantus
Ġintell igence
ĠGU IL
Ġcler k
ĠCOUNT ESS
Ġnim ble
ĠEX ETER
ĠMant ua
Ġvoy age
! --"
A cc
B ear
S et
f ast
k now
m ing
y et
y ard
Ġt res
Ġm ethought
re pare
Ġn arrow
Ġh ouses
Ġth irty
Ġp est
Ġbe re
ĠA ng
Ġe c
ke ep
ĠW or
ĠW hiles
Ġst ocks
ĠO ld
ĠP art
Ġam ends
Ġcon sequ
Ġr ub
Ġj e
Ġen s
Ġex erc
Ġro aring
Ġtell ing
Ġwr ink
Ġapp arent
Ġbeg ot
Ġgr ass
Ġsle eve
Ġmatter s
Ġwrong ed
Ġbes ide
Ġdi vers
Ġbreak ing
Ġsen seless
Ġpoint s
Ġpen it
ĠCan not
Ġcle an
ĠCA IUS
Can not
Ġhun gry
iv ity
Ġdism iss
Ġdirect ly
Ġwag er
Ġbegg ars
ĠOctav ia
nock ing
Ġresc ue
Ġbot tle
Ġsoci ety
Ġsacrif ice
Ġmedic ine
Ġproport ion
Ġfran k
ĠAntip ho
Ġdisci pl
A pp
B AN
R et
V ery
b ation
d en
f ess
m m
m ission
n el
o gue
r un
s en
t ered
u le
u ced
Ġ vers
Ġt im
Ġt al
in ary
Ġb ul
Ġo x
Ġd il
Ġp ul
Ġp ush
ot en
Ġbe ds
ĠT ars
ĠA aron
ĠA pollo
Ġfor ms
our n
ter y
Ġst y
ri l
ri ef
Ġre v
Ġli ons
Ġli ken
ĠH im
ĠB etween
Ġde ck
am ond
ĠO li
Ġv ault
ĠP O
ĠP atroclus
ĠG remio
Ġam orous
ĠD ear
Ġgood s
Ġr ites
ul ous
um es
Ġbl ast
Ġbl az
ic le
Ġar ise
Ġwor ks
Ġlike ly
Ġqu est
Ġdeath s
li us
li ament
Ġri ches
che l
ian us
Ġansw ers
Ġyoung est
Ġpass es
Ġres ist
Ġthr ong
Ġcou ple
Ġacc om
ĠBr other
ap h
Ġbu rial
Ġstri ct
ST ERN
Ġprom pt
Ġprom ises
Ġcomfort s
Ġdoubt ful
Ġsupp ose
Ġattend ing
Ġinf ant
Ġrec on
Ġyield ed
Ġrequ ire
Ġwonder ful
Ġburn s
Ġappro ve
with standing
Ġgro om
Ġbond s
Ġwrit ing
oss om
Ġdire ction
ene ath
Ġins ol
urs ions
TH ELLO
Ġconcl ud
Ġhor rible
Ġconce al
Ġdec ay
Ġgreet ing
Ġcompl ain
Ġlod ging
Ġminister s
Ġsli p
ĠAlex and
shi re
Ġfro st
ĠCLAUD IO
Ġnegle ct
ĠDen mark
ĠPand arus
ĠVols ces
ept une
Ġdow ry
upt ial
Ġstro kes
DEN STERN
ĠHELEN A
Ġax e
Ġug ly
ĠGUIL DENSTERN
ĠTars us
H ence
L ong
S how
c ock
m outh
t ell
t een
w h
w it
w ind
Ġt ren
he ar
Ġs itting
Ġm at
Ġb atter
Ġn uptial
Ġp i
Ġp ed
Ġhe y
ĠS m
ĠB ea
ck now
ĠO THELLO
ĠG rumio
ĠN eptune
ort hi
Ġen forced
Ġdis posed
Ġpl an
Ġsc urvy
Ġmight st
Ġfall ing
Ġmo ves
Ġhapp ily
Ġinst ruction
Ġcare ful
Ġdist ance
Ġdist ract
Ġfore head
Ġsad ness
Ġfour teen
oss ess
Ġsafe ly
Ġbow els
Ġproceed ing
Ġflatter y
Ġqual ities
Ġsens ible
ĠROS AL
Ġvent ure
Ġconquer or
ĠCoriol i
ĠRem ember
ĠFlore nce
Ġadvent ure
Ġsine ws
ĠRous illon
Ġexpl o
ĠAntipho lus
B RO
D raw
D EM
M ED
R ome
S EY
T Z
T ruly
W AL
a e
b el
h orse
n es
n icious
p ur
w ere
w all
Ġt on
Ġt ents
Ġs ed
Ġw aking
Ġw alks
re et
Ġf ires
Ġd at
en ius
Ġh ounds
Ġth in
hat h
an ley
se y
Ġha w
ir ing
ch or
Ġnot es
ke y
Ġit s
ĠW OL
id s
ord elia
ĠH as
ĠB O
ĠB ASS
Ġdo ve
est or
un o
un ch
if ic
Ġsp ee
Ġsu itor
ĠL orenzo
Ġfa wn
Ġv ast
ĠP ORTI
Ġsh out
Ġup right
ĠD ES
ĠD IO
Ġwhe el
Ġr oof
ic ha
Ġhere in
Ġj ot
Ġen m
Ġoff ences
Ġfo ld
ci ally
Ġmar vell
Ġwr ites
ĠV arro
Ġaf oot
ĠCa wd
ES BY
ĠSo ft
Ġset s
Ġco zen
Ġhour ly
Ġres ign
Ġchar ms
ĠAnt ioch
bt ain
,' --
ars on
Ġdi est
Ġdi amond
ĠAl ban
ates by
Ġent rance
IL IUS
Ġsur feit
RO M
Ġheir s
Ġtit les
Ġrel igious
idd en
Ġexec ute
Ġdrown ed
Ġdepart ure
Ġreb el
Ġele ction
Ġgovern or
ĠGree ce
Ġshore s
Ġchast ity
Ġmour ning
Ġsto pp
Ġvirgin ity
Ġprofess ion
ĠBass ianus
Ġphysic ian
ĠROS ENC
RAN TZ
rat itude
ey ed
ĠGu ard
Ġdeterm ine
ĠOctav ius
Ġsuper fl
Ġbegu ile
Ġste ward
Ġreckon ing
Ġconcern s
Ġexped ition
Ġconven ient
Hel p
ĠPho e
Ġdivor ce
Ġschol ar
Ġpite ous
ĠCAT ESBY
Ġliken ess
BRO KE
DEM ONA
MED ES
ĠWOL SEY
Ġspee ches
ĠPORTI A
ĠDES DEMONA
ĠDIO MEDES
ĠCawd or
ĠROSENC RANTZ
G et
L ay
M istress
R ep
b ast
he ard
Ġa pe
Ġo btain
Ġhe dge
Ġg ap
Ġha re
ĠA ri
Ġhis t
Ġst eep
if ferent
Ġv ot
Ġv ous
Ġman age
ĠN er
Ġcon verse
ost er
Ġwor shi
Ġmay or
Ġmad man
Ġpro logue
Ġpro clamation
Th rough
ĠJ ud
ĠK ne
Ġfl int
Ġri ot
Ġper d
Ġplay ers
Ġright ly
Ġacc ording
Ġkill s
Ġass ault
pl ay
Ġdist urb
Ġba chel
Ġpay s
Ġwoo ing
Ġgrie ves
Ġfe ign
Ġpleas ing
Ġhost ess
Ġele ments
ĠAb out
Ġguest s
Ġfun eral
Ġbew are
Ġfant ast
boy s
Ġbarbar ous
Ġburd en
B etween
D ear
D ELLO
M UN
N E
U LI
V IN
V OL
a wn
a cious
b ray
e ves
i en
k ins
p as
r ue
r ors
w art
Ġt ar
Ġt ig
Ġm as
Ġm ould
Ġm iddle
Ġw aked
Ġf ray
Ġd iff
Ġc hat
Ġc ord
Ġc el
Ġl ads
Ġn earer
en es
Ġh ue
ve t
ow bray
ĠT ALB
ent on
ĠS ings
ĠS leep
Ġre ar
ly ss
Ġso lic
ĠB ION
Ġde posed
us s
ĠC ordelia
ĠM AL
Ġan n
th ren
Ġsp ark
ĠF ERD
Ġfa ction
Ġv ass
Ġour self
ĠP IS
ĠP hil
um erle
Ġcan ker
Ġho se
Ġdis pose
ime ly
Ġro ses
ĠK night
li a
ĠV INC
Ġper nicious
Ġsc ratch
Ġsc andal
IN D
IN O
IN AND
Ġra vish
ER M
Ġpres ume
Ġcont ain
Ġhouse hold
ĠU lyss
Ġbra gg
Ġfort unate
Ġco p
Ġcons pir
Ġtri ed
Ġmean est
Ġta p
Ġsub scri
ĠDo es
Ġsl umber
Ġstra w
form ed
ĠJo an
Ġsuff ice
Ġcar ries
Ġint eg
Ġcertain ly
Ġsk ull
ub lius
Ġvi ctor
Ġact s
Ġsign ior
Ġcham p
Ġmurder ous
eem ing
Ġstir ring
Ġscorn s
Ġhide ous
UR N
Ġag ree
Ġdouble t
Ġele ven
Ġstar ve
ĠVen us
Ġsmo ke
Ġhun ger
phe lia
Ġdism al
Ġdesert s
Ġpunish ment
Ġemb ass
ĠCLAUD IUS
wor th
ĠDO CTOR
RI AR
Ġexper ience
lend ower
Ġambassad or
Ġancest ors
ĠOLI VIA
Ġvul gar
Ġpest il
Ġvers es
MUN D
ULI ET
VIN IA
VOL IO
ĠTALB OT
ĠBION DELLO
ĠFERD INAND
ĠPIS ANIO
ĠVINC ENTIO
ĠUlyss es
S h
S ignior
k y
l ate
m ay
s ay
s peak
w hy
Ġo st
en ches
Ġth rew
Ġp ark
Ġin quire
et wixt
ĠW hether
ĠS ing
ĠS ec
ĠC ousin
ĠC atesby
ĠM owbray
ĠO phelia
ĠF RIAR
ĠG er
ĠG all
ĠG lendower
Ġam ity
ĠN estor
Ġcon ver
ĠTh rough
Ġpro ver
Th ree
Ġle cher
Ġfl ame
Ġri ver
ĠNo ble
Ġch in
Ġcourt eous
Ġback s
Ġback ward
ĠAN DR
Ġacc ord
Ġkiss ing
Ġbea ut
Ġcho sen
Ġaff ord
Tw ixt
Ġdiv ision
Ġopp ort
Ġharm ony
Ġdesp ised
Ġmed dle
Ġinno cence
ĠED MUND
Ġmere ly
Ġpol itic
Ġguilt less
Ġcere mon
Ġfors ake
ĠMess al
Ġmerri ly
Ġscru ple
Ġpeas ant
Ġestim ation
Ġsem blance
ĠGar ter
Ġeverl asting
A CH
C ry
C ons
F OLK
M en
M ON
O nce
i um
i ction
n ard
t ies
y r
Ġa h
Ġs ire
ha d
Ġb ully
er ation
Ġf ount
Ġd ain
Ġd ame
Ġd rows
Ġd uties
Ġy on
en con
ot ed
Ġg ird
at est
se e
Ġha b
ĠT ut
ĠT IMON
ed er
ut io
our age
ad vent
as ions
Ġst ead
ra int
ĠS ure
Ġli ver
ĠH OR
ĠH UGH
ĠB lack
ĠC H
ĠM er
ĠM any
un ity
Ġsu gg
Ġsu stain
ell ows
Ġv ig
ĠP he
Ġman kind
ĠN ym
Ġpr int
Ġr ot
um n
Ġbl ot
hy lock
pp le
Ġlet s
el ine
od ity
Ġsa ils
Ġdis per
pe cially
Ġro be
Ġro cks
Ġro gues
ĠJ ULIET
Ġle vel
ull us
IN US
Ġra ging
Ġra gged
Ġhast y
Ġaf ar
Ġever more
Ġhar vest
iss a
Ġrep ly
Ġrep roach
ian o
Ġbra nd
Ġgr im
Ġco ats
Ġconf ident
Ġbring ing
Ġpe er
Ġbel ie
Ġche ap
Ġright s
Ġimp ed
Ġpower ful
ĠRe venge
Ġsure ty
Ġmis chance
ĠAl though
Ġhang man
Ġsound ly
Ġbo ar
Ġinst ance
Ġpers ons
Ġdan cing
Ġcare less
Ġcountry man
Ġpurpose d
Ġbound s
Ġwat ery
Ġinf l
Ġcar riage
Ġint ents
Ġaff right
Ġgall ows
Ġgar ment
Ġcreat e
Ġlad der
ĠDid st
Ġsur prised
Ġfra il
Ġbond age
ĠLA VINIA
Ġgrie ved
mb eline
ĠLUC ENTIO
ĠLE AR
Ġbreed s
Ġer rand
Ġdri ft
po ke
Ġcruel ty
Ġvan ish
Ġes cape
Ġhun g
Ġhor ror
Ġleg ions
atri cians
Ġemploy ment
rate ful
Ġhol p
Ġfee ble
ĠCy mbeline
Ġunkind ness
Ġprevent ed
Ġappre hens
Ġprophe t
ĠCASS IO
gn ant
ĠNOR FOLK
Ġspl it
Ġcharac ter
cra ft
Ġoutra ge
Ġcoxcom b
Ġtres pass
Ġconsequ ence
Ġexerc ise
ĠAlexand ria
Ġton ight
icha el
Ġenm ity
Ġhist ory
Ġinteg rity
Ġdain ty
C ame
W hiles
b ack
c laim
w ork
Ġt ales
Ġa cknow
Ġw ipe
ha st
Ġc ook
Ġl in
Ġhe inous
ing u
st ers
Ġnot withstanding
ord er
ver ty
Ġde fe
ĠE ach
ĠM aine
ĠM ichael
Ġse qu
Ġsu gar
ĠF ull
ĠP ublius
ĠG rey
Ġsh irt
Ġne gl
ĠD un
Ġhat es
Ġpo s
Ġpo verty
Ġex tend
ĠJ uno
You ng
Ġind ifferent
Ġtri ump
the ir
ĠSt anley
ĠAN NE
ĠRe gan
Ġdi et
Ġmaj est
ĠFrench men
Ġsum m
esh rew
ĠHel ic
Ġtrou bles
Ġtreason s
Ġmist ook
Ġsho es
Ġsim pl
ĠPl ay
Ġneigh bours
Ġviol ence
Ġvan ity
ĠRosal ine
Ġcomple te
Ġrob es
Ġsto le
Ġhol id
ĠMil ford
ĠAlex ander
Ġhind er
Ġliqu or
Ġprodig al
Ġrebell ion
Ġrhe um
Ġperpet ual
H as
H ail
P P
U ntil
V ANS
Z ounds
c ourt
e ases
g reat
h ine
m et
m ion
o qu
w hen
Ġ X
Ġ ice
Ġt ired
Ġa we
ou rer
Ġm iles
or ies
ll en
Ġf em
it ive
it ation
Ġd art
Ġd ate
Ġd ower
Ġc ove
Ġl ance
Ġl atter
Ġh ire
Ġth orough
st ery
Ġbe think
Ġin fection
Ġha ught
ĠA umerle
ĠW orthy
as ures
Ġst ake
ri p
ĠS end
Ġre ap
Ġas hes
ĠH AST
ĠH ERM
ĠE VANS
ĠC rom
ĠM uch
est ial
am y
am ents
Ġse x
Ġno on
han o
Ġv iz
ĠP istol
Ġman tle
ard y
Ġne at
end om
Ġshe ets
Ġr us
ul ation
ul via
Ġwor ms
Ġun re
Ġal t
Ġal oof
Ġal oft
Ġcha p
here d
li hood
Ġple dge
Ġnight ly
Ġsweet est
ER IL
Ġapp ea
Ġcl amour
sw er
Ġbre thren
ĠU ntil
ons hine
Ġansw ered
esar io
Ġconf eder
Ġrest ore
Ġche st
Where fore
Ġeven ing
Ġmo e
ING S
Ġswear ing
itt ance
Do es
Ġreven ue
Ġsuff icient
Ġbro ad
Ġba ld
Ġtrust y
Ġwa ves
Ġpar liament
Tw ill
Al though
essen gers
Ġsur vey
Ġbless ings
Ġspeed y
cher s
Ġfra med
Ġext reme
Ġbeast ly
AG UE
Ġsoft ly
UR IO
ĠCom inius
Ġut most
Ġexec uted
cent io
ĠRICH MON
Ġdemand s
ĠTit inius
Ġfrown s
Ġdest iny
Ġes p
Ġdelight s
ĠLuc ilius
Ġhor rid
Ġinv ite
Ġinj uries
Ġthreat ening
Ġdeare r
Ġexpect ation
Ġow l
Ġsli pp
?' "
rat iano
ĠNe ither
Ġing ratitude
ĠLeonat us
Ġfix ed
Ġinfect ed
Ġparent s
ĠMARC US
ĠMerc utio
ĠKATHAR INE
ĠPhi lipp
SP ERO
OG EN
Ġwand ering
Ġcann on
ĠMONT AGUE
OW ER
Ġexcell ence
ĠLY S
Ġpreced ent
Ġrecon ci
ĠPhoe bus
ĠHAST INGS
ĠRICHMON D
E ach
G ra
K ing
K ne
M OGEN
S c
T US
W hether
a ves
c over
p ence
r ong
w as
Ġw et
Ġw enches
ĠI MOGEN
Ġl es
Ġl ute
Ġmy stery
ĠF enton
Ġman ly
ĠD rum
Ġsw im
Ġen f
Ġen ri
Ġdis like
Ġpo x
Ġpl ent
Ġblood s
Ġart icle
Ġcont em
Ġfollow ed
Ġset ting
Be hold
Ġunder go
Ġta unt
Ġforth with
Ġimp atience
Ġfight ing
ab b
Ġsight s
Ġmock s
Ġdiv ide
ĠCl oten
Ġpen ance
ĠPro sper
Ġprov ost
Ġchall en
Ġunp ro
Ab out
ĠPRO SPERO
Ġfil thy
Ġmult itude
Ġtou ches
ĠMessal a
' m
A IN
E O
I m
L US
L eave
R AS
T IUS
b ishop
d uff
e ven
f rom
g ments
g room
h us
j ou
k est
l ar
l orn
l iness
n s
p ite
p les
s m
u bs
y e
Ġt aint
Ġs illy
Ġm ouse
Ġm essengers
in ces
in cul
in centio
re ant
Ġo m
Ġc rows
an iel
Ġbe ats
Ġbe came
Ġha ck
ĠA DR
ut land
Ġme ed
Ġe p
ad ing
Ġst iff
ra ise
ĠS w
ĠS IC
ĠS EB
ĠS ONG
Ġre lish
Ġli ef
ur ous
ĠB er
ĠB ed
ĠC ast
ĠC OM
Ġno d
Ġlo cks
ĠO S
Ġsp ot
Ġsp ell
ĠP UC
ĠP AND
ĠP atience
ĠP ETR
ĠP ETER
ĠG ratiano
ĠD E
Ġr ue
ul ar
Ġthere to
Ġbl ock
Ġbl iss
ĠR OM
ĠR utland
Ġhat ch
ĠY e
Ġun man
EN IUS
Ġmust er
Ġqu aint
Ġhea p
Ġro pe
Ġdes cent
Ġdes cription
Ġle wd
Ġpart ner
ĠV incentio
Ġri bs
Ġper i
Ġapp eal
che th
Ġma le
Ġcl am
Ġcont end
Ġpur ge
Ġcomp are
Ġkeep er
Ġend ured
Ġunder t
Ġconf er
Ġplay ing
Ġch ronic
Ġgi ant
bl er
Ġchar itable
Ġcur tain
Ġret reat
Ġstran gers
EL O
EL LE
Ġimp atient
ĠDo ver
Ġmo ving
ĠHer ald
Ġwind ows
ĠAl encon
Ġsun g
Ġbo ard
Ġdan gers
ran ch
Ġwant ing
Ġsil k
Ġcho se
AS TIAN
Ġbat tles
Ġdev ised
vel vet
Ġcounsel s
Ġappro ved
Ġjest s
Ġmot ive
Ġmount ains
Ġfam ish
Ġpleas es
Ġmist rust
ĠHa ving
Ġproceed ings
Ġwed ded
Ġdri ven
ĠRO DER
Ġvan qu
Ġgent leness
Ġgross ly
more land
Ġthreat en
mp at
Ġbount eous
Ġpersu asion
ĠJO AN
Ġwitch craft
Ġsal ute
Ġdeterm ined
Ġnobl er
Ġnobl est
Ġwond ers
Ġswell ing
Ġperj ury
ĠKathar ine
UCH IO
Ad v
Ġstat ue
ĠOR LAND
Br other
rib unes
TEN S
Ġdiss ol
IG O
ĠBEL CH
Ġcoron ation
ĠWest moreland
ĠMurd er
Ġincen sed
LIFF ORD
Ġcand le
ĠTO BY
ĠMEN ENIUS
Ġmerc iful
ĠGON ERIL
ĠANG ELO
Ġmarvell ous
Ġsuperfl uous
bast ian
Ġvass al
Ġdrows y
ĠHOR TENS
ĠPhe be
mion e
ĠCrom well
ĠSEB ASTIAN
ĠCOM INIUS
ĠPUC ELLE
ĠPETR UCHIO
ĠROM EO
ĠRODER IGO
ĠORLAND O
F ull
W hither
b o
p art
p iece
r ude
Ġa fore
ha bit
er ity
Ġc asket
Ġc urious
Ġl ing
Ġl ame
Ġp ath
Ġhe are
at o
Ġin ch
ce t
Ġe pit
as ing
ri ce
Ġde fect
ĠC ame
ĠC LIFFORD
ĠM on
if th
ĠO h
ĠF ly
ĠF ather
Ġv ine
Ġknow est
um ents
ĠR a
Ġlike lihood
Ġun ivers
Ġgra in
Ġdes ol
to p
Ġwr ing
Ġad ore
Ġra w
Ġcomp ar
Ġkeep ing
Ġrep roof
Ġel bow
Ġcount y
Ġbel ieved
Ġreason able
Ġhum ility
ouch safe
Ġent ra
Ġreturn ed
Ġcr ook
Ġattend s
Ġsuit ors
Ġconfess ion
Ġvis ion
Ġatt ain
Ġdev otion
Ġquar rels
ĠTr umpets
Ġver se
Ġnecess ary
Ġpersu aded
Ġimag ine
Ġbas eness
Ġcuck oo
Ġbride groom
Ġtyran n
Ġmag ic
ĠPAR IS
Ġexceed ing
ĠLO V
Ġball ad
Ġcorre ction
ĠPaul ina
ĠStep hano
ĠAri el
Ġbachel or
advent ure
A P
A w
A QU
D O
F E
F ore
L EN
M uch
M IAN
O TH
P EY
S S
a is
b oard
c ore
c har
d it
f ret
f av
g ate
g ins
i as
i qu
k ens
l ot
m ight
p ire
p ired
s ick
t ong
u ra
w ater
Ġt ea
Ġt ie
Ġm uff
Ġw i
Ġb alm
er ves
or ter
Ġf ert
Ġc ent
Ġc ull
es e
es u
ĠI m
Ġl ar
Ġl aug
Ġn igh
en voy
Ġth irst
ar ius
Ġp as
Ġp ine
Ġhe el
an n
an ing
an gs
Ġg age
Ġg orge
im ony
im ents
ch o
ill e
Ġe gg
Ġfor lorn
ad em
her iff
al ter
ra ction
ĠS ound
Ġre in
Ġso ber
ĠB E
ĠB AN
ĠB AP
Ġde vour
ĠC esario
Ġsha m
Ġsha mes
am n
Ġse ized
Ġbut t
Ġbut ter
Ġall iance
Ġsp urs
ĠF ifth
ĠP OM
ous ins
Ġr uth
ul es
Ġtr ow
ĠR es
Ġca ps
Ġhat red
Ġwor ser
ath om
Ġbr ass
Ġpo pe
Ġex act
Ġex pense
Ġoff ers
Ġal ms
Ġsome what
ough s
ud gel
Ġpl ains
Ġmar s
Ġmar ble
Ġro ad
ĠJ AQU
Ġart icles
Ġwr ang
ĠV OL
Ġpray s
Ġwh ist
ĠThis be
Ġfool ery
Ġpur ple
ne ver
ĠU p
Ġdr inks
So ft
be it
ĠAn on
Ġfall en
Ġpe ep
ĠSt rike
TI STA
Ġhel ps
Ġass ay
tw ould
Ġdisc ord
AL LO
Ġbo at
Ġlay s
ST ARD
Ġseek ing
Ġcr im
Ġcr imes
Ġsing ing
Ġsick ly
AT URN
Ġcho ke
Ġyield ing
Ġprof ound
Ġeat en
Ġmock ing
Ġlead en
Ġlead ing
Ġreg ent
Ġlack s
Ġunt imely
Ġpit ied
Ġrel ieve
ĠPom fret
Ġlim it
Ġay e
Ġob li
Ġpatient ly
ĠJul ius
Ġflatter ing
urs day
Ġknock s
Ġdu chess
Ġvisit ation
Ġrasc als
ID A
ID IUS
Ġemp ire
Ġshr oud
Ġsto ps
Ġdwell s
Ġfruit ful
ĠROS S
Ġdet est
Ġaffect ed
Ġfun ction
ĠCO STARD
Ġnobl eness
Ġboot less
sc ap
Ġsy mpat
Ġeng aged
Ġprovo ke
Ġaffli ction
Ġparent age
ĠBar nard
Ġpor ter
Ġcoff in
Ġsand s
Ġglo ves
ĠKATHAR INA
QU O
Ġach ieve
Ġblus hing
ĠCHAR MIAN
Ġwarri ors
Ġscour ge
Ġhom age
ĠSH ALLO
Ġoverth row
Ġcontro l
ĠSaturn ine
Ġbran ches
Ġcounsell or
Ġprophes y
Ġbere ft
ĠAng iers
Ġsty le
Ġconclud ed
ĠNer issa
incul o
ĠSIC INIUS
ĠHORTENS IO
ĠBAN QUO
ĠBAP TISTA
ĠPOM PEY
ATURN INUS
ĠBarnard ine
ĠSHALLO W
G ain
M ar
d ra
f ace
m in
m pt
m ade
r ants
t ree
v ised
Ġ velvet
Ġw id
Ġw akes
Ġd ined
Ġl ime
Ġp ere
Ġhe al
an ish
ĠT ha
ĠA ud
Ġst uck
ĠS it
ĠS ATURNINUS
Ġre vels
Ġde m
ĠC AM
ĠM OTH
Ġse vent
ĠF RAN
ĠF ulvia
ĠL ea
ĠR ather
ĠTo pas
ĠTh ursday
Ġdis o
orn s
Ġsc old
Ġpre gnant
iss ing
Ġput ting
ĠAn jou
irt ue
Ġcrown ed
Ġhands ome
Ġthousand s
fort une
Ġwel kin
ran ge
oward s
Ġtouch ing
Ġrespect s
Ġunderstand ing
Ġlaugh ing
Ġexc laim
Ġcheer ful
ĠChrist endom
Ġadm it
Ġob st
Ġtor ches
Ġfellows hip
Ġlist s
Ġstor ms
Ġsuccess ion
Ġcontin u
Ġdebt s
Ġkna very
Ġsqu are
Ġcre pt
Ġcorrupt ed
Ġjoint s
ĠMARC IUS
Ġflatt erer
Rem ember
Ġnun cle
Ġpenit ent
Ġexplo it
ĠDun can
Ġepit aph
' ve
A nt
B EL
E W
E ng
F al
G iving
H UM
M OR
M any
M usic
R es
R EY
T ut
U B
a ur
c al
c ons
f ield
f irm
g ot
g ress
m as
m ont
m aker
n ish
s ino
u ary
Ġt ire
Ġm or
Ġm ur
Ġm ort
in th
Ġw ave
Ġb one
Ġb ail
is ement
Ġf ift
Ġd ed
Ġn ourish
Ġh ood
Ġp ir
Ġp ant
Ġp ounds
Ġto ad
ay er
Ġe bb
Ġwe ed
Ġwe al
ter bury
ad d
ĠW idow
Ġst ates
ri an
ĠS y
ĠS hylock
ĠH ORA
ĠE very
ro ve
us ing
ck ets
un uch
ĠAnd rew
ge ons
Ġlo sing
Ġlo fty
Ġall ay
Ġsu ms
Ġsu llen
ell o
ĠF our
ĠF ind
ĠF AB
ĠL ORD
Ġv ap
ĠG RA
ĠG OWER
Ġam ple
ĠD u
ĠD uns
ĠD UCH
ĠD ROM
Ġwhe l
Ġwhe t
Ġcon g
Ġcon vers
Ġr ud
Ġr ings
Ġbl ossom
ĠR ou
ĠR ight
ic er
Ġca uses
Ġbr anch
ig ion
Ġen ra
Ġdis eases
Ġpro ves
Ġab bey
Ġab omin
Ġwhere on
Ġlea ving
li er
Ġfl ock
oul t
ĠAs s
ĠV AL
Ġri cher
Ġsc ant
Ġra ce
Ġra gs
Ġra bble
Ġsweet er
Ġapp ly
Ġlong ing
Ġcomp ell
Ġdr oop
Ġhigh ly
Ġcons ort
Ġconf idence
ect ed
Ġturn ing
Ġhus h
Ġdra m
Ġchan ges
ix enes
cl osed
orse t
Ġkill ing
ont in
ap ly
day s
Ġdi al
Ġmo iety
Ġbreak fast
Ġland ed
ST HUM
Ġfly ing
Ġcr adle
Ġreven ges
Ġattend ants
ĠFrench man
Ġsil ken
Ġinf er
Ġsad ly
Ġrec ount
no bar
Ġmin ion
Ġbeat ing
Ġprof ane
Ġinc on
Ġten or
Ġdiv ided
Ġdro pp
eem s
Ġopp ression
ĠCan terbury
Ġstir s
Ġpret t
Ġreg ion
Ġfeast s
Ġran ks
Ġscar f
Ġpu iss
Ġbegin ning
con bridge
ĠLe ad
Ġag reed
Ġocc asions
Ġsn atch
Ġreb uke
mon th
Ġproc ure
Ġnob ody
icul ous
Ġgrand father
ĠTit an
Ġfrown ing
ug by
Ha ving
Ġthreat s
Ġdeg rees
Ġtrans form
Ġtrans port
ĠMac duff
Ġhunt ing
ĠBl unt
ĠRo bin
Ġdet ested
Ġrid iculous
Ġstomach s
Ġbab y
Ġtrem bling
Ġband s
Ġcapt ains
Ġhig hest
Ġadvance d
ĠSe bastian
ĠFlore nt
Ġpill ow
oun s
Ġunse en
ĠCHAR LES
Ġtut or
ĠEm ilia
Ġimprison ment
Ġgild ed
ĠJa ques
YM BEL
ĠWor cester
Ġtal ents
ĠPO STHUM
Ġaccom pl
ĠBea u
ĠJud as
Ġcel estial
ĠCH IRON
Ġdefe at
Ġfem ale
Ġcove t
ĠPhilipp i
Gain st
ĠHORA TIO
ĠFAB IAN
ĠDUCH ESS
ĠDROM IO
YMBEL INE
ĠPOSTHUM US
' ?"
A men
C la
C ousin
F ly
J o
L e
O ld
O ff
S omething
a vy
i able
l ies
v ity
Ġthe ft
Ġf ence
Ġc ities
at t
im p
Ġnot orious
Ġis s
Ġe ats
ĠW h
ĠW alter
Ġst ag
Ġk ern
ĠS er
ĠS ur
ĠS omething
Ġre vel
Ġre sem
Ġli vest
ĠH E
ĠC in
Ġsha med
ĠM et
and s
Ġsp ar
ĠL ion
ĠL end
ant ime
Ġwhat soever
ĠN ell
qu al
Ġbl ank
ic ation
Ġca pit
Ġus es
au d
Ġro d
li ct
Ġstr ay
man y
sw ear
Ġset tled
Ġworth less
Ġworth iness
Ġafter wards
Ġsub stit
ĠHer mione
ĠAl b
Ġread iness
Ġsupp ort
Ġask ed
Ġwis er
Ġprin ci
Ġtru er
Ġdesp ise
ĠMay or
Ġve in
Ġlim b
Ġbrief ly
Ġsmall est
:' "
Ġcap able
Ġcorn er
Ġcompan ions
ĠPo le
ĠGu ild
Ġbig ger
Ġchief est
Ġaffli ct
Ġdischar ged
Ġbegu iled
ĠLEONAT US
ĠRet urn
ĠPhi lip
irect ly
Ġbur nt
Ġinfirm ity
ĠROSAL IND
Ġopport unity
Ġacknow ledge
Ġperi od
B less
E lse
L uc
S w
S end
S ound
S ings
S leep
T A
T EUS
U p
V IR
a bl
b i
c ount
e ur
e ys
f a
f fered
i pt
k n
l am
l ings
l oyal
m ust
o b
p icious
t il
w hel
Ġt ick
Ġt ainted
Ġs ith
Ġm onsieur
in ane
Ġw ra
re cy
Ġb ills
Ġb eneath
is her
er d
ll e
ll ing
ll ies
Ġf ut
Ġf rant
Ġf athom
it an
it ate
Ġd ried
Ġc ele
ĠI RAS
Ġl atest
Ġn ym
Ġp atch
Ġto e
Ġto ys
Ġg ilt
Ġg ames
ow ing
st ood
se th
Ġha l
Ġha lt
le ad
ĠT AM
ĠT RAN
ĠA AR
ut boys
im ple
Ġe unuch
her n
al ty
Ġst ool
ĠS IM
ĠS wear
Ġas h
Ġas under
Ġas cend
Ġdo l
Ġdo ct
ĠE lse
ĠC ost
ĠC LO
ĠC hamber
ĠC ELIA
ĠC YMBELINE
ĠM o
Ġher d
Ġse ar
Ġan ointed
ge ant
Ġlo athed
ĠF LA
ĠL ive
Ġv io
ĠP IST
ant ity
ant ages
Ġam ain
Ġup bra
ĠD orset
ĠN ed
Ġpr ime
Ġr ated
qu iet
ĠR ugby
ic ity
Ġsw eep
ure r
Ġar bit
la us
ig ation
Ġj u
Ġsa p
Ġsa uce
ice d
Ġpo pul
ci o
ci bi
AR IUS
Ġdes c
Ġlea f
ĠMy til
Ġle ather
Ġcall ing
Ġper t
Ġsc roll
Ġwh ir
Ġke ys
Ġpre c
Ġla bours
Ġcour ses
Ġworld ly
Ġway ward
Ġcont ag
Ġhar ms
ious ly
ne ath
Ġsm other
Ġhold ing
Ġtra g
Ġplay ed
Ġch im
Ġres ort
Ġres erved
Ġmean er
Ġta per
Ġdra g
Ġcur t
Ġmeet s
Ġacc ent
Ġimp each
ĠShe pherd
Ġshame ful
Ġmo an
ĠNor way
Ġbu zz
Ġlast ing
Ġsec recy
IC E
Ġreturn s
Ġsla ck
let s
Ġmurd ers
IL L
Ġwear ing
Ġba it
av est
Ġreport s
Ġreport ed
Ġtru ce
Ġmock ery
Ġdeep ly
An on
Ġbold ly
Ġatt ach
Ġopp ose
Ġopp ress
Ġcoward ly
Ġcoward ice
ĠVI OL
Ġgro ve
Ġadd ed
Ġadd ress
AG US
AND ER
Did st
mb les
Ġrel ent
Ġfe ature
Ġresol ute
ĠTr ust
ĠTr inculo
ĠCom mend
Ġsho e
Ġob sequ
Ġbow l
ĠSee k
Ġer r
Ġstud ied
ĠDe ad
Ġsucc or
Ġperform ance
ĠAd v
Ġsaf er
TH UM
Ġscarce ly
Ġproper ty
Ġcir cle
Ġsland ers
Ġsix th
Ġgent ry
Com mend
ĠBel mont
Ġdism ay
Ġbend ing
Ġusur ping
ĠAR VIR
Ġweight y
jo in
Ġkins men
ĠQu ick
Ġcorrupt ion
ĠPo ins
Ġdisgu ise
Ġloath some
Ġdig est
ĠCressid a
Ġbell s
Ġincl ined
Ġwol ves
Ġant ic
ĠTroj ans
Ġsy ll
ĠMen enius
Ġtrif les
Ab ove
ĠPRO TEUS
Ġadmir able
Ġnaught y
Ġrepe al
Ġlun gs
Ġlun atic
Ġstab b
ĠNOR THUM
ĠBEL ARIUS
TIAN O
Ġmill ion
BER LAND
Ġdiscontent ed
Ġtow er
Ġpilgrim age
Ġimmediate ly
ĠPol ixenes
Ġphilosop hy
Ġsubd ued
Ġbul k
Ġinsol ence
WAL D
Ġtig er
Ġann oy
Ġsubscri be
Ġchamp ion
ĠSec ond
Ġprover b
Ġfount ain
Ġhab its
Ġimped iment
Ġapprehens ion
Ġhaught y
Ġenf ranch
ĠOS WALD
Ġfert ile
Ġlaug hed
ĠAud rey
ĠGRA TIANO
ĠDuns inane
ĠRou en
nobar bus
Ġfrant ic
Ġnym ph
ĠTAM ORA
ĠTRAN IO
ĠAAR ON
ĠSIM P
ĠCLO TEN
ĠChamber lain
ĠFLA VIUS
ĠPIST OL
cibi ades
ĠMytil ene
ĠARVIR AGUS
ĠNORTHUM BERLAND
: --"
E d
S m
S it
S ing
] "
d r
d one
f aith
g ent
g led
h ill
j ud
p al
p ress
w orthy
w omen
Ġa u
Ġm ast
Ġw ilful
ha s
Ġb ide
Ġo il
Ġc udgel
Ġg avest
Ġbe que
se ver
ĠT ar
ĠT ribunes
Ġe ff
Ġli ly
ĠH ar
ĠB eseech
ĠE ly
th orn
Ġshe lter
em p
Ġr ising
ĠR ivers
Ġar ray
ĠTh ird
Ġout live
Ġpl ough
Ġpart ies
Ġcomm odity
Ġcl ay
Ġnoble man
Ġcomp osition
ĠMar ian
Ġel oqu
the se
Ġta vern
Ġhome ly
Ġbu ff
Ġenter s
Ġent ire
com ing
Ġcra b
Ġfoot ing
ĠMAR INA
Ġpast ime
Ġdeser ving
Ġfast ing
Ġsur geon
Ġwalk ing
Ġthri ft
Ġappro aches
Ġappro bation
Ġplain ly
Ġconst ancy
Ġmortal ity
ĠTy r
Ġpract ises
Ġintend ed
Ġmut ual
Ġbastard s
Ġes pecially
Ġpriest s
Ġfi ends
Ġdamn ation
Ġcompl aint
Ġwait ing
Ġlament able
Ġprosper ity
Ġtempt ed
Ġprophe cy
Ġprovo ked
Ġev ents
ĠMerc ury
Ġobserv ance
ĠSic ilia
Ġbraw l
Ġdiscipl ine
Ret urn
ĠANDR EW
Ġlin en
Ġtriump hant
ĠHelic anus
Ġholid ay
Ġcontem pl
Ġunivers al
Ġpere mpt
A U
C U
D E
F ind
F IDIUS
G AN
H o
H enry
L ie
U FIDIUS
W orthy
Y e
b ras
c ub
d oor
f ellows
h onour
i ond
i ors
l ion
m ake
r iment
s bury
t ied
v ion
v ius
Ġt reat
Ġt orn
Ġt ardy
Ġa ut
Ġm ute
in u
in ish
re ment
re ason
re hend
Ġb ishop
is m
er ate
Ġf re
Ġf ol
Ġf ile
Ġf urious
it us
it iff
en or
Ġh ides
Ġh ills
Ġth umb
ar io
Ġp ent
Ġp angs
Ġto ss
Ġto morrow
ot he
ot ent
an ks
Ġg ains
Ġg na
Ġg uts
st asy
at age
Ġbe ads
le ct
ĠA CH
ĠA UFIDIUS
ed nes
im o
im ate
im ber
ĠW orthi
as ci
id a
id ents
al us
ri pp
ri kes
ĠS LEN
Ġre ek
ur ity
ĠB ona
Ġdo le
ĠC hi
ĠC ourt
ĠM is
ĠM an
ĠM ethought
est ure
ea rest
Ġse pul
Ġno ses
and ra
if er
Ġsu ffered
Ġfa ster
ĠP ed
ĠP resent
ĠG ri
ĠG iving
ĠG ERTR
ĠD er
Ġpr ate
em ned
um ain
ure nce
Ġun fe
Ġdis hes
Ġdis order
Ġhow l
Ġqu ake
Ġqu antity
Ġfo il
Ġab ject
ud ent
Ġpl ight
Ġpl enty
Ġpl ots
Ġcha ri
Ġro ots
ĠJ ustice
AR L
ĠHe cub
ign ier
Ġle ek
to ck
ag on
ENE S
ENE AS
ĠV illain
Ġstr atage
Ġcomm ends
Ġsc ars
Ġown er
Ġad ul
Ġra v
ER IUS
ON E
Ġwit ty
sw eet
AN O
Ġmight ily
Ġhar lot
Ġgrace d
Ġcomp ound
Ġcomp act
Ġshow ers
ert rude
ĠU LY
Ġbra g
Ġbra zen
Ġco al
Ġpa pers
Ġunder neath
Ġcons ist
Ġconf ine
Ġrest ored
Ġpass ions
Ġplease th
Ġchar ges
Ġbel ief
Ġacc omp
Ġacc idents
Ġimp art
Ġimp ress
Ġdisc overy
Ġfalse ly
fort unate
Ġval ued
Ġdi adem
Ġmo le
Ġban ks
Ġbu ilt
Ġdevil ish
ab out
Ġbo ister
ner ly
ac ity
St rike
Ġdoubt s
Ġproud est
IL LES
Ġcold ly
Ġter r
Ġwa ist
vent ry
Ġpar ch
Ġtru ant
Ġprot ection
ixt een
Ġentreat s
Ġatt ire
LE ANS
Ġglad ly
cept ion
Ġoffend er
Ġloss es
Ġinter im
ĠLA FE
Ġlow ly
Ġid ly
Ġid leness
Ġexc ursions
Ġfe ats
Ġmal icious
Ġsteal s
ĠLUC IO
Ġlust re
Ġble m
bb les
Ġign o
Ġcommend ations
ĠLa urence
po c
Ġchurch yard
anc ies
Ġtemp les
Ġintend s
Ġtrib une
Ġdrunk ard
ICK LY
ID ERIUS
uce lle
Ġgir ls
ĠEgypt ian
UD E
Ġhol iness
Ġsqu ire
Ġdisgra ced
Ġdign ities
Ġprod uce
oths ayer
Ġextrem es
Ġmelt ed
ĠCOR N
Ġgaz ing
Ġpurcha sed
Ġwing ed
ĠAlarum s
Ġpat ron
Ġworthi est
Ġder ived
Ġfant asy
ĠAp ril
ĠOR LEANS
ĠPis a
De ath
Ġpronounce d
ĠServing man
ĠGU IDERIUS
Ġrepe at
ĠLie utenant
RI PP
Ġtro d
Ġpaint ing
Ġbrid ge
Ġtravell er
ĠBra b
Ġwarri or
ĠQU ICKLY
Ġbank rupt
ĠAG RIPP
Ġappla ud
Ġnap kin
ĠGon z
Ġpursu it
ĠCorn wall
Ġgoss ip
Ġruff ian
Ġorn ament
Ġpurs ued
ĠOli via
wh ite
wit hal
Ġdistract ed
Rome o
Ġfantast ical
Ġembass y
Ġpestil ence
Ġbeaut iful
ĠPAND ARUS
SS ES
iqu ity
Ġobli vion
Ġfift een
Ġabomin able
Ġfut ure
Ġash ore
ĠVIOL A
Ġperempt ory
iond ello
ĠACH ILLES
ednes day
asci vious
ĠSLEN DER
Ġsepul ch
ĠGERTR UDE
ĠHecub a
ĠULY SSES
ĠLAFE U
ĠAGRIPP A
C h
D rum
F are
L ady
R ather
S p
a led
b a
b re
b ook
b ody
g ard
l arge
m ind
m iss
p ly
p atch
r ot
u ally
ou ble
in ch
or th
Ġf ulf
Ġc ri
ĠI rish
on ce
Ġth igh
Ġp up
Ġp ipe
Ġto y
ce ll
ĠA ENEAS
id ing
ĠH um
ĠB est
ĠB reak
ĠB iondello
Ġde mon
us hi
us ions
ĠC ardinal
est s
ĠG a
ĠG ertrude
ĠN ew
Ġshe et
Ġmore over
Ġca itiff
Ġar ras
ĠTh ings
Ġun ruly
Ġj er
Ġj ump
Ġout st
Ġex cess
ĠJ esu
ĠK nocking
Ġwar ning
Ġcomp et
Ġgl oss
Ġnat ivity
Ġtra ged
ĠOr sino
Ġcur s
Ġright ful
Ġpri vy
ĠRe ad
omet ime
Ġfight s
ĠAl cibiades
Ġinst inct
Ġjud gments
Ġwis est
Ġpar le
Ġpar cel
Ġpay ment
Ġrich ly
Ġcreat ed
ĠDid o
Ġharm less
Ġreg al
Ġinter rupt
ĠCom m
Ġhurt s
Ġembra ced
gl ass
Ġstar ved
Ġes cap
ĠSold ier
su ing
Ġtwelve month
Ġant ique
ĠItal ian
ĠSha llow
Ġworthi er
ĠEn ough
Ġvol unt
Ġsanct uary
Ar m
Ġaccus ation
Ġbelong s
ĠHost ess
Ġassem bly
Ġcorp oral
ĠRE GAN
Ġbatter y
Ġnegl igence
Ġalt ar
Kne eling
Ġenri ch
ĠCin na
Ġcapit al
ĠCost ard
C or
D ICK
D UFF
F all
I LO
M ER
N ON
P E
P ID
P atience
S A
T ES
X FORD
b ers
b by
b alls
c ould
c ies
c all
d own
f le
g or
i ber
m other
n ame
p ol
r ates
s ong
t ry
u ell
w hile
Ġt alks
Ġa st
Ġa ctor
Ġa gue
Ġa ges
Ġs ow
Ġs ixteen
Ġm ates
Ġm udd
in er
in us
in ance
in ity
in ence
in bras
er p
er il
or us
Ġf ist
Ġf ren
Ġo mit
Ġd it
Ġd ul
Ġd ash
Ġc ed
Ġc ue
Ġc ard
Ġc rew
Ġc ords
ĠI mp
Ġl ull
en a
en ix
Ġth rows
ar ition
Ġp ow
Ġp el
Ġp atter
Ġp atricians
Ġg ust
ow land
st ances
at in
Ġbe ef
ĠT R
ĠT en
ĠT ra
ĠT ouch
ĠA UM
Ġme ek
Ġnot able
Ġe g
Ġe w
ĠW IN
ĠW EST
ent ion
ra b
ĠS C
ĠS ix
Ġre new
Ġli ar
ver t
ĠB our
ĠB ell
ĠB ENE
ĠB less
ĠB OL
ĠB ret
ĠE nobarbus
Ġsha kes
ĠM asters
ĠM ene
ea ble
Ġse ated
Ġan chor
un ction
un eration
and on
Ġlo ins
ĠO ver
ĠO pen
ĠO XFORD
Ġsu nder
ĠF le
ĠF all
ĠL EN
ho le
ĠP ED
Ġman gled
art ered
end ing
ĠD own
ĠD eliver
ĠN EST
Ġwhe res
Ġpr im
Ġpr ating
Ġcon v
ĠR un
Ġar rows
Ġun like
Ġun law
od e
Ġmad ly
Ġen ge
Ġen chan
Ġen sue
Ġho p
Ġho ar
Ġdis loyal
Ġout side
Ġpro ject
are st
wn y
Ġthink est
ff ic
Ġfo llies
Ġab und
Ġab andon
ud es
Ġgreat ly
Ġlea gues
li est
Ġfl ames
ĠV ent
ĠV ERN
Ġstr ings
Ġper ceived
Ġper mit
Ġad verse
Ġra ges
ER LE
Ġla zy
Ġcl oth
Ġcl own
Ġdown right
Ġpres erved
Ġpla gues
Ġcomp ul
ĠSir s
Ġmer its
Ġmer riment
Ġgl ance
Ġind ust
OR C
Ġchi val
Ġunder stood
Ġconf ined
Ġrest s
Ġrest raint
Ġfull y
Ġchild ish
Ġche ese
Ġchan ces
ĠAnt enor
Ġhusband ry
EL AND
,' --"
Ġlight ly
Ġass ume
Ġfal con
AL T
gu ed
Ġhapp ier
ING BROKE
ab y
ener ate
Ġinst ead
Ġtem perate
Ġgrow th
Ġcomfort able
Ġaw aked
Ġmet e
IL LO
xt on
Ġinf ancy
Ġinf amy
Ġcond emned
Ġba w
Ġmusic ian
Ġaff air
Ġaff ords
Ġwis hed
Ġrec overed
Ġrec reant
bed ience
Ġmin utes
so e
Ġbar ge
Ġforg iven
Ġpast ure
Tw ould
Ġrequ ires
Ġperson al
Ġdeep er
Ġinc est
Ġsum mon
AM EM
Ġatt orn
Ġsur m
Ġwret ches
Ġpen alty
Ġstir r
Ġbad ge
Ġsuffer ing
Ġlam bs
Ġpluck s
Ġrespect ed
ĠFl uell
ĠLA UN
Ġran c
Ġpu pp
At tend
Ġmot ions
Ġvile ly
IAN US
Ġmount ed
Ġdish onest
Ġself same
Ġid ol
Ġrel igion
Ġfe at
ĠLUC ILIUS
Ġsecret ly
ĠCom mand
Ġfeed s
Ġfeed ing
Ġadm ired
Ġsho p
Ġwood s
ĠLE PID
Ġocc up
Ġins ult
sa id
anc ing
ĠRO B
Ġdu kes
Ġsort s
Ġproof s
Ġcourtes ies
Ġhun ter
UM N
Ġmid wife
ĠFort inbras
Ġcompl iment
Ġlod ged
Ġwrath ful
ĠBrit ish
Ġmend ed
Ġamaz ement
Ġshr ill
Ġshr ink
ED FORD
Ġdirect ed
Ġstart s
ĠLEON TES
Ġdag gers
ib an
Ġbawd y
Ġfright ed
Ġeag er
Ġcapt ive
ĠSp ain
ĠMAC DUFF
NO X
Ġmag n
Ġcloud y
ĠCal ais
Ġheav ier
ĠSyra cus
Ġsaint s
Ġnegle cted
Ġadmir ation
oll es
Ġyester night
ĠCASS IUS
Ġmood y
Ġshri ek
Ġthorn s
Ġarch bishop
Ġrece ipt
Ġsteed s
ĠAG AMEM
Ġappla use
Ġcarri on
lean or
Ġinherit ance
Ġendea vour
Ġlev ied
quis ite
Ġinterp ret
ĠSIL VIA
ĠPart hi
Ġbragg art
Ġtap ster
ĠGall ia
Ġlecher y
ingu ish
Ġsimpl icity
ĠLYS ANDER
ĠADR IAN
ĠCast le
Ġvanqu ish
Ġtyrann ous
Ġcent re
Ġmars hal
ĠVOL UMN
Ġcrim son
scap ed
MOR ELAND
ĠFlorent ine
ĠBeau fort
Ġsyll able
ĠSIMP LE
Ġfol ks
Ġboister ous
ĠBrab ant
Ġsepulch re
Ġfren zy
ĠAUM ERLE
ĠWEST MORELAND
ĠBENE DICK
ĠBOL INGBROKE
ĠMene laus
ĠLEN NOX
ĠPED RO
ĠNEST OR
ĠVERN ON
ĠFluell en
ĠLEPID US
ĠAGAMEM NON
B reak
F ather
G l
S e
a way
c or
c ast
c ont
f ish
n othing
s ir
w ord
Ġb ate
or m
ll ed
Ġf itted
Ġf owl
it al
Ġc ushi
Ġn ut
on ius
Ġof fered
Ġg ets
at tle
ad vised
ĠW ednesday
ĠS on
ĠS aw
Ġre hear
Ġso l
ur ther
ĠH ie
ĠB ottom
ĠB EDFORD
ĠE leanor
ĠC he
ĠC AL
Ġsp acious
ĠL atin
Ġsh ower
ĠD ef
ĠD umain
qu er
qu it
ĠR uss
ĠR owland
Ġsw oon
ĠEx cellent
Ġsa vour
Th ings
Ġgra vity
Ġex quisite
ff er
Ġab st
ave d
Ġper adventure
Ġnight ing
Ġla c
No ble
Ġco il
ĠAn swer
Ġch rist
Ġta bour
Ġdra ught
Ġdra gon
Ġlaw y
eal ing
Ġcommand ment
com p
erv ation
mer cy
Ġyield s
Ġforg otten
Ġrequ ired
Ġfour th
An other
Ġbold ness
Ġtender ness
Ġentreat y
Ġchamber lain
ang led
Ġchur lish
ĠCom es
Ġbeard s
Ġins inu
born e
Com es
Ġcontr ad
ĠAE d
Ġexecution er
Ġstock ings
ĠCo ventry
Ġheav iness
Ġtest imony
Ġdesign s
Ġav ouch
Gentle men
Ġhy poc
Ġec stasy
Ġwrink led
wind ow
Ġtren cher
ĠAntioch us
ĠKne els
Ġprinci pal
ĠWorthi es
Ġjer kin
C har
C IS
C LIFF
D eliver
E very
F ive
G ives
H im
I ER
L a
M ethought
N IER
P re
R un
R ight
S ure
S blood
T en
Z AB
b urn
b able
d ea
f ound
i ot
i ard
i bly
j ourn
l ers
m ans
n am
p han
p ens
p oster
r oop
r hus
s kin
t oo
u gs
v ial
he res
Ġa che
Ġs ess
Ġs ans
Ġs ize
Ġm um
Ġm ate
Ġm use
Ġw ester
Ġb al
Ġb ree
Ġb ias
is a
is eth
or ate
Ġf et
Ġf res
Ġf ishes
Ġo bl
Ġd irt
Ġd ally
Ġd omin
Ġc u
Ġc y
Ġc od
Ġc ured
Ġc ases
ĠI lly
ĠI ACH
Ġl ot
Ġn ort
Ġn ail
en own
Ġh ound
Ġth und
Ġth wart
ar re
Ġp oo
Ġp ious
Ġp uff
Ġto ps
Ġto kens
Ġg ull
om est
Ġbe am
Ġin ches
Ġin habit
Ġha g
ĠA LE
Ġme w
Ġme al
ir nam
Ġfor ged
ad ise
ĠW all
ĠW itness
as hes
Ġk en
ri bly
ra ve
ra ised
ra ined
ĠS ail
Ġre nt
ver tis
ĠB L
ĠB AL
ĠB RA
ĠB eshrew
ĠB irnam
Ġde em
ĠE ur
ĠE ver
ĠE gl
ĠE LI
ĠC ar
ĠC RESS
Ġsha ft
ĠM eet
if ter
ĠF ore
ĠF etch
Ġkn ell
Ġv ices
ĠP re
ĠP oly
ĠP arson
ĠP ucelle
ĠG ives
Ġman sion
Ġne cks
Ġwhat e
Ġgo est
Ġcon sec
Ġr ad
Ġr out
Ġtr ash
ĠR AT
ic ing
Ġcan op
reat h
fe its
Ġar rant
Ġus age
Ġbr im
Ġun con
Ġun fortunate
Ġj ar
Ġj ade
Ġen large
Ġpro ffer
are r
pt uous
Ġey el
Ġpl ants
Ġmar r
ĠJ UL
Ġle vy
Ġart s
Ġri vers
eed s
Ġra pt
ple x
Ġcl oy
ger y
que l
Ġhouse wife
Ġbetter s
Ġgl ow
Ġsm art
Ġind ent
vil ion
Ġtra vail
Ġcons um
Ġconf used
Ġpeace ful
Ġpresent ed
Ġneed less
Ġpri cks
Ġret ires
Ġret ired
Ġfaith fully
Ġsub orn
Ġsub mit
Ġcause d
Ġass ail
ĠRe ady
Ġsleep y
omet imes
Ġgold sm
ĠAl most
ours core
Ġbo on
Ġpal try
Ġgre ets
Ġhorse men
Ġden ies
Ġden ial
Ġgener ation
Ġvo id
IA M
Ġcr ush
Ġcra m
Ġcra fty
itor ies
Ġdist ill
Ġair y
Ġask ing
Ġbro ils
Ġdream t
Ġtrust ed
Ġwa ft
av ille
av arre
Al most
Ġinc orp
Ġsign al
Ġentreat ed
Ġord inary
Ġspeed ily
Ġweak er
Ġplain ness
gg ing
Ġspeech less
ip ed
ĠUn cle
Ġadd er
Ġwild ly
Ġwoe ful
Ġrel ief
Ġmal ign
ĠLu cio
Ġpoison ous
ĠPar olles
Ġadm itted
Ġfill s
Ġchoose th
Ġdri ves
Ġpract ised
CH ESTER
Ġstud ies
Ġlan e
Ġopin ions
Ġwhi pp
Ġwast ed
Ġga oler
Ġkneel s
Ġwealth y
Ha ven
Com mand
Ġdec ree
Ġremain der
ĠStand s
Ġutter ance
IM O
Ġrevol ted
ĠCam bridge
Ġfig ures
Ġmaiden head
Ġdwell ing
Ġbas er
Ġbas est
can not
Ġbegg ary
Ġlangu ish
there fore
Ġperil ous
Ġdece ased
ĠCLE ON
Ġghost s
Ġcover t
ĠTH URIO
Ġcompass ion
Ġincl ination
ĠBoy et
Ġmurderer s
Ġpear ls
ĠCal iban
Ġspr ings
Ġworthi ly
Ġfin ish
ĠAL ENC
Ġstat utes
Ġcoff ers
Ġung entle
Ġfeather s
IG NIER
Ġdeb ate
ĠLong aville
Ġach ieved
Ġgrey h
Ġambassad ors
Ne ither
ĠWest min
Ġhur l
Ġrum our
Ġincen se
ĠGra ce
Ġadvers aries
Ġmisc arry
Ġdun gh
Ġobsc ure
Ġcorp se
Ġunl uck
Ġbol t
ĠAcc ording
Ġming le
Ġming led
ĠGon eril
Ġte xt
ĠRE IGNIER
Ġindign ation
Acc ording
Ġquest ions
Ġpi geons
ĠBASS IANUS
Ġsolic it
Ġcop y
Ġvictor ious
Ġost ent
yr rhus
Ġvig our
ĠX I
Ġplent eous
Ġchallen ged
ĠMon mouth
Ġdesol ation
fav oured
Ġpas sed
Ġruth less
Ġmur m
Ġenra ged
ouns ieur
Ġcovet ous
ĠHE CTOR
Ġchim ney
ripp a
Ġterr itories
ĠWIN CHESTER
Ġchival ry
ĠROB IN
ZAB ETH
ĠIACH IMO
ĠALE X
ĠBAL TH
ĠEgl amour
ĠELI ZABETH
ĠCRESS IDA
ĠRAT CLIFF
Ġgoldsm ith
ĠALENC ON
ĠWestmin ster
B etter
L ea
L ies
M aking
N ew
R ichard
a gainst
b ag
f ool
g own
g rown
h rew
l ord
o ps
p ri
p la
s erv
re am
Ġb ites
Ġf en
Ġf est
Ġf ancies
Ġd aring
Ġc ow
Ġc as
Ġy are
Ġp ence
Ġp icked
Ġg am
Ġg ear
st e
st able
ĠT alk
ĠA w
ĠW atch
Ġhis s
Ġst are
ri ends
ĠS a
Ġre form
Ġre lease
ĠH ERO
ĠB etter
ĠC hat
ĠM aking
am ity
Ġse par
th ree
ĠL ies
ĠP repare
ĠP yrrhus
ĠG ot
end er
Ġup ward
ĠN an
row ing
Ġsw ine
pp ily
Ġj ades
Ġsa ll
Ġdis play
Ġpro gress
Ġhand le
Ġpo le
ci vil
Ġcha ins
li ps
ag er
Ġwar n
Ġsc ale
Ġpur ses
ret ty
ĠAn y
ĠWhere of
Ġconf lict
bl ind
Where of
Ġbes hrew
ĠRe ignier
Ġdisc om
Ġdisc overed
pen ny
Ġsend ing
Ġcommand er
Ġget ting
Ġgener ally
Ġcar p
Ġrec overy
Ġact ors
Ġposs essed
Ġgall ants
ĠEnglish man
aff ord
ĠCan st
Ġfra ilty
Ġlabour ing
Ġmir ror
Ġsn ake
mon ster
Ġele ment
ĠHad st
Ġknock ing
ĠVen et
Ġinno c
Ġcap acity
Ġpubl ish
Ġcontin ent
ĠSh rew
Ġed uc
Ġwicked ness
ĠBrit ons
Ġsolemn ity
Ġdoom s
Ġcompan ies
Ġing en
port ion
Ġtest ament
Br utus
Ġcla p
Ġassist ance
col our
Ġblus hes
Ġchid ing
Ġdissem bling
gentle man
Ġmanif est
Ġplan et
ĠProsper o
ĠBed ford
Ġentra ils
Ġcrook ed
ĠFRAN CIS
ĠSur rey
fa vour
Ġcontempl ation
Ġpup il
Ġvolunt ary
Ġunlaw ful
ĠVent idius
' !
A V
A X
A mong
A UL
C l
C OL
D own
E ver
F etch
G E
G UN
J AX
L ive
L AS
M arch
O pen
O UR
R ICE
S C
W IS
W itness
a ces
a ched
a ws
b earer
c ar
c old
d id
d oubt
f end
f ire
f riend
i pp
l ow
l ady
m or
m ir
m arried
o cate
p ter
p hy
p ray
p urse
s uch
t ween
u it
u ld
v ation
v ided
w itted
z es
Ġt ack
Ġt ilt
Ġa ust
Ġs heriff
Ġm us
in ers
in ction
in ty
Ġw ight
Ġw ages
ha le
Ġb au
Ġb ows
Ġb ars
Ġb udge
is c
is sed
er th
Ġf ul
Ġf row
it imate
Ġd on
Ġd ice
Ġd all
Ġc ousins
Ġl ur
Ġl ux
Ġn urs
on ish
on na
en ster
Ġp arson
Ġhe w
Ġg ulf
om y
st al
st ock
at han
at cl
at ory
Ġbe ck
Ġbe llow
Ġin n
se ed
se em
ce ls
Ġha m
le ar
ĠT ur
et ition
ld st
ĠA mong
ut o
ke ys
Ġwe b
ĠW it
ĠW rite
ĠW ORC
id el
al ms
Ġst em
Ġst inking
ra ign
ra ught
ĠS i
Ġre vell
Ġli ck
Ġli cence
ĠH UM
ĠH OT
ĠB EN
ĠB UR
ĠE r
ĠE thi
ĠE SC
hi re
ĠC ut
ĠC ent
ĠC ORD
ĠC imber
ĠM E
ea sed
Ġher bs
Ġse vere
Ġse quel
un ct
if ies
if ully
Ġsp ies
Ġsp here
Ġsp ec
Ġsp ider
Ġsp arrow
ell us
ĠF R
ĠF ive
ĠF aul
il ities
Ġfa v
Ġv ac
ĠP e
ĠP ha
ĠP ent
ĠP rom
ĠP UCK
Ġsh outs
art ar
Ġam ount
Ġup hold
ĠD r
ĠD est
ĠD ER
ĠD ION
ĠN ER
ĠN ich
ĠN avarre
Ġcon ception
Ġr ats
Ġr iddle
ers u
Ġtr ad
Ġtr un
um ps
qu ess
qu enet
ic i
ic o
Ġsw an
Ġca bin
ure rs
Ġor ator
Ġor phan
Ġar ri
Ġar rog
ort une
ol is
ol ve
ol as
ig gard
od est
Ġj ugg
Ġj aws
Ġmad men
Ġmad onna
Ġsa le
ide le
Ġpro bable
pt on
all el
Ġhow ling
ff ith
As s
Ġab b
Ġcha fed
Ġro ll
Ġro de
ĠK n
ag ne
Ġser ving
Ġri ve
Ġwar y
Ġson net
Ġsc ra
Ġra pe
ouse d
Ġpre dom
che st
sw ain
Ġbre w
Ġim ages
Ġfool ing
Ġcont rived
uck et
iss es
Ġrem ed
Ġpur ged
Ġcomp osed
ĠSo othsayer
Ġmer chan
OL Y
OL OG
Ġgl ories
Ġlive ly
Ġsm ack
Ġgr udge
Ġsle nder
be g
Ġco pe
Ġpa vilion
Ġtra ffic
Ġtri be
bl est
bl eness
Ġta bles
Ġta wny
Ġpe ck
Ġcur b
Ġcur ts
Ġneed le
Ġtre ble
Ġchan ced
Ġchan ging
Ġhum orous
Ġsub mission
Ġmon sters
Ġdisc ern
Ġstre ams
Ġmis fortune
Ġstate ly
ĠHer ne
Ġye oman
Ġfar m
Ġhapp en
Ġlay ing
vers y
pl ain
ST ONE
ĠEd gar
Ġread s
Ġspo ils
Ġgener ous
Ġhard er
Ġcr ime
Ġcr utch
Ġsing ular
Ġbreath less
Ġmurd ered
Ġdist ressed
Ġdist raction
Ġsuff ers
AT E
AT RICE
Ġdam es
Ġinf ants
Ġcho p
Ġcho ked
Ġuncle an
ub d
ub ber
Ġwa its
Ġpar agon
Ġbar r
av ish
AS AR
Ġtru est
IS SA
oint ing
Ġlead er
Ġentreat ies
Ġord ain
Ġsur ly
Ġwatch ful
ĠPro ve
ĠPer chance
Ġcle ave
Ġsport s
Ġfra ught
ĠLA UR
Ġstreng then
Ġmod el
ĠThese us
con ce
Ġmal ady
Ġfam ine
Ġsteal ing
str ong
str ate
Ġteach ing
Ġag ent
Ġproceed ed
ĠLE WIS
EM IO
Ġwed lock
sh ow
Ġsn uff
ĠSc roop
Ġjealous ies
Ġmed it
Ġimport une
Ġbeggar ly
Ġarg uments
Ġlist en
Ġga pe
Ġref used
UM IO
Ġmid st
Ġed ict
Ġdeg enerate
Ġmem or
Ġmem ber
Ġdebt or
Ġow ed
Ġpublic ly
Ġsong s
Ġsail ors
ees e
Ġport s
his pers
ĠBl anch
Ġfle e
Ġsmell s
Ġexpress ly
Ġcircum stances
ERT ES
Ġdet ain
Stand s
Ġslander ous
ĠAb ove
Ġtriumph s
ĠPR OLOG
Ġflood s
Ġschool master
ĠCle on
Ġallow ance
Ġcher ry
Ġreward s
UG LAS
Ġpage ant
Ġcoz ened
Ġrash ness
Ġfro zen
UCH STONE
Ġvex ation
Ad ieu
Ġpil ot
ENT INE
sp ur
ĠBar b
ĠMusic ians
Ġfart hest
Ġvol ume
ĠGR UMIO
ĠPand ar
ĠDO UGLAS
Ġdot ing
Ġdot age
Ġshrewd ly
Ġabhor r
Per chance
Ġglo be
Ġcommonwe al
Ġdescend ed
Ġarrest ed
Ġcholer ic
Ġflatt erers
SP UR
oubt ed
Ġcorre ct
Ġtum ult
Ġtow ers
ĠTO UCHSTONE
Ġoverth rown
Ġdissem ble
ĠArm ado
Ġcro p
ĠHy men
Ġperf ume
ĠJa quenet
ĠSIL VIUS
Ġfact ious
Ġorn aments
Ġfrank ly
Ġdil igence
Ġpul se
ĠBO Y
Ġvot re
ien na
ĠMAL VOLIO
ĠMAL COL
Ġconspir acy
Ġceremon ies
Ġdisper se
Ġinfl u
ĠHERM IA
Ġchap el
Ġappea red
Ġslipp ery
Ġreconci le
Ġom inous
Ġunman nerly
Ġclam orous
Ġling ering
Ġheare rs
ura ble
ĠBE ATRICE
ĠJAQU ES
Ġwhist le
Ġdem i
Eng land
ĠVAL ENTINE
whel m
Ġprec ise
Ed ward
Ġbeque ath
ĠGri ffith
ĠDer by
mind ed
Ġced ar
Ġpatter n
Ġwester n
ĠIlly ria
Ġnort hern
enown ed
Ġthund ers
Ġeyel ids
ĠJUL IA
ĠBALTH ASAR
ĠShrew sbury
GUN DY
Ġfrow ard
enster n
atcl iff
ĠWORC ESTER
ĠHOT SPUR
ĠBEN VOLIO
ĠBUR GUNDY
ĠCORD ELIA
ĠFaul conbridge
ĠNER ISSA
ĠNich olas
Ġmerchan ts
ĠLAUR ENCE
ĠPROLOG UE
ĠJaquenet ta
ĠMALCOL M
B eseech
C ont
F rance
L ead
M urd
b etter
b reak
d aughter
f ig
f air
g a
l ph
m atter
s ur
t r
v is
Ġa pes
Ġb iting
Ġf ourscore
ĠI ll
Ġn ick
an ger
Ġg un
Ġg eld
ay ing
ĠA JAX
ir gin
ĠW r
ĠW ear
Ġst ark
ĠS und
ĠS pir
ĠS upp
ly ing
ĠH aply
ĠE l
ro se
ĠC ont
am is
Ġse w
Ġsp ed
Ġsu lph
ĠF roth
ĠL od
Ġfa c
Ġkn ives
ho lesome
ĠP res
ĠG rand
ĠD ick
-- '
Ġcan on
Ġca pon
Ġca lend
ĠY onder
ol ved
ere ly
Ġpro s
Ġpo ll
Ġex hi
urn ish
ful ness
Ġday light
Ġwr ote
ĠV ienna
Ġad vertis
Ġpre poster
Ġapp le
Ġrep ute
me an
Ġem ulation
vil s
Ex cellent
be fore
bl own
ĠSt afford
Ġbreat hes
ĠRe ceive
Ġdan ces
ĠMAR IANA
bra in
Ġwalk ed
RO S
ĠPro c
Ġappear ance
Ġoffend ers
Ġpret ence
Ġbond man
ĠLA ERTES
Ġscar let
Ġwitness es
ĠLu cet
ĠDU M
gra cious
Ġsim ply
ĠHa ppy
Ġthrow ing
Ġobs erved
Ġimport ant
Ġgent ler
Ġrequest s
ĠAnton ius
Ġver ity
Ġbestow ed
Ġdamn able
Ġproclaim ed
Ġhunt s
Ġmeant ime
Ġcal amity
Ġdif ferent
Ġchief ly
ĠAlex as
ĠAm az
Ġexam ine
ĠAg rippa
ĠFair ies
Ġfif th
ĠCo b
wor ld
Ġspr ite
Ġev idence
ĠGR EMIO
En ough
Ġwrest ling
Ġobserv ation
ĠMess ina
Ġale house
Ġstrang eness
Ġappoint ment
ĠLOV ELL
ĠTha isa
ĠMet ellus
Ġsubstit ute
ĠGuild enstern
Ġeloqu ence
Ġtraged y
Ġnighting ale
Ġeduc ation
ĠLucet ta
' ,
. --"
E PH
I mp
L L
M eet
N ature
O ver
P ri
P resent
R o
T y
T ush
V illain
W ELL
Y R
Y ield
Z O
a pe
b ee
b lack
c at
d ges
f it
g one
g age
g ression
i voc
l est
m a
m ad
m id
n ance
p re
p end
p ardon
r ons
s pir
t ter
v als
v iron
v aunt
Ġ ess
Ġ ire
Ġt ough
Ġt akest
Ġt ickle
Ġa th
Ġs ter
Ġm ire
in ies
Ġw ren
Ġw ins
Ġw inking
Ġb er
Ġb it
Ġb oughs
or ic
ll a
Ġf el
Ġf law
it c
Ġo y
Ġd aint
Ġd war
es y
es ide
ĠI ras
Ġl ink
Ġl ass
Ġl inger
Ġl ascivious
Ġn ations
Ġn avy
Ġn iggard
en c
Ġh its
Ġh ilt
Ġp ith
Ġp ig
Ġp ile
Ġp ip
Ġhe m
Ġhe ath
Ġhe igh
ve al
ot hel
Ġg n
Ġg ore
Ġg inger
Ġbe et
Ġbe est
Ġin vest
Ġha y
ĠT ush
ut ius
Ġme mb
Ġme asures
ch ing
Ġe cho
Ġfor fend
Ġwith hold
ad el
ĠW ife
as phe
id ore
id ity
al o
Ġst ew
Ġk ites
ra v
ĠS imon
ly mp
Ġli ked
ĠH UB
Ġde ject
Ġde form
ĠE L
ĠE ROS
ro p
ro be
ĠC ad
ĠC ris
ĠC ato
ĠM ENE
Ġno dd
Ġan im
un is
Ġlo ses
ĠO PH
th us
Ġsp ots
Ġsp otted
Ġsp aniel
ell er
ĠF ree
il is
ĠL ight
ĠL ast
ĠL ist
ĠL AR
ĠL AN
ĠL OR
Ġv at
Ġv icious
ho d
ĠP h
ĠP ind
ĠP EM
ĠG any
Ġsh in
Ġsh ining
ĠD el
ĠD ieu
ĠD ane
ive ly
Ġgood man
Ġpr anks
ven spur
em broke
ong ue
Ġthere withal
Ġbl ister
Ġbl ade
Ġsw e
Ġca uld
reat ion
ĠY ield
Ġor b
Ġor ation
fe ren
Ġar gues
Ġus urer
ĠEx cept
Ġbr at
Ġbr ine
Ġbr othel
ak ers
Ġun born
Ġun quiet
Ġj et
Ġj ig
Ġj ack
Ġmad ame
Ġen act
Ġen join
Ġen suing
EN ZO
pe ople
pt ed
Ġex eunt
Ġey ne
ff rey
Ġab ode
Ġhea ve
Ġpl otted
Ġcha ff
Ġcha sed
ign s
per ation
ber y
Ġfl inty
For give
ENE T
Ġcomm ent
Ġri pen
Ġper use
Ġra rest
Ġpre cept
Ġpre late
Ġma p
Ġma im
ple d
Ġim itate
Ġhead strong
Ġarm ies
Ġcont ri
AN IA
Ġlong s
Ġpur ity
Ġcomp el
ors hip
ĠMar y
ĠMar ia
Ġrep ro
Ġrep etition
Ġend ow
Ġend ing
Ġbra ver
Ġfollow er
Ġsm iled
Ex cept
Ġdr ugs
OR S
Ġgr in
be ians
Ġdear th
Ġqueen s
Ġconf ines
Ġrest rain
Ġch ides
Ġcourt s
Ġcourt iers
Ġpass ages
Ġkind le
Ġres idence
Ġgri pe
Ġta pers
Ġpri zed
cl oth
Ġhope ful
Ġimp ression
Ġlight ed
ont es
Ġjust ify
Ġmo ons
Ġmo onshine
Ġban ners
Ġadv antages
Ġsun s
Ġcommand ing
Ġgre asy
Ġfree ze
Ġjud ged
Ġcry stal
Ġdef iance
ĠPr oud
Ġproud ly
IL LE
Ġbri ers
Ġmarry ing
Ġmusic ians
ub al
Ġfit ness
Ġbar ber
Ġeat ing
Ġinc ur
Ġcham bers
Ġwoo er
Ġfast en
Ġvis or
Ġvis ited
Ġdev out
Ġquar re
Ġsur v
ĠWould st
ĠCh orus
Ġtraitor ous
over n
Ġopp osition
Ġconst ruction
Ġund es
med e
empt ion
Ġinter cept
cri be
Ġwild er
Ġmot ley
Ġmod ern
Ġmod erate
Ġrel ate
Ġrel ation
Ġrel ieved
Ġty rants
Ġve he
Ġve il
Ġjo lly
Ġsteal th
Ġcheer fully
ĠChrist ians
Ġmist aking
Ġmist aken
Ġtent h
Ġadm ittance
Ġeffect ed
Ġwood en
Ġbreast s
sh ine
Ġsn ail
pher ds
Ġlan tern
Ġforsw ore
Ġtor ments
Ġquiet ly
Ġbitter ly
Ġdemand ed
ĠLove ll
itiz en
Ġmut ton
Ġur ging
Ġga unt
Ġwretched ness
Ġhumble d
Ġship w
Ġinj ustice
Ġdec reed
ĠBel ike
Ġloud er
ĠSal ique
Ġcorn ets
Ġnecess ities
Ġexpect ed
ĠBrit on
Ġamaz e
Ġrare ly
Ġfaint ly
Ġlament ation
Pr oud
Ġod ious
ĠHeaven s
Ġguilt iness
Ġunha llow
Ġreign s
Ġaffect s
Ġwont ed
ĠGe ffrey
ĠGre en
ĠCount y
Ġroot ed
Ġunc ertain
val iant
Ġsal ve
Ġimper ious
Ġextrem est
Ġearnest ly
ĠTIT ANIA
Ġcher ub
Ġtemper ance
isho ps
Ġswell s
ĠHal f
Ġeng ine
Ġclim ate
Ġmag ist
Ġprefer r
Ġprefer ment
Ġbuild ing
Ġrhy mes
Ġgroan ing
Ġheav ily
ION E
Ġslight ly
oll a
Ġnice ly
ĠGreek ish
Ġdiss ension
Ġhuman ity
Ġmult it
Ġcontract ed
Ġresc ued
Ġhaunt s
col m
Ġbag s
rog ative
Ġsine w
Ġperfection s
Ġcoron et
oler able
Ġcharac ters
stant ial
ĠBra ve
ĠMurd erers
Ġbread th
Ġrust y
Ġpoet ry
aug han
ĠST EPH
Ġbud s
ĠMEN AS
Ġcontro versy
Ġgrat ify
Ġobsc ured
Ġassem bled
Ġphilosop her
Ġstum ble
Ġspect acle
ĠPH IL
Ġrev ive
Ġblaz e
Ġped ant
chor ida
Ġperd ition
Ġtar get
Ġcord ial
ĠSing ing
Ġaccord ingly
Ġgird le
Ġdisper sed
Ġsumm ons
ĠRa venspur
Ġmuff led
Ġsympat hy
Ġcontinu ance
Ġmor sel
Ġprett iest
Ġpuiss ant
Luc ilius
abl ish
Ġcurt ains
ĠHar fle
Ġgna w
ĠChi ld
Ġchari ot
Ġblem ish
Ġigno ble
ĠGonz alo
Ġmudd y
Ġpow der
ĠSix th
ĠBell ario
Ġcompul sion
Ġoccup ation
ĠADRIAN O
ĠVOLUMN IA
Ġbal ance
omest ic
ĠPoly d
Ġincorp orate
Ġdungh ill
ĠALEX AS
AUL INA
Ġbau ble
ĠBOY ET
Murd er
Ġmemb ers
ĠHUB ERT
ĠOPH ELIA
ĠLAR TIUS
ĠLOR ENZO
ĠPind arus
ĠPEM BROKE
ĠGany mede
Ġcauld ron
ĠRavenspur gh
ĠHarfle ur
B est
B etwixt
C ontent
D en
F ool
H al
K nocking
L end
O h
O ft
P art
P res
S a
S aw
S upp
T akes
T alk
W ear
b od
b ition
b etween
c ond
g r
k ill
l ves
o es
p oor
p ipe
r ook
r ide
t urn
t own
v ise
Ġt u
Ġt ink
ou ches
in to
er ning
Ġf ard
Ġd uck
Ġc ru
Ġy ard
Ġh ook
ar ce
an ge
an other
Ġg lean
st ru
ĠT akes
ĠT iber
ĠT unis
ĠT ubal
ĠA dd
ch ild
Ġk itc
ĠS n
ĠH igh
ĠH op
ĠB IRON
ĠB etwixt
ĠE ast
ĠC ur
ĠC ontent
ĠM el
Ġher b
un cle
ĠO w
ĠO ft
ĠO lymp
th ri
ĠF idele
ĠP ur
ĠP AULINA
ĠG ower
Ġcom edy
ĠD ion
em b
Ġtr ot
Ġwas p
qu estion
ĠR atcliff
Ġsw ag
la bell
ĠTo gether
To gether
ĠTh under
Ġun e
Ġun st
Ġen ow
unt o
Ġab uses
Ġdes erv
ĠK nock
ĠAs k
ĠV ouchsafe
Ġany thing
ft ed
He ctor
Ġhar p
Ġpur g
ĠU se
Ġch oo
Ġpresent s
ap es
ail ing
gu ard
ab les
Ġsec urity
ener al
Ġbea uties
Ġdist inguish
Ġint r
Ġmin st
Ġpar ish
Ġgar ter
An y
bra ce
Ġdiv inity
Ġopen ing
Ġsur ge
Ġwatch ing
Ġred emption
Ġdish on
Ġid iot
Ġcase ment
Ġeas ier
gra ce
Ġdrown ing
ĠPl uck
Ġprov ision
Ġwhi pping
Ġmeasure d
Ġimport s
Ġga ol
Had st
Ġequ ivoc
See ing
Tr umpets
Ġcompl aints
ĠCam b
fl ow
Ġdisple ased
Ġing rateful
him self
ĠMen as
ĠMal colm
Ġpier cing
ĠFri ends
lic ation
ban ished
dis c
Ġshri ft
Pl uck
Ġbag gage
Ġrece ives
Ġadvers ary
ĠInd ian
Ġinterp re
Ġworshi ps
ĠPlay ers
Ġthorough ly
Ġwid ows
ĠCAM ILLO
Ġconvers ation
Ġiss ues
Ġspar ks
ĠAlb any
ĠMo onshine
ĠTar qu
ĠTyr rel
ĠGa oler
Ġrehear se
Ġingen ious
Ġcalend ar
- "
? --"
A DO
B IA
B OUR
C I
C K
C O
C Y
C ut
C US
C ass
C AST
C ourage
C LUS
D ES
D ead
F ree
F ortune
G ILIA
I X
I Z
I nt
I BAN
L u
L ives
M ADO
P EM
R S
R ich
R GILIA
S il
S wear
T ra
T ro
T ime
T ouch
U ELL
V ER
W arwick
W rite
Y LO
a che
c qu
c ass
c ation
c ary
c ertain
c und
d ame
e res
e xt
f ull
f ix
h ors
i pping
k ers
l ant
m ber
o g
o at
o ons
p urn
r ine
r ade
s la
t ha
t aking
w r
w ood
y ally
Ġ il
Ġ --
Ġt ha
Ġt is
he ads
Ġa right
Ġa ug
Ġm ud
Ġm ater
in and
Ġw age
Ġw iped
Ġw hale
Ġb ower
Ġb alls
Ġb ourn
is ome
er look
or ing
Ġf er
Ġf ates
Ġf itt
Ġf itting
Ġf etter
Ġf ickle
it ary
Ġo h
Ġo o
Ġd ar
Ġd astard
Ġd uteous
Ġd ressed
Ġc ures
Ġl oo
Ġl itter
Ġy awn
on ed
en u
Ġh int
Ġh ired
ar th
Ġp ho
Ġp ard
Ġhe res
ot ect
an im
an ied
Ġg ay
Ġg em
Ġg asp
Ġg esture
st ool
at en
Ġin qu
Ġha le
Ġha ven
Ġha lter
ĠT rain
ĠT artar
ĠA f
ĠA rab
ĠA quit
ĠA PEM
Ġme llow
ch ool
ill ings
ĠW ILL
ent ly
Ġst int
Ġst alk
Ġst ored
Ġst abs
ri ous
ra ight
ra ment
ĠS ister
Ġli vers
ur bs
ĠH ol
ĠH onour
ĠH onest
ĠB en
ĠB urn
ĠB ull
ĠB alt
ĠB ORA
Ġdo it
Ġdo ves
Ġde ity
Ġde pose
Ġde formed
Ġde mean
ĠE sc
ĠE ARL
hi ps
us hy
us picious
ĠC han
ĠC old
Ġsha king
ĠM ount
ĠM ER
Ġse ed
Ġse ct
Ġse iz
Ġno st
Ġan at
Ġan gle
Ġlo g
ĠO ber
Ġsp ear
Ġsp ade
Ġsp ices
Ġsp heres
ĠF ife
ĠF ield
ĠF erd
ĠL art
ĠL ives
ĠL ONG
Ġkn ots
Ġv est
Ġv ale
Ġv aunt
ho s
ĠP AT
ĠP embroke
ĠG A
Ġsh ru
ant ing
Ġat one
ous y
Ġgo at
ĠD iv
ĠD IANA
ĠN ear
ĠN ame
Ġpr y
Ġpr attle
Ġcon ject
Ġshe athe
ven ged
Ġr ite
Ġr ises
ul a
um ing
Ġbl asphe
ĠR UG
Ġsw ays
Ġsw ifter
Ġhat ches
Ġor g
Ġor gan
Ġar row
Ġhere tic
la re
ĠEx c
Ġbr ood
ĠTh ine
Ġun rest
Ġun civil
Ġj ars
Ġen roll
Ġsa vours
Ġho vel
Ġdis closed
EN N
EN AS
Ġpro gen
Ġpo isons
Ġex it
Ġex empt
Ġqu ill
Ġfo ils
Ġab ound
Ġab ility
Ġpl at
Ġpl ate
Ġpl od
Ġcha l
Ġwhere to
Ġtw in
ĠJ ac
ĠJ ESS
AR INO
ĠFor bear
Ġbet ide
Ġle ct
Ġear ls
ĠK ill
Ġart ific
Ġcomm ence
Ġri g
Ġri vals
Ġper sever
Ġsc ald
IN TUS
Ġra iling
che on
Ġma ce
ĠBe gin
Ġcl out
Ġcl ime
Ġcl ub
Ġim pose
ĠCa pt
Ġpres um
Ġcont ains
Ġcont rive
AN TUS
Ġbeg ging
Ġhar t
Ġhar ness
os ity
Ġshow ing
Ġrep lied
atch ing
Ġgl ister
Ġgl itter
ĠU RS
Ġsm ock
Ġsm elt
vil ius
Ġlie u
Ġfort night
OR IZ
Ġgr ind
Ġgr ate
be ing
Ġco g
Ġco ven
Ġco als
Ġtra ce
Ġtra ct
Ġcons umed
Ġcons pire
Ġch uck
Ġcourt ship
Ġcount ed
Ġface d
Ġafter ward
Ġtre mbles
Ġche ques
Ġright eous
Ġseem eth
ĠAnt ium
Ġret ain
Ġover come
Ġover heard
Ġsub urbs
ĠDo labell
Ġdisc reet
AL US
Ġbed fellow
Ġmis doubt
Ġhither to
Ġmaid ens
Ġmo ist
Ġbu bble
gu ish
Ġsea led
IC A
Ġcare fully
Ġpal ate
Ġless on
Ġtalk ed
Ġstra it
com ed
ran mer
Ġwant ed
Ġthrough ly
Ġdoubt ed
Ġbreath s
Ġmet hod
Ġsupp ress
Ġsupp li
Ġdist inction
Ġfore go
Ġquick en
ham pton
Ġbro ach
Ġcast les
Ġcar ve
Ġcar cass
Ġint olerable
Ġsin ful
Ġba le
Ġdep th
Ġsk ip
Ġfit ter
Ġcut s
Ġrec o
Ġrec reation
Ġmin es
Ġpar l
Ġpar adise
ĠMAR TIUS
Ġhell ish
Ġbat ed
Ġknight hood
Ġground s
Ġprof its
ĠAr ise
ĠAr my
Ġconfess or
Ġest ates
Ġord inance
Ġord nance
Ġcreat ion
ask ets
Ġstraight way
LE Y
ots pur
RO CLUS
Ġpen et
Ġfeel s
Ġbase ly
Ġclose d
Ġclose ly
ĠPer dit
ĠVI RGILIA
Ġrevenge ful
Ġharm ful
Ġmoon light
Ġconst rue
Ġcle ft
Ġreg ions
ĠLA BOUR
Ġran ge
Ġdeliver ance
Ġext ort
cri pt
Ġlow est
Ġbattle ments
Ġgrie v
Would st
Ġshi pp
Un cle
Ġpassion ate
Ġjo cund
Ġfam ed
Ġcheer ly
LA US
ĠCA DE
ĠLe ontes
Ġorder ly
Ġut tered
Ġform al
Ġda unt
Ġda wn
Ġwisdom s
Ġcommend ed
Ġcommend ation
Ġcommend able
Ġpost s
Ġconsent ed
Ġins pired
CH IO
Ġsole ly
ĠDe cius
Ġunw holesome
Ġround ly
my self
Ġcounter po
TH UR
Ġcarry ing
Ġpain ful
Ġdu ly
Ġwhore s
cha s
ĠDes cend
Ġcred ulous
Ġmut inous
Ġbastard y
Ġarg os
ĠLuc ullus
iv al
par able
Ġcontin ual
Ġver ge
See k
Ġclaim s
Ġdec rees
ĠCon f
ĠCon stance
ĠBel arius
Ġcatch ing
Ġfail ing
Ġpun ished
Ġgreet ings
Ġconj ured
Ġcorn ers
Ġutter ly
Ġutter most
Ġusur per
ĠAR MADO
ĠAR THUR
mong er
Ġfond ly
UL T
Ġsli ps
Ġglass es
Ġbas ilis
fl ies
Ġrid ing
Ġbef its
ĠPR INC
ĠQu ince
Ġlen ity
Ġseason s
Ġfun ctions
ib el
Ġsac rament
Ġfirm ly
Pro ve
Ġunc les
Ġallow ed
Ġbuck ram
hum an
Ġpack ing
Ġeag les
ĠEp id
sc ore
Ġincl ine
Ġpict ures
Ġant e
Ġwhis pers
Ġleng then
Ġobject s
Ġsy n
Ġdisdain ful
Ġforfeit ure
Ġadvance ment
CA ENAS
ĠSAL ARINO
Ġavo ided
ĠFri end
ĠPER CY
Ġwax en
Ġspr ites
sp ring
ĠAL BAN
ĠAL CI
zz led
Bel ike
ĠGR E
Ġcla pp
Ġstick s
Ġcler gy
Ġmart ial
Ġdot es
Ġplant ed
Ġmult ip
ĠPOL IX
Ġmass ac
Alarum s
Ġexped ient
Qu ick
Ġgarland s
Ġdukedom s
ĠLO ST
ĠApp ear
ĠApp roach
Ġbrid al
Ġcoll ected
ĠQU INCE
ĠQU INTUS
Ġliqu id
ĠOLI VER
Ġapprehend ed
than k
ĠSH YLO
ez an
Ġgrat is
Ġbru ised
ĠTurk ish
ĠCons ider
Ġspect acles
ĠFL UELL
keep er
Ġtim eless
ĠOli ver
Ġblaz on
Ġinsol ent
Ġfrost y
Ġplan ets
ĠBO ULT
ĠBASS ANIO
unch ient
Ġgap ing
Ġworshi pp
Ġriot ous
Ġfeign ed
Ġmould ed
ĠPhil ome
ĠKnight s
ĠGer man
Ġsugg estion
Ġbrand s
Ġmajest ical
ĠHERM IONE
Ġviz ards
Ġrus hes
Ġconfeder ates
Ġreconci led
Ġchronic le
Adv ancing
dit ary
might y
tong ued
Ġgorge ous
Ġwrang ling
Ġded icate
Ġpir ate
ĠFour th
ĠDu chess
Ġwhel p
icer o
Ġdroop ing
Ġinfer ior
Ġincon stant
ĠTitan ia
Ġtransport ed
Ġaccompl ish
Jo hn
Ġcele br
Ġgames ter
Ġdoct rine
Ġvio lets
Ġpopul ar
Ġwhir l
Ġcontag ious
ĠQuick ly
ĠMarian a
othe cary
Ġstratage m
Ġparch ment
Ġew es
ĠBour dea
ĠBret agne
ĠFle ance
Ġabund ance
Ġindust ry
Ġforgiven ess
Ġattorn ey
Ġpupp et
ĠAEd ile
Ġcu ps
ĠBL UNT
ĠEur ope
Ġrad iant
Ġcanop y
Ġmalign ant
ĠAw ake
ĠVenet ian
AV ILLE
Ġham mer
ĠESC ALUS
ĠME CAENAS
Ġremed ies
Ġcurts y
ĠBarb ary
Ġinflu ence
ĠSund ay
ĠDUM AIN
Ty balt
Ġoy ster
ĠSimon ides
ĠMENE LAUS
ĠLAN CAST
ĠPh ry
BIA DES
purn ia
Ġpho enix
ĠAquit aine
ĠAPEM ANTUS
ĠWILL IAM
ĠBORA CHIO
ĠEsc alus
ĠOber on
ĠFerd inand
ĠLart ius
ĠLONG AVILLE
ĠPAT ROCLUS
ĠRUG BY
ĠJac ob
ĠJESS ICA
ORIZ EL
ĠDolabell a
ĠPerdit a
ĠLABOUR S
ĠPRINC ESS
ĠALBAN Y
ĠALCI BIADES
ĠPOLIX ENES
ĠSHYLO CK
ĠFLUELL EN
ĠBourdea ux
ĠLANCAST ER
A ng
A dd
A chilles
B oy
D em
D ef
E m
H um
H igh
P ur
R el
S u
S en
S uff
V ouchsafe
W r
b id
b asket
d eliver
f al
g est
g od
h ot
h ouses
n or
s po
w al
w ink
in ter
in her
nd ers
Ġc ott
Ġc udge
Ġl ousy
Ġn earest
Ġh ip
Ġp ag
Ġto ads
Ġhe n
om b
at ched
ce ives
Ġha llow
ĠA ct
ĠA mb
ĠW ast
ĠW oe
ĠW hispers
Ġst ings
ĠS u
ĠS ams
ur ate
ĠH otspur
ore s
ĠC er
ĠC ond
ĠC ranmer
ĠM ed
ĠM art
Ġse xton
Ġsp in
ĠF it
ĠF ates
ĠF ellow
ĠF alls
il est
Ġv a
Ġsh uff
Ġgo ats
ĠD irect
Ġcon ceived
ind eed
Ġshe pherds
Ġbl asted
ĠR el
ep s
la c
Ġun look
Ġmust y
Ġmust ard
Ġspeak er
Th rice
Ġab ate
Ġhea ved
Ġwhere upon
ĠJ e
ĠJ er
ack s
ĠK ind
Ġple beians
ĠV aughan
Ġper plex
Ġad orn
ans w
Ġra m
Ġpre d
Ġpre tend
ĠBe comes
ĠBe yond
ple te
cc ess
led ged
Ġfind ing
Ġshow ed
ĠIs is
Be comes
Be yond
Ġsle eves
be en
ĠWhere to
Ġgi vest
irt s
ĠSt range
Ġthank fully
pect ing
Re ad
Re ceive
Ġenter ing
com m
Ġsupp lied
Ġdist inct
Ġdep ends
Ġatt ent
Ġdeli vers
ĠPer haps
Ġpluck ed
Ġext emp
Ġext enu
Ġlim ed
Ġlim its
ĠSee ing
set tled
Ġconqu ering
Ġenc ount
Can st
Ġbitter ness
Ġsix pence
ĠCor p
ĠSil vius
Ġvir gins
Ġequ ally
ĠSh ore
Ġtrans gression
Ġdeal ing
ĠFal se
Ġconc erning
Ġparticul ars
Ġdif feren
ĠLy chorida
bear d
ĠPet o
ĠSha me
Ġeter n
Ġder ive
ĠSat an
Ġcoff er
Ġfil th
Ġabhor red
ĠMe antime
Ġcreep ing
Ġpenny worth
Ġdecl ined
Ġmisc arried
Ġendea vours
ĠFL ORIZEL
keep ing
Ġpi kes
Ġsequ ent
Ġcompar ison
Ġdiso bedience
Fal se
Fal staff
ĠSer vilius
Ġresem ble
Ġau gment
ĠPed ant
Ġescap ed
ĠCAL IBAN
Ġdooms day
ĠOw en
Ġminst rels
ĠTarqu in
Lu cius
Tro ilus
fal se
A IS
B u
B eshrew
B rave
D iv
D oubt
G u
H arry
I WARD
J ust
K EN
L ight
L ast
L ords
M er
N ame
P ar
S O
S aint
S INO
U LO
U LA
V irtue
Y Z
a h
a it
b u
b ing
b red
b ric
c ides
d urate
e v
e ch
e very
f es
f ear
g artered
h onest
m ine
m uch
n ay
o h
p res
p able
r mid
s y
s il
s imple
t ri
t alk
t ail
t rue
v ied
v iors
w ho
w ark
z a
Ġ ides
Ġt ides
Ġt ithe
Ġt ang
Ġt asted
Ġa pr
Ġ" --
Ġs ly
Ġm ow
Ġm ature
in able
in ated
in ations
Ġw an
Ġw are
Ġw reak
re p
re bon
ha ge
ha ppy
nd ise
Ġb out
Ġb ench
Ġb aked
is p
er whelm
or ity
it ae
it adel
Ġd rench
Ġd aff
Ġd itch
Ġc art
Ġc ate
Ġc ows
Ġc lip
Ġc overed
Ġc itadel
ĠI nt
ĠI ach
Ġl our
Ġl ump
Ġl ends
Ġl urk
Ġn our
Ġh ug
Ġh inds
Ġh idden
Ġp ud
Ġto day
Ġhe ro
Ġg eese
ow ls
st ead
at isf
Ġbe es
Ġin ve
Ġin human
Ġha voc
ĠT ew
ĠT rip
ĠA gain
ĠA li
ĠA ug
Ġme chan
ith met
Ġe ke
oo ch
ke ley
Ġit ch
ter ate
ĠW ol
ĠW alk
ĠW omen
ĠW ALT
id ered
ent i
ent ious
ent imes
Ġst ony
Ġk ick
Ġk ite
Ġk issed
ri king
ri eve
ĠS out
ĠS em
ĠS ever
ĠS PE
ĠS IWARD
Ġre alms
Ġso lace
Ġso journ
Ġas pir
ĠH all
ĠB u
ĠB ack
ĠB ase
ĠB ert
ĠB ushy
Ġdo e
Ġde ign
Ġde alt
ro ps
ain ing
ood y
us ale
ĠC art
ĠC ol
ĠC ER
ĠC ON
ĠC ertain
ĠC icero
ĠM ARD
ĠM ESS
ĠM utius
am inius
Ġher mit
Ġse als
Ġan guish
Ġlo s
Ġlo gs
ĠThe e
Ġsu ed
ell y
ĠF EN
ĠF ab
il ogue
ĠL i
ĠL ic
ĠL ig
ĠL ud
Ġfa ils
Ġfa ctions
Ġkn avish
han ging
ear ch
Ġv ary
rom ise
ĠP la
ĠG old
Ġsh illings
ust y
Ġam iable
Ġup per
Ġgo ver
ĠD ull
ĠD aughter
ĠD utch
Ġcon voy
em ents
em inate
Ġr ul
Ġr ides
Ġr idd
Ġr ules
Ġtr ades
Ġthere upon
qu a
Ġbl ots
ĠR est
ĠR ho
ic s
ic ial
Ġsw ing
Ġca ge
ĠY or
la p
la ble
ol ic
Ġbr ooch
ig hed
Ġun ity
Ġun arm
Ġun advised
Ġun gracious
od ious
Ġen com
Ġsa ving
Ġho gs
Ġdis su
Ġdis pense
Ġout run
ĠWhat e
Ġpro pose
Ġpro long
Ġpro bation
Ġpo ckets
Ġheart y
Th ine
Ġgra pple
Ġex tern
ond ay
Ġhow soever
ist ed
ist ake
Ġfo h
ci ble
ci ences
Ġpl un
Ġpl ume
Ġro yally
What e
ree ch
ĠJ ust
Ġhear ken
ĠHe cate
ĠFor give
Ġbet ake
Ġbet roth
ign eur
ber ries
Ġhonour ably
li b
Ġfl ows
Ġpart ial
to ld
For bear
Ġfear fully
ag n
ag ate
Ġser geant
ĠV irtue
Ġri val
Ġwar p
Ġper used
Ġsc ape
IN S
Ġra iment
Ġpray ing
Ġsweet s
Ġsweet en
Ġpre v
Ġpre rogative
Ġapp ell
ON SO
che ap
ĠBe g
Ġbrother hood
Ġcl ubs
Ġdown fall
ĠIn n
Ġcont roll
ks bury
AN CE
AN LEY
Ġmight iest
Ġgrace ful
os er
os al
os ure
ought s
Ġrem n
Ġcomp ounded
Ġrep uted
Ġrep rehend
for ward
Ġmer maid
ert ake
Ġbra ke
Ġbra very
Ġbra ved
Ġind irect
Ġind irectly
Ġgr ay
Ġgr um
Ġco ach
Ġco pper
Ġhigh way
Ġtra vels
Ġcons ume
Ġel ves
Ġserv ile
Ġgu ides
Ġtri but
Ġtri vial
Ġstay ing
Ġstay ed
Ġmind ed
Ġwoman ish
ult ies
ĠWhen ce
Ġchar ter
Ġelse where
Ġpe al
Ġpe cul
Ġchild hood
Ġdra b
Ġtre as
Ġtre ads
ĠSt abs
Ġwrong fully
Ġthree fold
Ġearth y
Ġearth qu
cl asp
Ġhum bleness
Ġover t
Ġover take
Ġover came
Ġbod e
Ġbes iege
Ġsl oth
Ġmon key
ont inent
AL A
ap olis
bs erve
Ġbed chamber
Ġmis led
Ġmis pr
Ġmis con
Ġlaw less
Ġtruth s
Ġwel comes
ĠHer od
rant z
ĠNor mand
Re ady
Ġstri ves
Ġadv ocate
ab ility
Ġbo il
Ġbo arded
pl ing
ac on
Ġill s
Ġgre ase
Ġent ered
St abs
Ġoft entimes
Ġstrong est
Ġdare d
Ġhorse back
Than k
Ġspirit ual
com fort
Ġthrough out
ads hill
Ġaw ry
Ġfoul er
Ġdraw ing
Ġdef iled
Ġattend ant
Ġattend ance
Ġdist rust
Ġfore see
ham es
Ġbro il
Ġbro ker
Ġgeneral s
ues day
Ġinf all
Ġinf ring
Ġdream ing
Ġcar ved
Ġmusic al
Ġwin ters
Ġcertain ty
Ġdel ays
Ġsk ies
Ġsk irm
Ġsk ilful
Ġvi per
Ġvi ands
Ġwa ving
Ġdisp raise
Ġpar allel
Ġcontent ion
Ġmoney s
AS CA
az z
Ġact ed
Ġgall ed
Ġrequ ital
Ġprof an
ĠAr ch
Ġgar b
Ġsuit ed
Ġmock ed
Ġinc ontinent
Ġwoo es
Ġwoo ers
ixt ure
vo ke
Ġchange ling
Ġmurder ing
ĠGloucester shire
with out
ĠPro claim
Ġconst rain
Ġconst raint
Ġreg ards
Ġreg iment
Ġsoldiers hip
Ġdark ly
Ġinter chan
Ġinter cess
Ġfeast ing
ash ful
Ġunt r
Ġwild ness
AND A
Ġmount ing
Ġdire ful
IR ANDA
Ġsoft en
Ġexc used
Ġmortal s
Ġliber ties
Ġfam ily
Ġsigh ing
ĠLUC IANA
ĠTr ans
Ġrevere nt
Ġcross es
Ġadm ire
bb o
Ġmir acles
Ġlion ess
Ġob durate
Ġwood cock
IT ES
Ġpost erity
Ġacqu it
Ġhealth ful
Ġbuy s
Ġdepart ed
sh ot
Ġentertain ed
Ġunw illing
Ġlan ces
Ġjudge ment
Ġamb ush
ĠAd rian
Ġchurch man
ĠJew ry
ĠHelen us
Ġqual ify
Ġquiet ness
sem ary
Ġpain ter
Ġmanner ly
ĠRos enc
cha ndise
Ġtemp oral
Ġmel ody
Ġimport uned
ĠCor inth
Ġchast isement
ĠSil ence
Ġleg ate
Ġver d
Ġinj urious
Ġdec lare
ĠCon fess
ĠCon stable
Ġthreat ens
Ġfru its
Ġconj unction
Ġthunder bol
Tr ust
Ġbend ed
Ġcourage ous
Ġport ly
Ġport ion
Ġsolemn ly
Ġwanton ness
Ġimag ined
Ġphysic ians
Ġconc ord
RAN MER
Ġdet ect
rat o
Ġvent ures
Ġbef al
ĠAE m
Ġconvey ance
ĠQu ite
ĠPo ison
Ġemb ark
Ġcost ly
Ġline al
Ġweigh s
ĠGre cians
Ġclot he
Con f
Con fess
Pro ceed
Pro claim
Ġband y
Ġbenef its
Ġmild ly
Ġmild ness
Ġbuck le
Ġdig g
ĠTIT INIUS
Ġaud acious
Ġpack et
Ġghost ly
Ġregard ed
Ġfurn ished
ĠTH ERS
ĠTH AIS
ĠCOR IN
Ġimm inent
Ġcapt ives
Ġmischief s
ĠVol umn
Ġsuspect ed
rs ula
Ġcomplex ions
Ġbew ray
Ġmiss ing
ĠWilt shire
Ġwaste ful
Ġaffli cted
Ġherald s
ĠCal chas
ĠCal purnia
Ġspr ung
Ġpor ridge
Ġste er
ĠOR SINO
Ġswallow ed
Ġalter ation
Ġwhisper ing
rib ute
ĠHence forth
Ġsand y
ĠRet ires
Ġung rateful
INC ULO
ELL US
oun cing
Ar ise
Ġraven ous
mediate ly
col oured
Ġwrest le
Ġfors ook
Pl ay
Ġrecord ed
Ġtou ched
Ġrobb ers
ĠDraw ing
Ġhelm et
Ġbon ny
Ġsup reme
Ġfla g
Ġmerri er
br other
Ġrum inate
Ġtrim m
ĠST ANLEY
ĠGra cious
Ġadvers ity
Ġpeas ants
Ġir ons
Ġtum ble
Ġdecl ining
Ġbrace let
Ġsucceed ing
Ġcro pp
ĠInd ia
Ġunjust ly
Ġperf umed
Ġbru ise
ĠPH ILO
Ġmanif old
Ġgoss ips
Ġpurs ues
Ġsubd ue
Ġwrink les
Ġdiscipl ines
App ear
App roach
Ġtim orous
Ġox en
Ġpul pit
ĠPO INS
Ġblast s
Ġgroom s
Ġtren ches
ĠROSAL INE
WAL L
Ġsed uced
Ġhaw k
Ġdiamond s
Ġfantast ic
ĠSleep s
Ġpestil ent
Ġvig il
Ġpeer less
Ġsumm ers
Ġdart s
Ġviz ard
Ġtaunt s
Ġunpro vided
ĠBer keley
Ġspot less
Ġclam ours
Ġcompar isons
Aw ake
Ġthirst y
Ġsham eless
amn um
Ġsympat hi
aur us
Ġpir ates
ĠSy cor
Ġvap our
ĠDu kes
Ġkern s
Ġju ice
Ġtrag ic
Ġtrag ical
Ġobsequ ies
Ġnymph s
Ġeff eminate
CU TIO
Ġaut umn
Ġaccomp any
ĠCORN WALL
cell us
Ġlull aby
ĠTR INCULO
Ġeg gs
ĠSC ARUS
Ġenge nder
Ġinsult ing
ĠSyracus ian
ĠParthi a
ĠBrabant io
Ġcontrad ict
Ġsess ion
Ġbree ches
Ġfres her
Ġlot tery
ĠSail ors
Ġconsec rate
Ġostent ation
ĠChat illon
Ġdall iance
athan iel
ĠTur ks
ĠEthi ope
ĠCent aur
ĠPent apolis
ĠDER BY
ĠDION YZ
Ġorphan s
beg otten
Ġflee ce
ĠEl bow
ĠCad wal
Ġprecept s
Ġwilder ness
Ġmultit udes
ĠSTEPH ANO
Hal f
Ġtha w
ĠMER CUTIO
Ġorg ans
Ġplat form
Ġartific ial
Ġglitter ing
ĠURS ULA
Ġbale ful
ĠEpid amnum
ĠPhry g
rebon ius
ĠIach imo
ĠTew ksbury
ĠAli ena
ithmet ic
ĠWALT ER
ĠSPE ED
ĠBert ram
usale m
ĠCart hage
ĠMARD IAN
ĠMESS ALA
ĠFEN TON
ĠFab ian
ĠLic io
ĠLig arius
Ġpecul iar
ĠNormand y
ĠRosenc rantz
ĠTHERS ITES
ĠTHAIS A
ĠSycor ax
ĠDIONYZ A
' --
B ea
D ie
F oul
G ave
H ie
I ll
J ove
K ind
M is
M ad
O F
P o
P repare
W h
b at
b ird
c rown
d ealing
e er
f ly
g ory
g reed
g iving
h orn
l ie
m ast
m el
m od
n one
o cc
o vers
p oint
r ather
t ill
t ish
Ġw aken
re en
is er
Ġn om
Ġth irt
Ġp ea
Ġbe adle
Ġin iquity
le m
le ave
le ction
ĠT ullus
ĠT hames
ĠT uesday
ĠA ff
im m
ill ains
as ant
Ġst ation
Ġst aves
ĠS top
ĠS ometime
Ġso ar
Ġso res
Ġli able
Ġli ars
ur ch
ĠH OL
ĠH oly
ĠH ume
ĠB ury
ĠB ishop
ĠB rief
ĠC URIO
ĠC ASCA
ĠC RANMER
ĠM ad
ĠM IRANDA
ĠO ther
th ings
ĠF ar
ĠF ast
ĠF oul
il th
ĠL ed
ho pe
ĠP ark
ĠG ave
ĠG adshill
ĠD ie
ĠN YM
ĠN athaniel
ĠR ise
Ġca per
Ġar raign
la id
ĠTh rice
Ġun acc
ance d
Ġho bby
Th under
Ġgra pes
orn er
Ġex che
ist s
As k
Ġpl um
Ġro semary
ĠMy rmid
Ġstr ut
Ġsc once
Ġla b
Ġwit hered
ĠBe en
ple asing
ĠMar cellus
ĠIs idore
Ġend less
Ġmer ited
Ġmer chandise
ĠU rsula
Be en
ĠAn th
Ġcourt ly
Ġwoman hood
Ġanswer ing
Ġres erve
Ġseem ed
ĠSt rato
Where to
Ġimp l
Ġimp osition
Ġover look
ĠYour self
Ġsl ut
Ġpra ising
Ġdisc overs
vere nd
ĠAl cides
Ġpal aces
no ble
az ed
pr ince
ĠGl amis
Ġexp ost
ĠPro d
Ġlam p
Ġfashi ons
Ġfing res
ĠTr umpet
Ġsor ce
ĠDe ce
Ġlan thorn
po ll
Ġfresh ly
ĠSc ots
Ġwhi ps
sem ble
Ġconcl usions
cha ste
ĠDes p
Ġbeha viors
Ġrememb ered
Ġpet tic
Ġinv ited
Com m
Com ing
Ġrasc ally
your self
Ġow est
Ġrepent ance
Pr ince
ĠLeon ine
Ġbef riend
do g
ĠDis patch
ĠGre gory
ĠKnow ing
act ors
Ġtail ors
ĠSen net
Ġimposs ib
Ġbew itch
Ġcool ing
Ġserp ents
Know ing
Ġtest ify
Ġintell ect
Per haps
Ġwrest ler
Me antime
ĠDraw s
Ġcarri ages
Ġinstruction s
Ġceremon ious
ĠMer cy
hast e
Ġtea ches
dra wn
Ġsevent h
cons cience
ĠSy ria
Ġcong reg
Ġdial ogue
ĠSer geant
Ġentire ly
Ġfulf ill
Gl oucester
Ġcushi on
Ġlac key
Ġlawy er
burn ing
Ġsulph urous
Ġfard el
Ġkitc hen
ĠEast cheap
ĠOlymp us
ĠCamb io
Ġinterpre ter
ĠSams on
ĠJer usalem
Ġencount ered
ĠCorp oral
Ġdifferen ces
ĠAug ust
B ase
B eneath
C old
C EL
D ep
D IT
D uring
F our
G ES
G BER
H O
H Y
H ard
H ic
H AN
H onour
I V
J ack
L y
M an
N A
O d
O UN
R ONIUS
S ad
S ent
T ear
T ook
T each
V E
V IC
V arro
W it
W alk
Z AL
a i
a ps
a iled
b et
b ur
b est
b ud
b old
b less
b bed
b rate
c od
c les
c ils
c ounter
d ist
d uke
d ouble
f ight
f ind
f itable
f riends
g om
g all
g ives
h our
h ome
j urious
j ection
k nown
l ay
l ost
m ar
m ate
m atic
m akers
n is
o pp
p an
p ret
p ated
p hant
r ge
r ated
s ho
s old
s uck
s leep
s ium
t est
t ling
t ale
t oric
u ity
v iew
v illain
w he
w ords
x ter
y ed
y za
z ar
z ab
Ġ ou
Ġ ounce
Ġ icy
Ġt atter
Ġt esty
Ġt allow
Ġt uned
he th
Ġa uth
Ġa vail
Ġa uspicious
ou bled
Ġs ot
Ġs urn
Ġm ong
Ġm ol
Ġm ince
Ġm ix
Ġm ated
Ġm ule
in ore
in ant
in als
Ġw art
Ġw akest
Ġw reath
re ce
re th
re ng
re nder
re ds
ha vior
Ġthe at
Ġb ath
Ġb its
Ġb ened
is ander
is cate
er ly
er ver
er bear
Ġf um
Ġf oster
Ġf isher
it ure
it ution
Ġd us
Ġd ive
Ġd ub
Ġd urance
Ġd irty
Ġd omestic
Ġc ust
Ġc res
Ġc oy
Ġc uff
Ġc ran
Ġc askets
ĠI X
ĠI lion
Ġl ep
Ġl ag
Ġy ew
Ġn in
Ġn ursed
Ġn erves
Ġn inth
on us
en o
Ġh oop
Ġth ra
Ġth rees
ar ms
Ġp on
Ġp end
Ġp au
Ġp ities
Ġp ang
Ġp ages
Ġp ander
ot ha
an qu
an iard
Ġg er
Ġg le
Ġg um
Ġg ig
Ġg ud
Ġg ash
Ġg ored
Ġg aud
st ring
at ches
at hes
Ġin voc
Ġha ps
Ġha gg
ĠT ook
ĠT each
ĠT ongue
et a
ay ed
ĠA gin
ĠA UT
ut ing
ut ish
Ġme als
ir ous
Ġe b
Ġe aster
Ġwe ird
id ers
id eth
her y
al as
Ġst if
Ġst ink
Ġst able
Ġst ains
ri er
ra ble
ra wn
ĠS ad
ĠS ent
ĠS ly
ĠS us
ĠS ard
ĠS au
ĠS UR
ĠS NO
ĠS IMON
ĠS ands
Ġre n
Ġre ver
Ġre plete
Ġso e
Ġso la
Ġso ever
Ġli kest
ver ing
ĠH ard
ĠH orns
ĠH ipp
ĠB US
ĠB old
ĠB AG
ĠB IG
ĠB oult
Ġdo ff
Ġde ws
ĠE ve
ĠE ight
ĠE li
ĠE ls
us er
us ual
ĠC IN
ĠC ret
ĠC eres
ĠM in
ĠM or
ĠM aid
ĠM ino
am ps
ea pol
Ġse eds
Ġse lves
Ġno v
and a
Ġlo pp
Ġall ies
ĠO BER
Ġsp an
Ġsp ill
Ġsp out
Ġsp ied
Ġsp right
ell a
ĠF ound
il fully
ear y
Ġv all
Ġv ag
ight ed
ĠP al
ĠP ass
ĠP lace
ĠG oth
ĠG ARDIN
Ġsh orter
ard o
ard seed
ust ering
Ġam ber
Ġam pl
Ġgo bl
out hed
ĠD or
ĠD ep
ĠD are
ĠD OL
ĠD uring
ĠD aniel
ĠD AU
ĠD ENN
ĠN ile
ĠN AT
ĠN ilus
Ġwhe at
Ġwhe els
ie ces
Ġshe ll
ven om
ven al
Ġr ider
ul can
nt reat
qu ires
ĠR IV
Ġsw arm
Ġcan ary
Ġca ves
Ġca ution
reat he
pp ery
ĠY OUN
Ġor bs
Ġor ange
Ġlet har
Ġlet ting
ep ing
Ġar ithmetic
Ġhere ditary
Ġus ual
la ws
el f
ort s
ol n
ol o
Ġbr ist
ak s
ak eth
ĠTh row
ig s
ig er
ig ate
ig onus
Ġun v
Ġun even
Ġun people
Ġun thri
Ġun settled
Ġun usual
Ġmad est
Ġmad cap
Ġen chant
Ġsa ves
Ġho g
Ġho ped
Ġdis aster
Ġdis fig
Ġdis inher
Ġpro posed
pe ius
are rs
Ġpo ise
Th row
Ġex iled
au nd
ond am
Ġoff spring
US T
Ġey eless
Ġqu ell
Ġqu ondam
Ġfo g
oy s
Ġab j
Ġab ides
ud y
ud ence
Ġhea ps
Ġpl ess
hen ce
Ġcha ps
Ġmar ches
Ġmar iners
Ġro ars
ĠJ ames
ĠFor res
ign ed
per ion
per ience
ber d
ber g
ber ry
ber ate
ber ds
ĠK ings
ĠK illing
Ġpart ake
Ġpart ners
ull ing
igh ing
ag re
ag ot
Ġple a
ĠV EN
ĠV ER
ĠV ern
ĠV ulcan
Ġstr ing
Ġstr ide
Ġcomm un
Ġri chest
Ġsc are
Ġsc ared
Ġad ult
Ġra g
Ġra p
Ġra z
Ġra ils
Ġra mp
Ġra zed
Ġhast ily
Ġsweet ness
ER V
ER ICK
Ġapp arition
ON IC
Ġla ced
Ġwit ches
Ġma w
ĠBe at
Ġeyes ight
Ġcl iff
sw orn
Ġhead long
Ġarm ourer
Ġpres age
Ġpres ervation
que red
AN T
Ġmight ier
Ġbeg s
Ġlong est
os sed
ason able
ES EUS
Ġrem o
Ġrem iss
Ġrem ote
Ġrem uneration
Ġpur itan
Ġpoor ly
ach ing
ach io
Ġrep ul
Ġbest rid
Ġmer cil
Ġbra gs
Ġind uce
Ġdr ug
Ġdr udge
Ġgr ud
Ġchi ck
Ġpa ces
har p
Ġconf iscate
we b
Ġgu ile
ru ised
Ġtri p
Ġplay er
Ġpass en
Ġcount s
Ġkind er
Ġres pite
bl ossom
Ġchar med
Ġthr oned
Ġcur sing
Ġneed y
Ġcou ched
Ġche w
Ġchan nel
ĠAnt igonus
ĠSt rikes
Ġpri cket
Ġacc ents
EL IUS
Ġimp ious
Ġimp udent
Ġover borne
Ġbod es
Ġbes et
Ġbes peak
Ġbes eem
ĠBr ought
ĠBr istol
Ġlight ness
Ġlight ens
Ġass es
Ġass ign
Ġdisc red
Ġdisc ont
Ġdisc laim
ont ory
Ġthank ed
ĠGo es
pect ed
Ġhither ward
Ġsent ine
Ġsent ences
Ġmo ss
Ġban e
Ġhelp ing
Ġmistress es
Ġsun shine
ab outs
IC ANUS
Ġhonest ly
Ġbo ats
Ġinst ances
ner y
Ġcommand ers
PH IN
Ġdan k
Ġcare er
Ġsaw est
ac qu
Ġpal pable
Ġill ust
ween ing
Ġrun g
St rikes
Ġwish ing
Ġprom ontory
ĠThan k
Ġstra ins
Ġsen ior
Ġsen net
Ġroyal ties
Ġhard y
Ġhard ness
Ġjud ges
ift ed
Ġcomfort ed
Ġbea ver
Ġaw ful
Ġaw eary
Ġexce ls
Ġexce eds
Ġsick en
Ġmet ap
Ġsupp le
Ġsupp lication
Ġsupp lant
Ġcra ven
Ġfore ster
Ġfore run
Ġfore said
Ġbri er
Ġbri be
Ġbound less
Sir s
Ġsoon est
Ġcar b
Ġcar go
Ġsin ister
Ġsin cer
Ġcold er
Ġtrust ing
Ġter rors
ĠThy self
Ġfit ly
Ġwa ited
Ġwound ing
ott ing
Ġdisp ro
Ġdisp ossess
Ġpar cels
Ġbar ks
Ġbar ons
av o
ceed ing
Ġact ing
Ġbat he
rest ed
Ġgall op
Ġgall eys
ĠEnglish men
ĠAr den
Ġmock er
Ġac ross
Ġwonder ing
Ġsum ptuous
Ġtender ly
Ġopen ly
Ġatt aint
Ġatt ired
Ġru bs
Ġdev ices
Ġdev oted
Ġquar ters
Ġsur prise
LE IUS
Ġdro ve
alt ies
ĠCh iron
Ġpen se
Ġpen ury
pare nt
ĠDON ALB
Ġoffend s
Ġscorn ful
Ġlam ps
Ġlam ents
Ġreg ister
Ġdeny ing
Ġguard s
ip otent
Ġinter change
ashi on
Ġadd ing
cri bes
Ġwrit ers
AND RA
Ġmount s
Ġlaugh s
amp les
Ġshi pping
ron ed
ang ling
Ġchur l
Ġliber t
Ġemper y
Ġlust ful
Ġsafe guard
umb ers
ĠDU LL
oly ta
Ġag ony
Ġsho ck
Ġble ak
Ġfill ing
bb et
ĠHa utboys
IT H
Ġda ws
alb ain
ĠPl ains
ĠPl uto
Ġpost ed
Ġpost ern
Ġprov inces
Ġflatter ies
Ġins ide
Ġer st
Ġer rors
Ġreb u
Ġfine ly
Ġunw ill
Ġunw orthi
Ġblow ing
Ġshar per
Ġsaf est
Ġvain ly
Ġmed d
Ġmed itation
Ġmed lar
Ġdu g
rent ford
Ġtemp or
Ġuns ha
Ġuns peak
Ġuns atisf
Ġdefend ed
ĠVal iant
rer s
Ġvan ities
Ġdrunk ards
Ġgross ness
ĠLuc rece
Ġhor rors
Ġref resh
Ġref uge
ug n
Ġleg itimate
Ġstruck en
Ġrememb ran
Ġswift ly
Ġver ily
Ġver ified
ĠMust ardseed
Ġprivate ly
Ġunf it
Ġembrace ments
de ath
ID ES
Ġconj o
Ġconj ur
Tr ans
Ġnecess aries
Ġbleed s
Ġtrans late
Ġauthor ities
Ġcat erp
Ġbount iful
Ġrob bery
IM ACH
ĠMac mor
Ġencounter s
Ġheat hen
ĠAR CH
Ġshr ine
Ġshr unk
Ġprotest ation
ED ERICK
Ġsli ly
ĠBl ow
Ġfaint s
Ġfaint ing
ĠMont joy
Ġfle a
Ġlament ed
Ġformer ly
Ġimag inary
Ġpot ion
Ġpot ency
Ġbas is
Ġunha nd
Ġconsider ation
Ġconquer ors
Ġbab bling
Ġcre am
do ing
Ġspare d
aced on
lo is
Ġcost ard
Ġline aments
Ġprod igious
Ġfirm ament
Ġcomb ined
Ġclo ven
Ġclo ister
val ued
Ġaim s
Ġsal utation
Ġimper fect
Ġimper fection
Ġaccount ed
Ġmil itary
Ġborrow ed
Ġunkind ly
Ġaud it
Ġdisposition s
Ġhid ing
Ġmelt ing
Ġcover ing
ĠTH YR
ĠTH ESEUS
Ġprevent ion
Ġapt ly
Ġincl ining
Ġcapt ivity
Ġprophe cies
Ca ptain
ĠSp art
ront ed
Ġexcept ed
Ġreck less
ĠSAL ANIO
ros sed
Ġinfect ious
ĠSha ke
Ġsuper stit
Ġven ison
Ġprovo kes
ERN ES
Ġconfirm ation
ĠPER DIT
Ġsour ce
Ġwea ver
Ġwea sel
ado es
ĠOCTA VIA
ĠCo eur
Ġheav iest
wear ied
Ġfin er
Ġfin est
ĠAL ONSO
Ġconsul s
zz le
ĠOffic er
Ġswallow ing
ĠPRO CU
ĠGR EY
Br ought
Ġbutcher s
Ġdim in
Ġeight een
ĠServing men
Ġnephe ws
ĠDO GBER
ĠDou bt
ĠVols cian
Ġmart yr
ĠWelsh man
Ġsecure ly
Ġsanct ity
Ġrejo icing
Ġhaunt ed
Ġshift s
ĠLaun ce
Qu ite
Ġalarum s
Ġsoci able
Ġsacrif ices
Ġtou cheth
Ġtro dden
hand ed
Ġaccus ers
Ġaccus ations
Ġpetition s
ĠCapulet s
Heaven s
Ġthorn y
ĠHEL ICANUS
ĠLO DO
Ġmonarch s
Ġrouse d
Ġfla x
Ġnon ny
Ġproport ions
Ġclimb ing
Ġav aunt
Ġnet her
Ġgrievous ly
ĠMONT ANO
foot ed
Ġir ks
ĠSic ily
Ġdecl ine
Ġdun geon
ĠDon albain
Ġdeceit ful
Ġbraw ls
Ġbraw ling
ĠPol onius
Ġrhe toric
Ġlev ity
Ġhy mn
Ġinfirm ities
Sha ke
Ġtur f
ĠGON ZAL
Ġindign ity
ĠANG US
Ġec lip
Ġens ign
Ġpenit ence
BAN TIO
Ġdil igent
ĠHim self
Ġexplo its
Draw ing
ae us
Ġhaw thorn
Ġtig ers
Ġmas qu
Ġmas que
Ġbragg ing
ĠGer many
Ġconver t
ĠANDR ONIC
Cons ider
Ġsugg est
Ġoutrage ous
Ġnegl igent
Ġrus hing
Ġchest s
ĠLYS IMACH
abb ing
hus band
Ġep ithe
Ġquaint ly
Ġdissol ve
Ġdissol ved
Aw aking
ĠJAQU ENET
Ġwrang le
Ġdetest able
Ġsevent een
Ġscold ing
Ġexclaim s
Ġobst inate
Ant ony
cal f
Ġhood wink
add ers
Ġvap ours
Ġconsort ed
Ġpuiss ance
Ġaccompl ished
Ġiss ued
ĠAlb ion
erd on
Ġcele brate
Ġhal berds
Ġdoct ors
Ġvio let
Ġupbra id
Ġarbit rement
Ġju venal
Ġpopul ous
Ġcontag ion
Ġdrag ons
Ġobsequ ious
ĠEly sium
Ġtreat y
Ġunfe igned
Ġadul tery
Ġrav ished
Ġaccomp anied
ĠCORN ELIUS
miss ive
Ġast onish
Ġdul cet
Ġpel ting
Ġgust s
Ġwheres oe
Ġconv ince
Ġenchan ting
Ġmete ors
Ġbaw ds
ĠLAUN CE
ĠLAUN CEL
Ġranc our
Ġidol at
Ġmagn anim
Him self
Ġobl igation
Ġdomin ions
Ġpoo rest
Ġken nel
Ġgreyh ound
Ġunluck y
Ġmurm ur
Ġcarp enter
Ġmus k
erth rown
Ġlux ury
ĠWit ches
ĠHUM E
ĠFR EDERICK
ersu ade
Ġtrun cheon
Ġarri val
Ġarrog ance
OLY CUS
irgin ity
Ġadvertis ed
ĠAmaz on
Ġath wart
Ġber ries
Ġhilt s
Ġgn ats
Ġbeet le
Ġdeject ed
Ġquarre lling
Ġsurv ive
Ġshipw reck
Ġmagist rates
Ġtink er
ĠCur tis
Ġdeserv ings
cqu aint
Ġoo ze
Ġpard ons
Ġheres y
ĠExc ursions
Ġenroll ed
Ġquill ets
ĠCapt ains
Ġpresum ption
Ġglister ing
Ġtract able
Ġsuppli ant
Ġdawn ing
Ġsyn od
ĠGRE EN
Ġmassac re
ĠPhilome l
Ġcott age
ĠAmb assad
answ er
KEN BURY
Ġcate ch
ĠWol sey
ĠSever n
Ġaspir ing
ĠCER IMON
Ġgover ned
Ġrul er
ĠRho des
Ġswing ed
Ġextern al
Ġappell ant
Ġtreas ury
Ġearthqu ake
Ġskirm ish
Ġintercess ion
ĠVolumn ius
OF ERNES
Ġexche quer
ĠDece mber
HO ST
HAN IEL
VIC O
zab eth
Ġauth ors
Ġtheat re
Ġbened iction
Ġdus ky
Ġthra ll
ĠAgin court
ĠAUT OLYCUS
Ġeaster n
ĠSUR REY
ĠSNO UT
ĠSIMON IDES
ĠBUS HY
ĠBAG OT
ĠBIG OT
ĠEli zabeth
ĠEls inore
ĠCIN NA
ĠMino la
ĠOBER ON
ĠGARDIN ER
ĠDOL ABELLA
ĠDAU PHIN
ĠNAT HANIEL
ĠRIV ERS
ĠYOUN G
ĠVER GES
ĠVern on
Ġmercil ess
Ġdiscont ents
Ġsincer ity
ĠDONALB AIN
Ġunsatisf ied
Ġcaterp ill
ĠMacmor ris
ĠTHYR EUS
ĠPERDIT A
ĠPROCU LEIUS
ĠDOGBER RY
ĠLODO VICO
ĠGONZAL O
ĠLYSIMACH US
ĠJAQUENET TA
ĠLAUNCEL OT
B rief
C ond
D ist
E nd
F it
F ar
F ri
F ell
F ellow
F alls
H aply
O pp
P ost
P ointing
R ise
S on
S old
S eem
S ometime
T arry
U se
V al
W oe
Y onder
a per
b ound
c as
c reat
c ontent
d ie
d iv
f urnish
h on
j e
l in
l ittle
m arry
n ut
n est
n ows
p ut
p ast
p ost
s ure
s ol
s pit
t ra
w oo
w alk
Ġt unes
Ġt ush
Ġs ou
Ġm ote
Ġm ounsieur
in ner
re qu
ha lf
Ġf ry
Ġc li
on er
on ly
Ġh oof
Ġth res
ar n
ar r
ar ve
Ġg y
ow ed
st all
st ones
st ancy
se ven
le mn
ĠT owards
ĠT aurus
ĠT rebonius
et he
ĠA bra
ĠA vaunt
im mer
Ġis h
Ġfor n
Ġfor ked
Ġwe eks
Ġst airs
Ġk er
ra ising
ĠS in
ĠS ea
ĠS its
ĠS outh
ĠS eem
ĠS heriff
ĠH ell
ĠH olla
ĠB astard
ĠB agot
ĠB rentford
ĠE s
ĠE nd
ĠE le
us hes
ĠC ain
ĠM as
ĠM us
ĠM oon
ĠM acedon
ĠO pp
ĠThe tis
ĠF ell
ho ly
ĠP y
ĠP ity
ĠP inch
ĠG ard
ĠD ame
ĠD ist
ĠD anish
ĠN eapol
Ġcon y
Ġwas hed
ĠR ef
Ġhat s
ol our
Ġbr utish
ĠTh ither
Ġun ex
unt s
Ġspeak est
Ġgra ver
Ġgra ze
Ġsome body
Ġqu art
Ġtw ink
ĠHe igh
Ġdes irous
li ves
Ġfl our
ove re
ag ine
ĠV AR
Ġhast en
Ġpre de
Ġapp ertain
ĠBe w
ĠBe come
uck oo
ne cess
Ġem inent
ĠThere in
Be come
Be ating
ret ched
int ed
Ġcons idered
Ġconf essed
Ġcount ries
irt uous
Ġvill age
ĠSt e
ĠSt ood
ĠSt oop
cl ose
Ġacc ustom
Ġimp utation
Ġdre gs
Ġdisc arded
ap able
ĠGo vern
ĠGo bbo
Your self
Ġsince re
ĠAl beit
ĠAl isander
Ġlast ly
St ood
ift s
Ġdoubt less
Ġhalf penny
Ġcr us
let ter
ĠPr inces
Ġwork man
Ġproud er
Ġsk irts
!' --
Ġcut ting
Ġpar rot
pr ison
pr oof
An swer
Ġwoo ed
ĠLook ing
aff airs
Ġunt ie
Ġpu ppy
oss ible
Ġdire ctions
ĠCom fort
gra ve
Look ing
Ġchurch men
icul ar
Ġqual ified
Ġcred itor
Ġuns p
Ġdelight ful
ĠLuc ifer
Ġhor ribly
Ġref lection
Ġdance d
Ha ppy
Ġpun y
de vil
Tr umpet
Ġproclaim s
Ġsail or
Ġstuff ed
Ġsolemn ized
Ġcustom ary
ĠRo ger
su pp
do es
ĠDis dain
Ġwarm th
Ġruin ous
Ġgown s
Ġclo g
Ġsal vation
Ġfright s
Ġdig estion
Ġforbear ance
Ġprophe tic
ĠSp aniard
Ġvar iable
Ġexcept ions
Ġsuck ing
Ġpier ced
Ġcens ured
wor m
Ġev ident
Ġaccept ance
Des p
Ġconfound ed
ĠRet reat
Ġstoop ing
Ġexper t
ĠApp arition
Ġbon net
Hel en
Ġnet tle
Ġnet tles
Ġnap kins
Ġthankful ness
repare d
Ġped lar
Ġost ler
ĠMer chant
Ġchallen ger
Ġep ilogue
Ġdesol ate
char ged
tong ue
Mar cus
ĠAss ist
Cla rence
Cor iol
ĠTouch ing
ĠRuss ian
Ġabst ract
Ġhypoc rite
ĠBRA BANTIO
ĠBRA KENBURY
Ġfest ival
Ġreform ation
Ġinnoc ency
lear ned
ĠKn ocks
Ġpros pect
Ġpreposter ous
ĠCob web
ĠDion yza
Ġswag ger
Ġpurg ation
ĠBen volio
Sen net
spo ken
Ġetern ity
ĠHOL OFERNES
ĠMyrmid ons
ĠHipp olyta
A g
A FF
A jax
B urn
B lack
B ISHOP
B ALT
C hi
C han
C ast
C ount
C ries
D r
D est
D el
D are
D IUS
D AM
E OR
F ound
F riend
G UE
H onest
I OR
J ustice
K ill
L IUS
M asters
N ear
O U
O CH
P om
P ass
P ILO
R est
R ATE
R enowned
R osal
S poke
T OM
T itus
U nt
V er
W ert
W orse
W ords
W omen
Y BALT
a ven
a pt
a cheth
b al
b ine
b row
b all
b ows
b rew
b reed
c led
c ross
c ourse
c oun
c ension
d ains
e an
e ck
e ress
e ban
f ires
f ited
f ollow
f inger
g rant
g ling
g eable
i end
i ards
l cer
m ell
m ear
m ock
o pen
o ever
p resent
p raise
s k
s um
s oul
s orrow
s ix
s port
s chool
t rees
u i
u ble
u bl
w orn
w atch
y es
y ear
y ears
z ing
Ġ ic
Ġt as
Ġt un
Ġt ight
Ġt art
Ġt ires
Ġt amed
Ġt inct
Ġt urb
Ġt aints
he ath
Ġa ches
Ġa ery
Ġa qua
ou g
Ġs ce
Ġs inks
Ġs inking
Ġm i
Ġm it
Ġm aint
Ġm int
Ġm ickle
Ġm oult
Ġw ive
re asing
ha ble
Ġb ust
Ġb ier
Ġb ishops
is it
is en
er k
er ce
er ick
er io
or ry
or med
ll ity
Ġf li
Ġf eal
Ġf ines
Ġf iled
Ġf ester
Ġf roth
it ated
Ġo ily
Ġo ats
Ġo live
Ġd au
Ġd ues
Ġd ye
Ġd azz
Ġc ough
Ġc ert
Ġc ip
Ġc ashi
Ġc ited
Ġc ocks
Ġc lipp
Ġc itizen
Ġc rossed
Ġl out
Ġl ath
Ġl ave
Ġl ined
Ġl ash
Ġl ugg
Ġl ubber
en sed
Ġh ive
Ġh ies
Ġh ild
Ġth ump
ar age
ar ison
ar ily
Ġp h
Ġp ly
Ġp ell
Ġp all
Ġp ied
Ġp ins
Ġp ens
Ġp istol
Ġp udd
Ġp aved
Ġto pp
Ġto ol
Ġhe st
Ġhe dges
ot hes
ot ions
an o
Ġg out
Ġg otten
Ġg hast
Ġg ashes
ow ick
om it
at ement
Ġbe e
Ġbe ad
Ġbe ho
Ġbe ach
Ġbe headed
Ġbe coming
Ġin cess
se a
ce iving
le g
ĠT our
ĠT ear
et ies
ld o
ld er
ĠA B
ĠA bb
ĠA EM
ĠA UD
ĠA DAM
ut or
ut ions
Ġme ad
Ġme as
Ġme ads
Ġme agre
im s
im is
im ach
ir r
ir y
ir ates
ir anda
ch ors
ill ery
Ġe el
Ġfor ge
Ġu mp
Ġu lcer
ter ing
ĠW ood
ĠW ant
ĠW ert
ĠW orse
ĠW ords
as ies
as hing
as sed
id ge
ent ing
ent ed
al ion
Ġst all
Ġst ee
Ġst ung
Ġst amps
ri g
ri ves
ri pe
ri but
ra ord
ra ins
ra cian
ra ctions
ra gon
ĠS EN
ĠS ign
ĠS cy
ĠS pare
ĠS poke
ĠS imple
ĠS ERV
ĠS OU
Ġre ft
Ġre vers
Ġre ference
Ġso lus
Ġas pire
ur re
ur bed
ĠH or
ĠH aste
ĠB OT
ĠB rand
Ġdo ers
Ġdo ig
Ġdo ings
Ġde xter
ĠE G
ĠE t
ĠE PILO
ro ses
hi gh
us ive
us band
ĠC ra
ĠC rown
ĠC ries
ĠC ourage
ĠC ARL
Ġsha ped
ĠM oth
ĠM other
ĠM eg
ĠM ORTI
ĠM acc
est im
am en
am eless
am inated
ea red
Ġher ring
Ġse ats
Ġno ds
Ġno isome
un n
ge al
ge us
Ġlo am
Ġlo athe
Ġlo athes
Ġall ied
if ying
ĠO t
th ous
th ine
th with
Ġsp ilt
Ġsp iders
Ġsu es
Ġsu cks
Ġ' '
ĠF er
ĠF la
ĠF OR
il ess
ĠL im
Ġfa ctor
han k
Ġv ult
Ġv ail
Ġv antages
Ġv esture
ĠP il
ĠP ep
ĠP to
ĠP AN
ĠP uck
ĠP orp
ĠP atricians
ĠG one
ĠG eno
ĠG HOST
ĠG EOR
Ġsh uns
Ġsh illing
ast es
ard an
The e
ust ria
end ed
Ġlord ly
Ġup l
ine ly
Ġgo ot
Ġgo al
out ing
ĠD at
ĠD ORS
Ġwhe reat
ie ving
ie ged
Ġcon n
Ġcon vent
Ġcon quered
Ġshe ath
Ġr ates
Ġr ays
ul ged
Ġtr udge
Ġthere on
um ny
um mon
Ġbl ench
Ġbl amed
ĠR enowned
ic an
ic her
ic ates
Ġsw oons
Ġca pe
Ġca vil
pp iness
Ġor isons
fe u
fe w
Ġthan es
Ġar cher
Ġar rive
la ve
ort ing
ort ed
ort ive
Ġcome ly
ak ings
ĠTh rows
ĠTh racian
Ġun ion
Ġun ite
Ġun able
Ġun sh
Ġun par
Ġun lo
Ġun lock
Ġun aw
Ġun clasp
od es
Ġj ester
ound ing
Ġen am
Ġen kind
Ġen closed
Ġsa ith
Ġsa uc
Ġho spit
eak ing
Ġdis b
Ġdis eased
Ġdis dains
Ġout face
unt ing
ice t
Ġpro sec
pe er
pe ian
Ġhon oured
Ġhand maid
Th rows
Ġgra fted
Ġex ter
Ġex amples
all ed
Ġhow e
Ġhow soe
Ġqu ir
Ġqu ote
Ġqu ittance
ist ing
Ġfo aming
Ġab ilities
ud ing
Ġpl umes
Ġcha fe
Ġmar row
Ġmar gent
Ġmar quess
Ġro bs
Ġro asted
Ġro ared
Ġwhere by
Ġwhere with
Ġtime ly
Ġtw igs
ĠFor get
aster y
Ġbet ime
Ġlea se
Ġlea ven
Ġle ans
Ġle eks
Ġblood less
Ġear ldom
,-- '
Ġart illery
li ard
li um
li ction
Ġfl ing
Ġfl ats
Ġfl ung
Ġpart is
For get
Ġwr ung
igh ter
ag ing
ag ant
Ġgentle women
Ġstr ugg
Ġri ots
Ġri gg
Ġper ils
Ġsc al
Ġsc ri
Ġsc hed
Ġsc ales
Ġsc outs
Ġsc off
Ġsc reech
Ġad ds
IN OR
Ġra ms
Ġra ught
Ġra ising
Ġsweet ing
ER IA
les sed
Ġapp li
Ġapp ele
Ġla ce
che t
Ġcl ad
Ġcl ocks
Ġcl asp
Ġcl utch
Ġstand ard
Ġstand ers
Ġhead less
Ġpres ages
ĠIn fect
Ġcont emn
Ġmight iness
Ġbeg ets
ĠWith draw
uck old
Ġpur blind
Ġcomp assed
Ġkeep ers
ĠMar gery
red erick
Ġrep aid
Ġrep lies
Ġrep rieve
Ġbest ows
Ġbest ride
me at
ne ur
ne ither
ne ys
tend ed
Ġput ter
Ġem inence
ĠU nt
Ġbra ch
Ġbra wn
ier ce
Ġsm ear
Ġsm ote
Ġind ex
Ġstill ness
ĠLet he
Ġfort itude
Be g
Be at
Be hind
Be gin
OR IDA
Ġgr asp
ĠWe igh
Ġco b
Ġtra il
Ġtra ins
Ġcons ult
Ġcons ents
Ġcons pired
Ġcons ciences
Ġconf ir
Ġconf ounds
Ġgu ided
ru p
Ġtri pping
Ġplay fellow
Ġch ink
Ġch oughs
Ġkind s
Ġkind led
Ġres ides
Ġres ervation
Ġgi bes
bl ous
Ġhus ks
Ġbel ch
Ġdra in
Ġcur led
Ġche at
Ġche val
ĠSt reet
TI DIUS
ati ate
Ġstran gle
Ġacc out
Ġhum ane
Ġfaith s
Ġhome ward
Ġover board
Ġover weening
When ce
Ġbes poke
Ġbes mear
Ġbes ieged
ĠBr itt
Ġsub jection
Ġdou bly
ĠYour s
tw enty
Ġsl ime
Ġsl ough
Ġmon k
Ġmon uments
Ġmon keys
Ġmon astery
ĠRe bell
Ġdisc ours
Ġdisc uss
Ġmis use
Ġjust ices
Ġval ues
Ġval idity
Ġbus ied
Ġmo i
Ġmo ans
Ġere ct
Ġwind y
gu ing
gu ine
Ġfar thing
Re venge
Ġstri p
Ġstri ving
ab ond
ab aeus
Ġsound ing
Ġyouth s
Ġbo asting
ner able
ST RATE
ac ulate
Ġpal ates
Ġent hra
Ġnear ly
Ġsla vish
Ġspo on
ĠNot e
Ġbusiness es
Ġstra ws
Ġdesire st
Ġprove nder
Ġsorrow ful
Ġcomfort less
Ġsing ly
Ġfoul ness
Ġreven ues
Ġfound ation
Ġservice able
op her
ĠJo in
Ġcra w
Ġcra cks
Ġcra mm
Ġsister hood
Ġdist il
Ġdist aff
ĠPr otect
Ġair s
ĠCass andra
Ġbri ck
Ġwat ches
ĠANTI OCH
Ġtend s
Ġtend ing
Ġdam ask
Ġfoot man
Go es
Ġsad d
Ġba ited
Ġdep utation
Ġsk ins
Ġsk ipping
ub ject
Ġaff able
Ġaff irm
Ġaff iance
Ġgracious ly
Ġrec all
bed ient
Ġmin ions
Ġpar ado
ial to
ec ution
ec hery
Ġact ive
Ġbat hed
Ġknight ly
Ġpay ing
Ġpast e
pr oud
pr imis
Thy self
Ġgall ery
Ġrequ ited
Ġcol t
ĠAr g
Ġgar lic
urt les
IS LE
Ġdeep est
Ġinc ision
bra nd
Ġest ablish
Ġvis ible
Ġord ers
Ġdog ged
Ġatt ribute
Ġru gged
Ġblack er
Ġsur ges
Ġbehold ers
vo kes
Ġred oubted
Ġdro pping
Ġhair y
Ġthri fty
ĠCh rish
Ġpen n
Ġexp el
Ġexp ired
Ġweak est
ĠCan idius
pare il
Ġoffend ing
Ġfavour ites
Ġdark en
Ġund oubted
Ġgro at
Ġgro ves
med on
Ġtrou blous
Ġfra ud
Ġlack ing
ĠFl aminius
Ġinter r
Ġinter view
Ġfeast ed
Ġjest ing
Ġext ent
Ġext ol
Ġext raord
Ġunt aught
Ġunt hank
Ġadd ers
Ġlow liness
OM ENES
Ġgrie ving
Ġunderstand s
Ġmot ives
Ġmount eban
Ġexc rement
Ġstrength s
Ġfe es
Ġchur ches
!-- '
pit ied
Ġjo llity
ĠLu cian
pin ion
str ings
Ġsecret ary
ĠCom ment
ĠLe ft
Ġhost ile
Ġadm its
ĠClaud ius
Ġsho ots
gra nd
Ġsim ples
Ġsecond s
rem acy
Ġgod father
Ġproceed s
ern ardo
Ġdouble d
Ġap ish
Ġap othecary
Ġap olo
right ed
Ġpost ure
Ġobs erving
Ġbirth s
Ġbirth right
Ġhealth s
Ġer ring
Ġsn ares
Ġsn atches
ĠLa feu
Ġdri ving
CH ORIDA
ict iers
Ġenc amp
Ġenc ourage
Ġvirtuous ly
Ġpossess ions
Ġwhi pt
Ġforward ness
TH INO
TH WELL
ease blossom
ax e
rent ice
Ġwhore master
Ġsus picious
Ġcred itors
Ġimport ance
Ġimport unate
Ġviol ate
Ġuns ure
Ġes quire
Ġgent les
ĠCor rupt
Ġgross er
Ġstor ies
Ġref er
Ġchast ise
Ġchast ised
Ġconce aled
Ġcontin ues
Ġswift est
Ġpure st
Ġvisit ing
Ġclear ly
Ġforbid s
Ġbestow ing
ĠSal erio
UT IUS
Ġbare foot
Ġtrans l
Ġtrans formed
Ġcontr ar
Ġbount ies
Ġlod ges
Ġrevol ts
Ġrude ly
Ġsilence d
Ġdesperate ly
UL LUS
Ġhunt ed
Ġstain ed
ĠFal conbridge
Ġfle w
Ġheed ful
Ġlament ing
Ġransom ed
Ġhol es
ĠHear ing
Ġsmell ing
Ġduc at
Ġstart ing
mo i
mo ving
ĠAb bey
Ġvent urous
Ġdisgra ces
Ġneighbour ing
Ġhap less
Ġslow ly
Ġvict ors
Ġunp re
Ġunp repared
Ġenjoy s
Ġenjoy ing
ĠPo et
Ġemb ossed
Ġcal umn
Ġcal umny
Ġcomb ine
ĠNe vils
Ġdeterm ination
Ġbuck led
she ll
she aring
Ġdig ested
Ġthick et
Ġlean ing
ĠCLE OMENES
Ġexam ination
Hear t
Hear ing
Ġz ealous
ĠPri est
Ġjoint ure
Ġconstant ly
Ġfurn iture
Ġcivil ity
Ġviolent ly
Ġcapt iv
ĠMontag ues
Ġtort ured
Ġbrook s
Ġthrust ing
Ġsore ly
Ġtrif ling
Ġpage ants
Ġhabit ed
Ġvar nish
Ġunb ruised
Ġattempt s
Ġforfeit ed
Ġsentence d
Ġmaintain ed
Ġpat ches
Ġchair s
Ġcam el
Ġcam ps
Ġeng ross
Ġretire ment
Ġesteem s
Ġdespite ful
ĠTw ice
Ġisland ers
Ġsav ag
Ġbuild s
Ġbuild ings
Ġcool s
Ġherald ry
Ġdumb ness
Ġcharm ing
Ġyo ked
Ġmodest ly
wear y
Ġder ision
Ġappare ll
Ġvessel s
Ġste pp
Ġmourn ful
Ġprivile ged
Ġcla pped
rib ution
Ġadmir ing
Ġadmir al
ris y
Ġdim m
ĠDen is
Ġmoment ary
ĠVols cians
Ġpill ars
ĠWelsh men
Ġsanct ified
long s
Ġmass y
Ġlun acy
Ġdeb ating
Ġraven s
des ire
Ġbot ch
Ġconjure r
gn iz
Ġluck y
Ġunse al
Ġenforce ment
Ġinstru cted
bell ied
Ġadvent urous
Ġoak s
EB E
EB ONIUS
Ġtro p
Ġtro phy
Ġdow ager
Ġrobb ing
Ġado pted
Ġdepend ing
Ġmill ions
Ġvillan ies
Ġmonarch y
bes eeming
Ġfret s
Ġfret ted
Ġconven ience
Ġbrid le
ĠIsab ella
Ġtravell ers
Ġbill ow
Ġsup remacy
Ġcombat ants
Ġtut ors
Ġwest ward
Ġhur ly
Ġhur ried
Ġancest or
Ġserious ly
Ġcloak s
Ġvenom ous
Ġbull ets
ĠST AFF
Ġshun n
Ġrat tling
Ġcann ons
Ġunm eet
Ġcurrent s
Ġrece iving
Ġtum bled
Ġcand les
Ġhom ic
Ġload en
Ġestim ate
Ġnun nery
Ġcro cod
ĠHy perion
Ġperf id
ĠStep hen
Ġrebell ious
ĠHo b
Ġunl oose
ĠSaturn inus
Ġstum ps
Ġstum bling
Ġoutra ges
Ġpursu iv
Ġstrang led
Ġcounsell ors
Ġward robe
Ġprocess ion
Ġtur tle
ĠLY CHORIDA
ĠPH EBE
Ġdistemper ature
Ġrub b
Ġens ues
ule ius
Ġrev ived
Ġresist ed
Ġthrong s
Ġcouple d
Ġprompt s
Ġconclud es
Ġcomplain ing
wh ore
Ġmat ron
ĠSm ith
ĠSm ile
Ġfawn ing
Ġvast y
Ġfold ed
Ġmas ks
Ġcel erity
Ġann ual
Ġspark ling
IND ARUS
Ġconspir ator
Ġsubscri bed
Ġconver sed
Ġhab il
Ġaffright ed
Ġindifferent ly
Ġmajest ies
ĠHelic ane
Ġtroubles ome
Ġappea sed
Ġconfeder ate
Ġconfeder acy
Ġsurvey or
Gra ce
ĠDrum s
Ġunpro fitable
ĠADR IANA
Ġspell s
Ġundert aking
Ġchronic les
Ġvanqu ished
Ġdefect s
Ġvine yard
Ġentra p
Ġlar g
Ġlar ger
Ġsham ef
Ġexact ly
Ġboat swain
Ġwid ower
ĠCAM PE
ĠFRAN CE
ĠLea ving
UB LIUS
Ġmort ified
Ġrud eness
Ġblossom s
ĠVAL ERIA
Ġscarf s
Ġtransform ation
Jo in
Le ft
att ling
ĠWh ite
Ġtick ling
Ġwra p
Ġhalt ing
Ġdol phin
Ġarbit rate
Ġdesc ry
Ġdesc ried
Ġannoy ance
Ġenfranch ised
Ġenfranch isement
Sm all
Sing ing
dr unk
jud ged
has ar
ĠTar peian
Ġbuff et
Ġbuff ets
ĠTyr us
Ġfre er
Ġreek ing
Ġstratage ms
rot hed
Ġcri ckets
Ġdemon strate
Ġcompet itors
ĠTR EBONIUS
Ġprim rose
Ġenge nders
Ġhop eless
Ġhoar se
Ġincest uous
Ġranc orous
Ġmagn ific
Ġcushi ons
Ġchrist ening
Ġlawy ers
comp any
Ġinsinu ate
Ġhypoc risy
Char les
Ġcy press
Ġcod piece
Ġenlarge ment
Ġgreyh ounds
Ġunluck ily
Lea ving
serv ice
Ġdiscom fort
Ġinnoc ents
Ġtack le
Ġaust ere
Ġful ness
Ġful some
Ġlur king
Ġnurs ery
idel icet
ĠSi ward
Ġfav or
Ġvac ant
ĠPha ra
ici ency
Ġjugg ling
Ġabb ess
Ġpredom inant
Ġmedit ating
Ġprecise ly
ĠSpir it
ĠSupp ose
ĠLod owick
Ġfac ulties
Ġexhi bit
ĠProc uleius
Ġsprite ly
ma j
spir ited
viron ed
Ġdwar fish
Ġpip es
Ġstew ed
Ġdeform ity
ĠEL INOR
ĠCris p
Ġanim als
Ġswe ating
Ġvehe ment
ĠPolyd ore
Den y
Ġmater ial
Ġdar ling
Ġloo sed
Ġinqu ired
ĠArab ia
ĠHol medon
ĠBalt hasar
Ġvest al
ĠGA UNT
Ġprogen y
Ġlect ure
Ġparl ous
Ġpenet rate
Ġgriev ance
Ġcounterpo ise
Ġargos y
Ġcelebr ation
ĠCer imon
Ġattent ive
Ġextenu ate
Par is
Ġcows lip
ĠSout hampton
ĠDutch man
ĠYor ks
Ġdissu ade
Ġplun ge
Ġremn ant
Ġtribut ary
Ġovert ure
Ġinfall ible
Ġinfring e
ĠArch bishop
Ġverd ict
Ġthunderbol t
ĠPHILO STRATE
Ġsympathi ze
Ġthirt een
Ġunacc ustom
Ġmong rel
Ġfisher men
Ġpend ent
Ġgaud y
Ġren ounce
ĠCret e
Ġgobl ins
ĠVEN TIDIUS
Ġrepul se
acqu ainted
Ġlibert ine
Ġunwill ingly
Ġunspeak able
ĠARCH BISHOP
ĠANDRONIC US
Ġidolat ry
Ġmagnanim ous
Ġcaterpill ars
Ġprede cess
Coriol anus
Pom pey
Ġfeal ty
Ġlugg age
Ġghast ly
Ġincess ant
ĠTour aine
ĠAUD REY
imach us
ĠSEN IOR
ĠSOU THWELL
ĠBOT TOM
Ġdoig ts
ĠEPILO GUE
ĠCARL ISLE
ĠMORTI MER
ĠMacc abaeus
ĠFla vius
ĠPep in
ĠPAN THINO
ĠPorp entine
ĠGeno a
ĠGEOR GE
ĠDORS ET
Ġunaw ares
ĠBritt any
ĠANTIOCH US
Ġparado x
Ġextraord inary
ĠLucian a
Ġapolo gy
ĠSTAFF ORD
Ġcrocod ile
ĠCAMPE IUS
A ff
A mongst
B R
B eside
C IUS
F rench
G all
H op
J ud
K nock
L ed
L avinia
M ac
N urse
O ther
O bey
P et
P our
P ossess
R ising
R oyal
S n
S its
S ec
T owards
W in
W ish
b ir
b ate
b ring
c ur
c ue
c ure
c are
c law
c orner
d anger
f ing
g iven
g eneral
h un
h orses
m ount
m istress
n it
o x
o le
p ons
r unning
s ore
s uff
t imes
u ing
w on
y outh
y ards
Ġt am
Ġt urtles
he t
Ġs out
Ġm ots
in cess
in str
Ġw ool
Ġw ards
re ep
ha ir
ha ving
Ġb il
is dom
Ġf iles
Ġo peration
ĠI ng
ĠI lium
Ġl eak
on io
en ough
Ġp yram
ot est
Ġg ard
st ocks
Ġbe lied
Ġbe thought
se nd
ce it
ĠT ears
ĠT arry
ĠT YBALT
ĠA mongst
ĠA ustria
ed ing
ĠW ish
ĠW ash
Ġst ou
ri f
ĠS ol
ur rent
ĠB eside
ĠB ernardo
ĠE geus
ĠC reat
ĠC arry
ĠM ock
ĠM ounsieur
ĠM onday
ĠM iranda
ĠM UTIUS
Ġbut ton
Ġan ew
ĠO bey
th ro
ĠF ire
ĠF rederick
ĠL ab
ĠP our
ĠP ers
ĠP urs
ĠP ossess
ĠP orter
ĠP lead
ĠP ointing
ĠP irates
ĠP easeblossom
ĠP UBLIUS
ĠG al
ard ian
Ġcom pt
ĠD ardan
Ġpr unes
Ġshe nt
Ġr ar
ĠR am
ĠR oyal
ĠR ialto
Ġsay ings
Ġus ing
Ġus urers
la b
la ugh
ish onour
Ġdis li
Ġpro strate
Th ither
orn ing
Ġwho lly
ud io
per form
Ġear ned
Ġfl own
Ġfl aming
igh bour
igh bours
Ġfair s
Ġri bb
Ġper pend
ft s
Ġra iled
Ġcour ser
ĠBe ats
Ġcl od
ĠHow ever
Ġcomp rehend
In v
ĠMar quess
ĠIt em
ĠWho ever
Ġevery thing
How ever
Be ats
be cause
ĠWhere on
Who ever
we ep
ru le
Ġcur rish
Ġcou ples
ens es
ens ible
There in
Ġimp iety
ĠBr id
tw o
ĠRe ason
Ġdisc ords
fort unes
Ġgre ed
Ġgre edy
Ġent ice
St range
Ġtalk est
Ġexce l
Ġdraw er
Ġdist ant
Ġbro ached
vour y
Ġcar bon
Ġsad dle
vent h
Ġpar amour
Ġprof essed
Al beit
urt hen
Ġinc reasing
bra ced
Ġbold er
Ġsur render
ĠLook s
ĠCl ose
Ġfeel ingly
Ġappear ing
ĠCom mit
Ġut ters
Ġag rees
but ton
Ġbreed er
Ġer go
po le
sa voury
Ġknock ed
Ġdull er
ĠDes ire
ĠDes ires
ĠDes pite
Ġcap arison
Ġimport ing
Ġuns k
Ġoffic ious
Ġlist ening
Ġconce its
uthor ity
ĠJack s
Com fort
Com mit
Ġthreat ened
Ġrans ack
his per
ĠHear d
Ġbas in
ĠBened ict
acher s
ĠAE geon
do gs
ĠPo ictiers
ĠGu ards
lo ves
ĠNe xt
Ġtempt s
ex cellent
Ġexam ined
Ġcrack ing
Dis patch
ĠBoy s
look ing
ĠMars hal
Ġesteem ed
kind ness
ĠSha lt
Ġaffli ctions
Ġinvent ory
ĠRem ain
Des ires
Des pite
Ġpill age
Ġcler ks
Ġdiss olute
pro ve
ĠBan ish
Ġburt hens
Ġflatt ered
app are
app arent
new s
Ġfla p
Ġball ads
cer ning
sha lt
ĠTurn ing
Ġobsc ene
ĠPol and
Ġstrang est
Turn ing
Ġte am
them selves
Sha me
Sha lt
Draw s
bel ieve
Ġreligious ly
ĠKne el
ĠKne eling
Ġfeign ing
Ġembass age
Ġconver ted
Ġprover bs
Ġcareless ly
Ġpos itive
Ġsimpl eness
Kne el
ĠBed lam
part ed
Ġpath s
Ġheare r
ĠMon ster
Ġmagic ian
ĠRes olve
Ant onio
ontin ue
Cla udio
ĠLion el
count ry
kn ave
Ġtick led
dr ink
honour able
Ġdemon str
ĠComm odity
ĠDef ormed
Ġcontrad iction
La un
Ġgam bol
ĠSa fe
Ġrelease d
seem ing
ĠDr inks
ĠSpir its
Ġexhi bition
Sa fe
Touch ing
Ġpag an
Ġdistinct ly
Ġextemp ore
Mer cy
ĠCertain ly
bird ing
Ġlab oured
ĠAnth ony
Ġimpl ore
Ġexpost ulate
Ġpettic oat
ĠAugust us
Ly sander
ĠAmbassad ors
woo ing
Ġthres hold
Ġgy ves
ĠNeapol itan
overe ign
ĠBew are
necess ary
Ġunsp otted
thous and
A f
A gain
A TI
A aron
A pollo
B an
B orn
B old
B ew
B OW
B ardolph
C ra
C am
C rown
C ertain
C ursed
C oll
C ATE
D S
E r
E ight
F ill
F urther
G one
G old
G ON
G iven
H ome
H amlet
H ORS
I P
I EN
I PP
K night
K ills
K illing
K issing
K isses
L ist
L adies
M al
M ort
M ont
M ars
M AND
M IEN
N UG
P rom
P ast
P la
P ale
P atroclus
P retty
R a
R IA
S ith
S al
S us
S ic
S orrow
S ister
S hylock
S even
S eems
S ometimes
S ubd
T oward
U PH
V EL
W ar
W ant
Y ork
a gain
a ving
a urs
a ways
b out
b one
b oth
b ears
b its
b ub
c u
c ase
c red
c ats
c cept
c ote
c ocks
d on
d el
d eal
d amn
d rops
e ge
e ers
e ze
f irst
f rey
g ea
g oose
g overn
h tha
h roned
i i
i ation
i ates
i ctor
i ences
k ward
k os
k eth
k na
l u
l on
l as
l ust
l ude
l ots
l arum
m um
m its
m oney
m ask
n ets
o v
o ke
o gate
p ate
p ick
p hile
p eless
p osing
p raised
p hos
p ieces
r al
r hy
r ation
r uck
r can
s al
s pe
s ince
s kins
t re
t ide
t uned
v ow
v itae
w est
w ack
w ds
w ilt
w ench
w elcome
y ours
Ġ .
Ġt il
Ġt ub
Ġt ip
Ġt arried
Ġt eeming
Ġt ucket
Ġt astes
he m
he nt
he aven
Ġa gg
Ġa venged
Ġa unchient
Ġa lac
ou lly
Ġs que
Ġs ieve
Ġs ainted
Ġm u
Ġm ent
Ġm am
Ġm un
Ġm and
Ġm ul
Ġm ice
Ġm all
Ġm alt
Ġm unch
Ġm ules
Ġm andra
Ġm ention
in est
in ion
in stead
in cible
Ġw ield
Ġw iz
Ġw rench
Ġw aning
re port
re ement
ha bits
nd ry
Ġb um
Ġb ough
Ġb urs
Ġb ashful
is heth
er als
er fl
er flow
or ch
or um
or iz
or achio
ll or
ll ey
Ġf is
Ġf ife
Ġf ade
Ġf erv
Ġf ery
Ġf ated
Ġf idd
Ġf ume
Ġf uel
Ġf rust
Ġf aded
Ġf oully
it ar
it le
it ute
it more
Ġo per
Ġo mn
Ġo ped
Ġo pens
Ġd om
Ġd um
Ġd ates
Ġd ross
Ġd umps
Ġc ore
Ġc ake
Ġc ive
Ġc ic
Ġc ates
Ġc ats
Ġc ub
es pon
ĠI ris
ĠI den
Ġl ain
Ġl ake
Ġl one
Ġl ots
Ġl ids
Ġl aund
Ġy ell
Ġn ook
on ge
en itive
Ġh ips
ar c
ar ly
ar ibel
Ġp he
Ġp and
Ġp ool
Ġp ined
Ġp unk
Ġp ines
Ġp ester
Ġp ension
Ġto m
Ġto t
Ġto re
Ġto otha
Ġhe ady
Ġhe ated
ve x
ot che
an ct
Ġg in
Ġg or
Ġg la
Ġg nat
Ġg lib
ow ell
ing led
at cha
at swain
Ġbe er
Ġbe arer
Ġbe acon
Ġin ly
Ġin land
Ġin com
Ġin quis
Ġin ev
se z
se en
se illes
Ġha res
Ġha ud
Ġha gs
Ġha vior
Ġha utboys
Ġmy ster
le on
le ter
le uc
ĠT hi
ĠT end
ĠT em
ĠT ere
ĠT oward
ĠT rent
et her
et een
ĠA UST
ĠA MIEN
ut ches
ut iful
im ble
ch us
ch ion
ch ises
Ġe we
Ġfor d
Ġfor k
Ġfor ci
Ġfor feits
oo led
Ġwe an
Ġwith held
Ġit em
ĠW ar
ĠW ake
ĠW itten
as her
as hed
al most
al ogue
Ġst ature
Ġst alls
Ġst oops
ri ch
ri ving
ri ety
ra g
ra ining
ĠS ith
ĠS orrow
ĠS ty
ĠS ons
ĠS eems
ĠS ometimes
ĠS ubd
ĠS earch
ĠS NUG
Ġre ly
Ġre ct
Ġre li
Ġre ins
Ġre cept
Ġre veal
ord ake
ord ers
Ġso b
Ġso bs
Ġso othe
Ġli cent
Ġas pic
ur ril
ver ies
ĠH ome
ĠH un
ĠH ouse
ĠH allow
ĠH IPP
ĠB on
ĠB ay
ĠB ad
ĠB ig
ĠB orn
ĠB ishops
ĠB orachio
Ġde re
Ġde ci
ĠE uri
ĠE ton
ĠE LY
ĠE UPH
ro ar
hi es
hi pp
ĠC r
ĠC ha
ĠC ir
ĠC are
ĠC ried
ĠC ursed
ĠC umberland
ĠC ROM
ĠC itizen
Ġsha n
Ġsha res
Ġsha ked
Ġsha peless
ck ing
est ine
am on
am ous
ea v
ion ess
ess es
Ġher ds
Ġse nder
Ġse igneur
Ġno ises
Ġan gers
Ġan chors
un ner
and y
Ġlo p
Ġall y
Ġall ure
th rough
Ġsp ong
Ġsp ouse
Ġsp its
Ġsp ray
Ġsp onge
Ġsu is
Ġsu bt
Ġsu pers
Ġsu ndry
ell ing
ĠF ill
ĠF ight
ĠF ame
ĠF eed
ĠF ew
ĠF LE
ĠF rog
ĠF urther
ĠL in
ĠL am
ĠL ang
Ġfa llow
Ġfa bric
Ġkn ead
ct ors
Ġv ou
Ġv ie
Ġv ic
Ġv ener
Ġv ilest
ĠP ast
ĠP ET
ĠP ale
ĠP atri
ĠP eg
ĠP retty
ĠG or
ĠG ent
ĠG ol
ĠG AL
ĠG rant
ĠG iven
ĠG enius
ĠG eneral
Ġsh one
Ġsh ins
ast ingly
Ġman acles
Ġne g
Ġne ut
ant a
ant le
ous ing
Ġwhat ever
Ġwhat soe
Ġcom et
Ġcom for
ĠD eep
ĠD ream
ĠN ight
Ġpr or
Ġpr one
Ġpr isons
Ġpr udent
Ġpr idge
Ġcon geal
ind er
Ġshe ars
ven ient
em on
em en
Ġr ood
Ġr ook
Ġr ote
Ġr iseth
Ġr oug
Ġr isen
ul nerable
Ġtr ull
Ġthere abouts
um el
Ġwas s
Ġwas hes
Ġbl ithe
Ġbl ocks
Ġbl anks
ĠR ed
ĠR oss
ic ers
ic ip
Ġsw ath
Ġsw erve
Ġsw earer
Ġca ut
Ġca ble
Ġca red
Ġca kes
reat hed
Ġor ig
Ġor ators
Ġor atory
ep htha
Ġar gue
Ġhere of
Ġus her
ĠTo ld
To ld
ĠEx ecution
ol ers
Ġbr ittle
ak in
ig ree
Ġun stain
Ġun pleasing
Ġun chaste
Ġun avo
Ġun holy
Ġun pitied
Ġj ay
Ġj ur
Ġj umps
Ġen ig
Ġsa ge
Ġsa ble
Ġsa ff
Ġho ard
Ġho ist
Ġho ping
Ġho lla
Ġdis able
Ġdis quiet
Ġdis close
EN CH
Ġout law
Ġhon ester
Ġhon neur
Ġhand led
Ġpo nd
Ġpo nder
Ġpo esy
Ġgra pe
Ġex ha
Ġex or
Ġex pose
Ġex hal
Ġex posed
all as
Ġwho so
Ġal arm
Ġal mighty
Ġey ed
ff eta
Ġqu iver
Ġqu ips
Ġqu oted
Ġfo am
Ġfo ison
Ġfo ppery
ick s
Ġab ed
Ġab ridge
Ġab ortive
Ġpl aster
Ġpl aints
hen ish
Ġcha me
Ġcha fes
Ġro an
Ġtw ins
ave l
ĠJ ephtha
Ġhear se
Ġhear th
AR VEL
ĠHe alth
Ġlook er
Ġdes k
Ġdes peration
per or
per bol
ĠYou th
Ġle er
Ġblood ily
ĠK ills
ĠK issing
ĠK isses
li ver
Ġfl oor
Ġfl ash
Ġfl ocks
Ġfl ashes
Ġlife less
ĠAs cension
Ġwr ings
Ġple dges
ĠV au
Ġcomm otion
Ġcomm erce
Ġri p
Ġri gor
Ġper ch
Ġper verse
Ġper mission
Ġper ceives
Ġsc ot
Ġsc ut
Ġsc am
Ġsc out
Ġsc enes
Ġsc abb
Ġown ers
Ġad j
Ġad ored
Ġad judged
Ġra b
Ġra ke
Ġra ze
Ġra rer
Ġwh ining
Ġke el
ĠGod s
Ġpre m
Ġpre ci
Ġpre ach
Ġpre med
Ġpre jud
les h
Ġapp ease
Ġapp roof
You th
Ġla ure
Ġla vish
che w
che que
che ek
Ġwit ting
land ers
ple asure
Ġcl ink
Ġcl oses
Ġcl osing
Ġstand est
With draw
Ġdown ward
He alth
Ġim itation
Ġarm ing
Ġarm ours
ps y
Ġpres cription
Ġcont aminated
Ġcont umel
Ġbeg one
Ġbeg otten
Ġgrace less
os h
aint ing
uck le
Ġhouse d
Ġhouse w
Ġcomp ounds
In fect
ĠMar seilles
Ġnew er
Ġnew est
Ġrep ay
Ġrep ast
Ġrep ossess
Ġrep rove
for ms
tend er
Ġgl or
Ġgl immer
Ġem ulous
ĠU nd
Ġbra ves
Ġbra ving
Ġsm ir
men cy
Ġind ul
Ġind uced
ren ched
Ġfort ress
Ġfort ify
Ġfort ified
Ġdr one
ret ch
ret urn
OR US
Ġgr ub
be at
be aten
Ġlords hips
Ġtra p
Ġtra pp
Ġtra ined
har ged
eth on
eth ink
we igh
Ġgu ise
Ġgu erdon
ru led
Ġrest less
Ġtri ce
Ġtri ple
Ġch ins
Ġch idden
Ġcourt ezan
Ġcount ies
Ġeye balls
Ġgi b
Ġgi bbet
bl in
bl ie
the st
Ġmean ly
Ġta ffeta
We igh
Ġtongue less
Ġpe pp
Ġpe bbles
ĠAt e
Ġdra ve
Ġcur bs
Ġcur few
Ġtre asures
Ġbid es
Ġche ers
ens ions
Ġchan geable
ĠAnt iates
ĠSt orm
ĠSt raight
TI MAND
ati ves
ati vo
cl ine
cl othes
Ġfaith less
Ġimp re
Ġimp et
Ġimp ost
Ġimp otent
Ġimp udence
Ġover flow
Ġover charged
Ġbes eeming
Ġbes eems
Ġsub s
Ġsl ide
Ġsl umbers
Ġpra bbles
Ġi vy
Ġsleep ers
Ġfal chion
ap ine
pect ive
Ġmis be
Ġmis used
Ġmis pla
Ġmis begotten
ET TA
eal s
Your s
Ġdi p
Ġere while
Ġban ner
Ġwind ing
Ġwind ed
Ġhelp ful
gu ise
ĠAl ps
ĠAl ready
Ġlast s
Ġfar mer
Re bell
air ing
Ġstri pes
Ġstri kest
ab ble
Ġbo iling
pl us
pl ant
pl uck
PH REY
Ġsaw s
ac ing
Ġpal ter
Ġpal frey
Ġent hroned
Ġrun n
St riking
Ġsla very
Ġless en
Ġread iest
Ġprom ising
Ġden ote
com est
com mend
ken bury
Ġwant eth
Ġjud icious
Ġvo cation
Ġvo lley
Ġpurpose ly
Ġdoubt ing
Ġdoubt fully
Ġfur row
Ġcr ust
Ġcr otche
Ġcoun cils
und reds
Ġsing er
Ġsing led
Ġaw kward
Ġexce ption
LO VE
Ġfound er
Ġdef ine
Ġdef ile
Ġdef ault
Ġdef aced
Ġdef ences
Ġpeople d
Ġsupp osition
Ġcra zed
Ġpity ing
Ġdist aste
by a
ĠPr incess
Ġfore most
Ġfore father
Ġfore tell
Ġmark ed
Ġsuff ra
Ġsuff iciency
Ġtend ed
Ġtend ers
Ġfoot ed
Ġcast s
uc ing
Ġcond ole
Ġsin n
Ġsin ner
Ġsin ners
Ġba pt
Ġba ff
Ġdep ra
Ġdep rived
Ġwin ner
Ġtrust s
Ġter ribly
Ġdel icious
Ġvi al
Ġrec ourse
Ġrec ords
Ġwarrant ed
ott ish
Ġdisp osing
Ġdisp arage
Ġmin cing
Ġpar as
Ġmove ables
ial s
ec a
ceed s
oward ly
Ġforg es
az ing
Ġbat t
Ġknight ed
ices ter
Ġpoint ed
pr onius
Ġposs ib
Ġposs ibly
Tw ice
Ġcor mor
Ġgall s
Ġgall iard
Ġgall ops
Al ready
ĠAr ragon
Ġinc ite
Ġinc apable
Ġac res
Ġac orn
Ġten ant
Ġten ants
Ġten nis
AM INIUS
Ġfast s
Ġvis ages
Ġdiv ines
Ġatt ract
Ġatt ention
Ġatt ribut
Ġru ins
Ġblack ness
Ġsur feits
Ġsur gery
vo id
Ġshort en
Ġshort ness
Ġspeed s
ĠCl itus
ĠCl aribel
Ġhot ter
RO OP
Ġtraitor ously
ca ps
Ġexp end
Ġexp osition
Ġdeli very
Ġdeli berate
Ġplain er
Ġvaliant ly
Ġstir rup
ĠPro logue
ĠPer form
Ġfavour able
Ġcle ars
Ġreg reet
Ġsport ful
Ġguard ian
rel igious
Ġgro ats
Ġrespect ive
Ġfra gments
Ġfra grant
ĠFl oriz
Ġbond men
Ġinter mission
Ġext ant
Ġunt rue
Ġprop agate
cri bed
you ng
Ġwild est
Ġsever ity
mb lable
con stant
Ġpit ifully
Ġpit iless
Ġoffer ing
Ġoffer ings
Ġabs urd
enge ance
Ġdread ed
ĠChrist opher
str ue
ĠLUC ETTA
Ġmist y
ĠTr oth
Ġlust s
Ġcross ing
ĠPar liament
Ġlim ited
Ġhost ages
Ġadm onish
Ġorder ing
Ġag ate
Ġag reement
bb ing
bb ets
Ġsim iles
Ġeffect ual
rem ble
ĠTy rian
Ġdangerous ly
Ġgod ly
Ġgod like
Ġchance llor
Ġda is
Ġunk nit
Ġprov ince
Ġvow ed
Ġworship ful
Ġflatter s
sh ining
Ġins pir
Ġins upp
Ġins urre
Ġsn akes
Ġsn ores
Ġforget ful
Ġforget fulness
ĠGentle woman
ict ed
Ġunw elcome
Ġunw orth
Ġexcellent ly
Ġlan k
iff s
Ġperform ed
Ġround s
Ġround ed
Ġamb les
Ġpossess es
Ġfoolish ly
Ġele cted
gl ory
uri osity
Ġblind ed
sa ving
sa fed
Ġcounter mand
Ġyear n
Ġhorn ed
ĠTroy an
Ġpain fully
asc od
Ġcred o
Ġproper ties
Ġsmo king
Ġsmo ky
Ġthro es
Ġmut ter
Ġmut ually
Ġdest ined
Ġmel odious
Ġviol ation
Ġur ch
Ġuns ay
Ġdefend ant
ĠVal er
Ġsharp ly
Ġsland erer
Ġsix ty
Ġvan ished
Ġvan ishes
Ġvan quis
Ġjoin er
Ġhun ters
Ġdelight ed
vell ing
Ġga wds
Ġref rain
RA DE
Ġkneel ing
Ġconce ited
Ġsuccess ive
Ġleg acy
Ġpet ter
Ġinv ites
Ha utboys
ys imachus
Ġequ ity
ĠSh out
Ġswift ness
Ġver iest
cul ate
Ġcunning ly
Ġinj ured
Ġeld ers
Ġembrace ment
de ad
Ġconj unct
Ġrough ly
UT E
Tr oth
eg lect
Ġcompl ot
Ġcompl ices
Ġcat ches
Ġcat alogue
Ġcontr aries
Ġrob bed
Ġbright est
Ġrevol ve
Ġrevol ting
Ġdeal ings
Ġben ison
Ġfig s
Ġpin n
Ġpin ches
Ġmaiden heads
Ġport ent
Ġport ents
Ġprotest s
Ġapproach ing
Ġsens ual
Ġdishonour able
UL PH
Ġsli pper
ĠBl ood
Ġkna veries
aunt ed
Ġcustom s
Ġwag gon
Ġprofess es
Ġprofess ions
Ġfle x
Ġbetray ed
ĠHear t
Ġod our
Ġpot tle
jo ining
Ġflat ly
Ġcounterfeit ing
Ġcounterfeit ed
Ġfruit less
Ġstart ed
Stand ing
Ġsqu ad
Ġsqu ires
Ġvent ured
Ġneighbour hood
ey e
ey es
ey ton
Ġbab oon
Ġshut s
ĠQu ar
Ġunp aid
ault s
ĠPo lack
Ġdisple ase
Ġflower y
Ġflower ing
Ġdign ified
Ġschool s
ib al
Ġlangu ages
Con vey
nat ured
Ġmain ly
Ġing red
Ġing rate
Ġtedious ness
Ġsal ut
Ġmild er
ĠHold s
Ġoutward ly
Ġdespair ing
Ġdeterm inate
Ġbuck lers
Ġhaz el
Ġhaz ards
Ġboot y
Ġnaked ness
Ġthick est
Ġlean ness
Ġprevail s
Ġpress es
Ġjoint ly
Ġapart ment
Ġgarden ers
Ġimm ured
Ġimm odest
Ġimm aculate
Ca ius
draw ing
eat en
ĠSp anish
Hold s
Ġtort ures
Ġsuspect s
ĠSen ate
rim ony
ras es
Ġpat ched
Ġpat rimony
ĠSe est
ĠSe ven
ĠSe leuc
ros y
Ġeng age
Ġinform ed
Ġisland s
Ġsuper f
Ġsav ages
Ġinfinite ly
Ġamazed ly
Ġcock le
Ġcloud ed
Ġsan guine
Ġwreck ed
ĠMarch ioness
Ġpick ing
ĠCo ll
ĠBa wd
Ġfin ished
Ġder ogate
ĠBo atswain
Ġcuckold s
Ġcuckold ly
Ġfant asies
ĠEn vy
Ġpor ch
ator ies
Ġev asion
Ġste ads
Ġstat ute
ĠKent ish
af fection
Ġtarry ing
Ġcrow d
Ġvol umes
Ġvol uble
ĠMARC ELLUS
Ġcla ps
Ġcla pper
ĠVer ily
Ġbanquet ing
Des cend
Ġscept res
ĠDen y
Ġodd ly
Ġung overn
Ġsau ced
Ġappet ites
Ġunfold ed
Ġworm wood
TEN OR
Ġstret ched
ĠCASS ANDRA
Ġplant ain
blood ed
Ġundo ing
Ġmood s
Ġinher itor
Ġflow ing
Per form
Ġdeb ase
ĠMe an
Ġexped ience
just ice
Ġdescend s
pass ion
Ġfors aken
Ġsoci eties
Ġshri eks
Ġshoot ing
Ġcreep s
Ġgoddess es
Ġbag pipe
Ġblus hed
gon et
Ġado pt
Ġaccus er
omen es
Ġbelong ing
Me an
Ġfret ful
Ġfret ting
Ġremorse ful
Ġtravell ing
Ġhelm ets
Ġbon fires
Ġbill ows
ĠBra kenbury
ĠBear ing
Ġmask ed
Ġbur gonet
ĠEm peror
Ġancest ry
Ġspurn s
Ġrust ic
ĠAthen ians
maid s
Ġnon ino
Ġnon pareil
Ġprodig y
Ġprodig ies
Ġbull s
ĠST ARVEL
Ġrat ify
Ġrat ified
Ġunm atcha
ĠRep ort
ĠRep air
Ġscru ples
Ġinstruct s
Ġir re
Ġir reg
Ġtum bling
ĠPho enix
Ġlap wing
Ġaddition s
sha pen
Ġrend ers
ĠAntip odes
Ġmisc reant
ez vous
Ġgrat itude
Ġgrat ulate
Bl ow
Ġfan gs
ĠInd ies
ĠHy dra
ĠHy rcan
Ġbru it
Ġbru ising
Ġmerc en
Ġdrunken ness
Ġdivor ced
Ġschol ars
Ġbol ts
Ġdistress ful
gentle woman
reg ious
Ġfever ous
Ġstum bled
ĠGhost s
Ġamend ed
Ġamend ment
Ġhy perbol
Ġpull s
Ġeverl astingly
thought s
Ġspect ators
ĠFL UTE
Ġruff le
Ġcoxcom bs
Ġtax ation
Ġcraft s
Ġprophes ied
Ġvarlet s
Ġclerk ly
Bear ing
know ing
Ġwrink le
Ġclean ly
Ġtim ber
Ġbul wark
Ġpul ing
Ġaccom pt
Ġconceal ment
Ġdecay ed
Hence forth
Ġmat ches
Ġmat tock
Ġped igree
ĠSm all
bel oved
pur pose
Ġhaw king
ific ation
Ġshout ing
Ġroof s
Ġcozen ing
Ġcozen age
Ġconvenient ly
Rep air
Ġperd y
Ġdiff ic
Ġspark le
ĠPhil ario
Ġcontain ing
Ġconspir ators
Ġsuffice th
Ġskull s
Ġvictor ies
Ġchamp ions
Ġagree ing
Ġbeaut ify
Ġpolitic ian
Ġliver ies
ĠBlack heath
Ġbrand ish
Ġbelie ves
Ġbelie ving
Ġimped iments
Ġaffright s
Ġprophet ess
Ġacknow ledged
Ġsequ ence
Ġsequ ester
Ġpos ition
Ġpos set
Ġdiet ed
Ġextreme ly
Ġesp ouse
Gra cious
Ġenri ched
Ġplent iful
Im primis
Ġhack ed
ĠSw instead
ĠPAND ULPH
ĠDE CIUS
Ġunman ly
Ġundert ook
Ġdefect ive
Ġattain der
ĠLOV E
char ge
ura lly
Ġtea chest
Ġmuff ler
ann ibal
ĠBE AU
Ġdevour ing
Ġbutter flies
ĠVOL TIMAND
scap es
ĠTha liard
ĠLea nder
Ġdiso bey
Ġdiso bedient
Ġmor ris
Ġwhet stone
Ġscant ed
Ġincon stancy
Ġprett ily
ĠWh itmore
Ġstag gers
Ġspar rows
Ġblank et
abl ished
Ġfathom s
Ġdol our
Ġdol ours
Ġsear ched
Ġleather n
Ġpert urb
Ġbuzz ing
ĠAdv ance
ĠAdv ise
Ġenfranch ise
Ġeloqu ent
Ġaut hent
Ġfre qu
Ġgains ay
Ġdole ful
ĠCourt ezan
ifer ous
ĠPed ro
Ġadul ter
Ġrav in
Ġharlot ry
Ġconsist s
Ġconsist ory
Ġigno bly
ĠGonz ago
Ch rist
Ġfulf il
Ġthigh s
ĠGa olers
Ġcompet itor
Ġescap es
Cor rupt
gor as
Ġdit ty
Ġdul ness
Ġcard inals
Ġmeek ness
ĠSC ROOP
ĠBour bon
Ġenchan ted
Ġabund ant
Ġtemperate ly
Ġmete or
Ġbaw cock
Ġsurm ise
ĠSyracus a
ĠParthi an
ĠChe erly
Ġabst inence
Ġlac keys
Ġinsinu ating
Ġfet ches
Ġthwart ed
Ġpoo rer
ĠCar rier
Ġconsec rated
Ġuncon stant
Ġjar ring
Ġindent ure
Ġindent ures
Ġconsum mate
Ġdistill ed
ĠXI I
Ġmurm uring
Ġgam ut
ste ward
Ġsepar ated
Ġtilt ing
Ġdon ation
Ġlux urious
Ġnurs ing
Ġbeck ons
Ġbellow s
ĠHUM PHREY
Ġspec ify
ĠFR ENCH
Ġvac ancy
ĠPe ople
ĠPha ethon
ĠProm ethe
Ġuphold s
ĠDest inies
Ġtrad ers
Ġtrun ks
Ġroll s
Ġscra ps
OLY TA
Ġmedit ations
Ġmemor able
Ġtumult uous
break er
tr ans
Ġgeld ed
ĠLod ov
Ġpreposter ously
Ġhunts man
Ġhunts men
ĠCob ham
tter ing
Ġire ful
Ġster ile
Ġfel on
Ġdwar f
Ġniggard ly
Ġwithhold s
ĠEL BOW
ĠCris pin
Ġswe ats
Ġcontri ver
Ġendow ments
Ġundes erved
Ġintercept ed
Ġsinew y
ĠPHIL IP
Supp ose
bod ing
gr ound
ĠMel un
Ġwasp ish
Ġune qual
Ġchoo sing
Cass io
Sil ence
tha goras
Ġfitt est
ĠAf ric
ĠBull en
Ġnost ril
Ġanat om
Ġanat omy
Ġlog ger
ĠField s
Ġconject ure
Ġrig orous
Ġgrate ful
Ġcoven ant
Ġcoven ants
Ġreco il
Ġdaunt less
Ġbasilis k
Ġbasilis ks
ibel an
Ġmultip lying
Dem etrius
Ġva ward
sil ver
Ġtang le
Ġapr on
Ġpud ding
Ġhero ical
Ġinve terate
ĠSem pronius
ĠCON RADE
Ġlos ers
ĠLi bya
Ġencom pass
Ġhogs head
Ġmispr ision
Ġmiscon stru
Ġinterchan gea
Ġuntr uth
ĠAdrian a
ĠAEm ilius
ĠPhryg ian
double t
whe els
Ġcres cent
Ġlep rosy
Ġnin eteen
Ġpon iards
Ġpau ca
Ġinvoc ation
Ġhagg ard
ĠSard is
Ġspright ly
Ġvag abond
ĠDor icles
ĠDENN Y
Ġlethar gy
Ġbrist le
Ġdisfig ure
Ġabj ure
Ġadult eress
Ġpassen gers
Ġsentine ls
Ġmetap hor
Ġdispro portion
Ġrebu kes
Ġmedd ling
Ġremembran ces
Ġconjo in
Ġconjur ation
Ġunhand some
Ġimperfection s
ĠSpart a
Ġsuperstit ious
Ġdimin ut
Ġeclip se
Sold iers
je ctions
Ġsou rest
Ġhoof s
ĠHell espon
ĠMas ham
ĠMus co
ĠGard iner
ĠGovern or
sum mer
Ġturb ul
Ġmoult en
Ġbust le
Ġfli ers
Ġdau b
Ġcip her
Ġhild ing
Ġph rases
ĠAB HORS
Ġump ire
ĠScy thi
ĠSERV ILIUS
Ġrevers ion
ĠBrand on
Ġdexter ity
ĠOt t
ĠFOR T
Ġvult ure
Ġupl ifted
Ġsauc iness
Ġprosec ute
Ġquir ks
Ġsched ule
Ġappli ance
Ġconfir ms
Ġdiscours es
ĠProtect or
Ġunthank fulness
Ġtransl ated
gniz ance
Ġtrop hies
Ġhomic ide
Ġperfid ious
ĠSmith field
Ġhabil iments
Ġlarg ess
Ġshamef ully
maj esty
ĠCrisp ian
ĠYorks hire
Ġpredecess ors
Ġsout hern
ĠGuards man
ictor ious
Ġalac rity
Ġmand ate
Ġferv or
Ġfrust rate
Ġdom ine
Ġcive t
Ġtootha che
Ġincom parable
Ġinev itable
Ġmyster ies
leter re
ĠTem ple
ĠTere us
ĠAUST RIA
ĠAMIEN S
Ġforci bly
ĠWitten berg
Ġlicent ious
ĠHallow mas
ĠHIPP OLYTA
Ġdeci pher
ĠEuri phile
ĠEUPH RONIUS
ĠCROM WELL
Ġspong y
ĠFLE ANCE
ĠFrog more
Ġvic ar
Ġvener able
ĠPET O
ĠPatri ck
ĠGAL LUS
Ġcomfor ter
ĠExecution ers
Ġunavo ided
Ġsaff ron
Ġchame leon
ĠJephtha h
Ġscabb ard
Ġcrotche ts
Ġcormor ant
ĠFloriz el
Ġunworth iness
ĠSeleuc us
ĠSTARVEL ING
Ġunmatcha ble
Ġauthent ic
ĠLodov ico
Ġinterchangea bly
ĠHellespon t
ĠABHORS ON
' :
A vaunt
B o
B ound
B ened
B anish
C he
C reat
C AN
C arry
D uke
D ian
D irect
D arest
F ast
F ire
F riends
G ot
G rand
H ar
H oly
H olla
I nd
I ng
I ago
J ul
J esu
K ate
K ING
K athar
K nows
L ess
L ittle
M on
M ock
M onsieur
N er
P e
P le
P hi
P ity
P eter
P uts
P lead
R ef
R uns
S ur
S oul
S erv
S top
T ears
T aking
T ranio
W hip
W ork
W ash
b ea
b orrow
b east
b read
c am
c row
c ry
d ish
d uck
d eep
f our
g arden
h urt
j ealous
k nock
k issing
l im
l ower
m eet
m ethinks
m asters
m outhed
n urse
o bs
p ot
r us
r uns
s ake
s omething
v ir
v iol
w ol
w hom
w hose
w inds
w rite
w rong
Ġ 2
Ġ :
Ġt ish
he ed
he ir
Ġs ighed
Ġm ason
Ġw ilfully
Ġb ene
is le
er m
Ġf ust
Ġf ighter
Ġd uring
Ġc ad
Ġc uriosity
Ġl aud
Ġy ards
Ġn aming
ar med
Ġp anc
Ġp iety
Ġto ast
st ar
st ruction
at tered
Ġin ex
le ft
le aves
ĠT aking
ĠT ucket
ĠA bs
ĠA unchient
ut ter
ut ting
ut ted
ch os
ĠW oo
ĠW hip
ĠW ork
al one
ri ages
ĠS eeming
ver ted
ĠH ush
ĠH ung
ĠH usband
ĠH annibal
ĠB as
ĠB ound
ĠB lessed
Ġde ities
ĠE mb
hi bition
ĠC her
ĠC ho
ĠM end
ĠM ardian
ĠM ordake
am iliar
Ġse mblable
ĠO v
ĠO bserve
ĠF ate
ĠF ury
ĠL ess
ĠL ife
ĠL ittle
ĠL echery
ĠL ysimachus
Ġfa ble
Ġkn its
han g
ear th
ĠP ish
ĠP ages
ĠP uts
ĠP INDARUS
ĠD et
ĠD ay
ĠD ig
ĠD rown
ĠD ew
ĠD irectly
ĠD arest
ĠN ort
em an
em pl
ul ph
qu ick
ĠR ing
ĠR ose
ĠR ises
ĠR uns
ĠY on
fe e
ink le
ĠEx pect
ĠEx ton
ol ate
Ġbr is
ĠTh rust
ĠTh rowing
ĠTh oughts
ig al
Ġpo ets
Th rust
Th rowing
Th oughts
Ġex alt
au f
Ġab hors
Ġro ast
ĠJ udge
ĠFor ces
Ġle op
ount ed
ĠV ar
ĠV ex
Ġri b
Ġsc urril
Ġworld s
ĠBe ating
ĠHow e
Ġim posed
ĠIn v
que en
ĠSo on
ĠSo oth
me ant
me asure
ne ck
How e
Ġind isc
Ġsle ek
ĠWe ep
int ell
ĠAn cient
har m
Ġserv itude
Ġrest ing
Ġrest itution
Ġcur ate
Ġvill ages
ĠSt ain
ĠSt arve
ĠAN TENOR
Where on
cl ined
ĠDo ing
ĠRe gent
Ġjust ified
ail or
Ġhelp ed
gu iled
ĠAl ice
Ġmaj or
vers ary
St oop
Do ing
ran k
Ġcomfort ing
Ġfur thest
Ġcr utches
Ġdef ied
ĠCass ibelan
Ġsil ks
Ġcar pet
ĠOur selves
no inted
Ġmin ority
so ci
az e
pr ithee
Our selves
vo ked
Ġhot ly
ĠCh urch
Ġexp ound
Ġappro ves
Ġconst rained
ip ho
ĠFl ute
Ġinter lude
Ġext rav
Ġpriv ily
con f
ĠLu cy
under stand
Ġfing ering
ĠSay s
ĠCom p
ĠCom mon
ĠHa ppily
right s
ĠPl utus
ĠSee king
Ġprov idence
Look s
Ġembra ces
ĠSc arce
Ġblind ness
sa w
Ġcounter s
Ġstar ing
sem bling
Ġgrand mother
cha se
ĠLove l
Ġproper ly
Say s
ker chief
Ġmut inies
read ing
ĠSil ver
Ġinv iting
Ġinv incible
Ġcontin ued
Ġmid way
ĠSh ort
See king
ĠCon firm
ĠCon rade
go ing
Ġcat tle
Ġport end
ĠBl ush
Ġcustom ers
Ġwag ging
Ġperfect ly
Pr inces
heart s
mo on
ĠAb hor
Ġconsider ing
Ġkindness es
Ġvict u
ĠDis miss
ĠCount ry
ĠCle omenes
Con firm
Pro d
Pro v
Pro sper
ĠHold ing
Ġextrem ities
Ġborrow s
Ġunkind est
ĠDem and
Hear d
bear ds
ĠTH E
Ġplead ing
Hold ing
bus iness
Dis dain
Ġvar ied
Ġpat ent
Ġeng ines
Ġpick le
ĠRem uneration
Ġpor p
dis posed
Des ire
Ġexceed ingly
ĠPut ting
ĠKeep s
Ġassist ant
des erving
Ġstab bed
Ġprick ing
Ġshift ed
ĠLong er
Pl antagenet
Ġmedic ines
ĠLo vers
Ne xt
ĠEm brace
Rem ain
udd en
Put ting
Ġwail ing
ĠRep ent
cra m
Ġbarbar ism
Keep s
ĠTurn s
Ġrend ezvous
ĠAcc ursed
Ġwhit eness
ĠLear n
Turn s
ĠCorn ets
ĠCry ing
ĠCons pir
ĠFL AMINIUS
Ġmanif ested
Acc ursed
Ġbere ave
ĠWor m
Ġexerc ises
Long er
Ġobtain ed
ĠNer o
Ġdiff ers
ĠSleep ing
Cry ing
ĠSure ly
Ġshirt s
Ġmajest ic
Im mediately
Ġcurious ly
Ġlame ly
ĠRa pe
Ġwring ing
ĠIm mediately
Mar cius
Res olve
firm ed
ontin ued
ontin ency
Ġstag ger
Ġkern el
ĠHE CATE
Ġeff usion
ĠPresent ly
bre ach
bre aking
Ġcri pple
ĠHum bly
ĠBest ow
ĠNew s
call ed
ĠOver done
Ġsol id
ĠAEd iles
New s
fool ish
Ġsepar ation
ĠFRANCIS CO
ĠKn ows
Ġunclean ly
ĠGrand am
Ġadvertis ement
spir it
Best ow
cond uct
gr ass
Ġtu ft
Ġcru elly
ĠHop kins
ĠPur sue
Ġharp y
Ġchoo ses
Ġintr usion
Ġdishon esty
sla ughter
ĠChan ge
Em brace
Hum bly
Pur sue
Su ccess
Suff olk
ĠSu ccess
tri ck
crown ed
mel ancholy
Ġpea cock
Ġslut tish
Ġimpossib ility
bur nt
ĠAbra ham
Ġforn ication
ĠPy thagoras
Ġflour ishes
Ġswagger ing
Chan ge
Dr ink
Rosal ind
ĠDat chet
Pet ruchio
hun gry
Ġstou p
ĠGal en
Ġrar ity
Ġgreed iness
Ġcarbon ado
Ġunsk ilful
ĠBenedict us
Laun celot
Af fection
Phi lip
. ,
A Y
A llow
A EL
A lex
A cquaint
B ad
B ind
B ack
B ON
B ade
B UR
B iron
B RA
B RAS
C o
C are
C ried
C ET
C lock
C uts
D ue
D ark
D eep
D urst
D OWER
D AIN
D ouble
D ream
D rawn
E s
E st
E UC
E ntreat
F ight
F eed
F led
G rant
H ot
H aste
H oratio
H ortensio
H orns
H ILL
I ARD
I PH
I FF
I mm
J O
J oy
J ew
K ent
L ent
L ear
L ose
L ack
L ament
L aid
L orenzo
L ANT
M et
M ong
M AR
M oney
M erc
M arried
M erely
M istake
N ight
N CAN
O BUS
P less
P ron
P yramus
P INGHAM
P raise
P ersuade
R ed
R ide
R ough
R IUS
R EL
R IC
R AT
R omans
R PINGHAM
S l
S ix
S ub
S pare
S earch
T end
T ween
T EM
T reason
T ongue
U nd
U rge
V ia
V ERD
V illains
W ent
W ind
W ife
W idow
a ire
a ress
a ctions
b ro
b are
b ove
b ount
b ew
b els
b ush
b inger
b idden
c ot
c ke
c ord
c aster
c atch
c ried
c ousin
c up
c eness
c arus
c ensed
d n
d y
d ear
d ers
d ost
d eed
d ef
d ew
d iction
d inner
e b
f ar
f ain
f ive
f ought
f ied
f east
f used
f raught
f ashion
g ies
g ree
g ings
g ne
g eth
g ates
g ross
g inal
g orge
g rowing
g atories
h u
h ort
h ound
h ings
h ours
h oop
h undred
i work
i athan
i avel
j u
j or
j our
j ury
j oint
k illing
l en
l oo
l ist
l ife
l uce
l adies
m ers
m akes
m ates
m usic
m aking
m itted
m itting
n ear
n ings
n eed
n night
n ker
n na
o om
o ci
p a
p ound
p ice
p ond
p ains
p ute
p ainted
p ointed
p aced
p romise
r ise
r ings
s ent
s ult
s pect
s ized
s ric
s ometimes
t im
t ro
t els
t hens
t ruly
t sey
t owards
u an
u ly
u led
u its
u ities
v ill
v ies
v all
v ings
v ors
v ory
w ent
w ig
w arm
w hole
y an
y the
y na
y nna
z ine
z water
Ġ ]
Ġt i
Ġt out
Ġt een
Ġt ugg
Ġt iring
Ġt inder
he w
he reat
he ims
Ġa z
Ġa er
Ġa ce
Ġa gues
Ġa rose
Ġa lder
Ġa lab
ou ple
Ġs i
Ġs am
Ġs ci
Ġs akes
Ġs ati
Ġs ift
Ġs ip
Ġm ows
Ġm ush
Ġm alm
Ġm asc
Ġm urk
Ġm athe
Ġm ixture
in n
in qu
in que
in ny
in ado
Ġw ider
Ġw reathed
re ar
re ast
re ants
re vere
re ments
re ams
ha zar
nd om
Ġthe oric
Ġb om
Ġb ans
Ġb iss
Ġb led
Ġb ats
Ġb itt
Ġb ays
Ġb inds
Ġb orough
Ġb itch
Ġb unch
Ġb ien
Ġb acon
is ly
is ions
is hest
is eration
is hable
er come
er vers
er heard
er board
er grown
or ld
or ation
or ment
or able
or ical
or seless
Ġf r
Ġf ay
Ġf ad
Ġf ost
Ġf ring
Ġf ined
Ġf ang
Ġf ug
Ġf reck
Ġf ading
Ġf owls
Ġf usty
it ious
it ied
it ory
Ġo ven
Ġo ars
Ġo pul
Ġo tter
Ġd ing
Ġd ad
Ġd out
Ġd uch
Ġd ough
Ġd ia
Ġd ump
Ġd ale
Ġc e
Ġc ind
Ġc ite
Ġc ister
Ġc ement
Ġc ertes
Ġc eases
Ġc eased
Ġc ooled
es us
es per
es seth
ĠI DEN
ĠI mm
ĠI carus
Ġl unes
Ġl oop
Ġl ug
Ġl isp
Ġn ill
Ġn ets
Ġn uns
Ġn uts
Ġn omin
Ġn ameless
on ians
en as
en um
en ances
Ġh ing
Ġh ight
Ġh ull
Ġh undreds
ar ter
ar ling
ar bon
ar nish
Ġyou nker
Ġp s
Ġp om
Ġp ome
Ġp am
Ġp ion
Ġp ink
Ġp orn
Ġp ew
Ġp ia
Ġp int
Ġp ump
Ġp ants
Ġp ates
Ġp ours
Ġp ork
Ġp oop
Ġp iled
Ġp ared
Ġp hant
Ġp add
Ġto ll
Ġto asted
Ġto ttering
hat ch
Ġhe nt
Ġhe ifer
ot ing
ot us
ot hed
an th
an ery
an ched
Ġg at
Ġg ad
Ġg est
Ġg ory
Ġg ale
Ġg aming
Ġg ules
Ġg ender
ow ess
ow der
om ies
om bed
om ites
st ra
st rain
st range
at a
at al
at ine
at ures
at ical
Ġbe ld
Ġbe ak
Ġbe comed
Ġin se
Ġin und
se us
se mbles
ce ase
Ġha les
Ġha ms
Ġha mm
le ven
le my
ĠT a
ĠT u
ĠT im
ĠT ours
ĠT reason
ĠT YR
ĠT iger
ĠT ULLUS
et ed
ĠA u
ĠA llow
ĠA gue
ĠA cher
ĠA ene
ĠA poll
ĠA cquaint
ĠA uthority
ut ors
ut ton
Ġme ats
im y
im ation
im itar
ir o
ir ation
ir cle
ir rel
ir amis
ch ieve
Ġnot ing
Ġnot ion
Ġnot hings
gh ter
ill ed
ill ius
Ġthat ch
Ġe ll
Ġe pic
Ġe aves
Ġfor cing
our ing
our sed
Ġwe lf
Ġwe alt
Ġit eration
ad en
ad uced
ĠW ent
ĠW ise
ĠW rench
ĠW ye
ĠW ILLO
as us
as hy
as ps
as perate
as ping
id able
id ian
her ical
Ġst an
Ġst ow
Ġst akes
Ġst ile
Ġst eter
Ġst ench
Ġst anch
ri ls
ri can
ĠS ag
ĠS OL
ĠS EL
ĠS ub
ĠS AND
ĠS ax
ĠS EY
ĠS itting
ĠS icy
ĠS LY
ĠS andal
ĠS elf
ĠS ummon
ĠS AY
Ġre ed
Ġre el
Ġre els
Ġre eds
Ġre verse
Ġre eling
Ġre aches
Ġre formed
Ġre voke
Ġre sembles
Ġso p
Ġso les
Ġso dden
Ġso rel
Ġso othsayer
Ġon ion
Ġon set
Ġli z
Ġli ed
Ġli br
Ġli ghter
Ġas p
Ġas ks
ur ged
ver il
ĠH ot
ĠH ood
ĠH oll
ĠH esper
ĠB et
ĠB ind
ĠB ER
ĠB uck
ĠB ade
Ġde mer
Ġde mes
Ġde anery
ĠE st
ĠE lt
ĠE ntreat
ĠE RPINGHAM
ro int
ro ying
ro phe
ro asted
ain ter
ain ly
hi c
hi bit
us est
ĠC au
ĠC hes
ĠC IC
ĠC over
ĠC amp
ĠC UR
ĠC ros
ĠC uts
ĠC elia
ĠC rab
ĠC ANT
ĠC uckoo
Ġsha ck
Ġsha ring
ck en
ĠM am
ĠM ul
ĠM um
ĠM ass
ĠM ach
ĠM EL
ĠM ET
ĠM ab
ĠM oney
ĠM AM
ĠM ICH
ĠM odest
ĠM erely
ĠM ah
ĠM istake
est ry
est ration
am o
am ant
am sel
am age
am orp
ea f
ea led
ea ping
ess ible
Ġse am
Ġno is
Ġno ont
Ġan ne
Ġan gling
un ches
un ities
and le
ge ia
Ġlo it
Ġlo ser
Ġlo lling
Ġlo bby
Ġall ows
if s
ĠO sw
ĠO VERD
ĠThe ss
th read
Ġsp ice
Ġsp ru
Ġsp ends
Ġsp aring
Ġsp outs
Ġsp ares
Ġsp awn
Ġsp herical
Ġsu ps
Ġsu lly
ell s
ĠF led
ĠF AST
ĠF uries
ĠF aints
ĠF ellows
ĠF oh
il n
il bert
ĠL ose
ĠL oud
ĠL ament
Ġfa ul
Ġkn oll
Ġkn og
ct s
Ġv ines
Ġv aul
Ġv icer
Ġv ital
Ġv itae
Ġv omit
ho les
ight on
rom ache
ĠP at
ĠP ay
ĠP ic
ĠP el
ĠP ig
ĠP ont
ĠP ap
ĠP ause
ĠP ersuade
ĠP allas
ĠP LANT
ĠP ainter
ĠG r
ĠG LEN
ĠG ilbert
ast rophe
Ġman or
Ġman es
Ġman ors
Ġman acle
Ġman nish
Ġne got
ant o
art s
art ing
art eer
Ġat omies
ust ers
Ġam bling
Ġam ply
Ġup roar
Ġcom eth
out ez
ĠD ue
ĠD one
ĠD ance
ĠD ark
ĠD urst
ĠD aph
ĠD amn
ĠD avy
ĠD rawn
ĠN ine
ĠN em
ĠN inny
ĠN arbon
Ġgood liest
Ġpr un
Ġpr imer
Ġpr atest
Ġpr owess
Ġcon fection
Ġshe l
Ġshe ar
Ġshe dd
ven er
em ning
Ġr ow
Ġr udd
Ġr ye
ong ing
ul k
ul ine
ers ha
ers well
Ġtr ots
nter pret
Ġlove th
Ġthere at
Ġthere with
Ġthere unto
um ptuous
Ġwas ps
Ġbl ades
Ġbl otted
Ġbl ustering
Ġbl adders
Ġbl oom
ĠR ide
ĠR ough
ĠR oy
ĠR AM
ĠR ago
ĠR apine
ĠR heims
ic ated
ic ament
ry ing
Ġsw all
Ġsw oln
Ġcan v
Ġcan cel
Ġcan kers
Ġca ud
Ġca sed
Ġca vern
Ġca user
Ġhat eth
Ġor ient
Ġor acles
Ġar d
Ġar chers
Ġar guing
Ġhere about
Ġus est
Ġus hered
ink les
ate ly
la bour
ĠTo ad
el ier
ĠEx cuse
ort able
ol t
ol fe
Ġbr ay
Ġbr ats
Ġbr ush
ig en
ig ested
Ġun res
Ġun gu
Ġun rel
Ġun ited
Ġun bar
Ġun safe
Ġun apt
Ġun acquainted
Ġun braced
Ġun button
Ġun savoury
Ġun necessary
od s
od ities
Ġj aded
Ġj elly
Ġmad ded
Ġen for
Ġen gl
Ġen amour
Ġen fold
Ġen vied
Ġen fee
ance l
Ġsa lly
Ġsa cks
Ġsa pling
Ġdis sever
Ġdis robe
Ġdis furnish
Ġdis orders
Ġout right
Ġout laws
Ġmust ers
ere ts
ĠBut ts
ice th
Ġpro se
Ġpro li
pe ed
pe ering
pe cial
ence d
pt ure
Ġhand ling
Ġhand iwork
Ġpo ised
Ġheart ed
Th inking
Ġgra ff
Ġgra ft
Ġgra ined
ire ction
Ġex ult
Ġex action
Ġex clamation
Ġex igent
Ġex actions
Ġex hort
Ġex asperate
au ld
Ġwho e
Ġwho ever
Ġwho soever
Ġoff al
Ġal man
Ġal che
Ġal ias
Ġal beit
Ġal ighted
Ġhow ever
Ġsome where
Ġthink ings
ff in
Ġqu i
Ġqu and
Ġqu ire
Ġqu int
Ġqu arry
Ġqu aff
Ġqu alm
ist rust
ist ingu
Ġfather ly
ass us
ough by
Ġfo i
Ġfo gs
Ġfo gg
Ġfo ams
Ġfo emen
Ġfri vol
Ġab od
Ġab rid
Ġab atement
Ġab reast
ud ed
Ġpl ies
Ġpl aint
Ġpl umed
Ġcha os
Ġcha plain
Ġmar cheth
Ġmar riages
Ġmar jor
Ġro e
Ġro pes
Ġro lling
Ġtell us
Ġwhere as
ave z
here after
ĠJ oy
ĠJ une
ĠJ ule
ĠJ amy
ĠJ uly
ĠJ arteer
Ġfriend ed
ĠHe y
ĠHe brew
ĠFor um
ĠFor rest
ĠFor sooth
Ġmen ace
Ġdes iring
Ġlea ps
Ġlea ping
per y
per ing
per ance
per sed
per fect
Ġle as
Ġle ash
Ġle vell
ber us
ress ing
Ġear liest
Ġfl o
Ġfl ush
Ġpart i
Ġpart aker
Ġpart icip
io la
io lable
to cks
For sooth
ĠAs h
ĠAs ia
ĠAs cend
Ġfear less
ag io
ĠV ir
ĠV ere
ĠV AU
ĠV illains
ĠV irginity
ĠV iola
Ġfair ness
Ġstr ides
Ġstr ays
Ġcomm iss
Ġcomm une
Ġcomm itting
Ġri ft
Ġri band
Ġwar rants
Ġson t
Ġper sec
Ġsc an
Ġsc ent
Ġsc um
Ġsc ath
Ġsc ap
Ġsc aff
Ġsc rib
Ġsc athe
Ġsc orp
Ġsc ann
Ġsc aled
Ġsc apes
Ġsc orch
Ġsc ythe
Ġsc imitar
Ġsc auld
Ġad joining
Ġad amant
IN BRAS
Ġra ve
Ġra vel
Ġra ndom
man nerly
Ġwh iter
Ġsweet heart
ER BURY
Ġpre ys
Ġapp ert
Ġapp each
Ġapp lied
Ġla ps
Ġla zar
Ġwit less
Ġma ze
land er
ĠBe hind
ĠBe adle
Ġbrother ly
ple ase
Ġcl ustering
sw ord
sw allow
sw oln
Ġstand ards
Ġname ly
Ġarm ipotent
Ġpres sed
Ġpres cience
Ġpres cript
ĠIn form
ĠIn jurious
Ġpla ckets
Ġpla gued
Ġpla usive
Ġcont est
que ath
AN CH
ĠNo ise
ĠNo bles
Ġhar ts
Ġhar bours
Ġhar lots
Ġhar binger
atter ing
os kos
aint ies
Ġrem it
Ġrem ark
Ġrem ission
Ġcomp ly
Ġcomp ared
Ġcomp romise
Ġcomp osure
Ġmaster ly
In jurious
ĠSo phy
Ġkeep est
ĠMar ried
ĠMar quis
Ġnew ness
Ġrep resent
Ġbest ir
Ġbest rew
me aning
ĠIs le
ĠIs bel
Ġend amage
Ġmer itor
OL FE
ne z
Ġgl ances
Ġgl owing
ĠWho e
Ġput tock
Ġlive long
ĠU r
ĠU ng
ĠU rge
Ġbra vest
ier cing
Ġind u
Ġnat urally
Ġset ter
Ġset tle
No ise
Ġque asy
Ex c
Ex cuse
Ġdr oops
ret s
ret ary
ret ions
Ġfirst lings
Ġgr isly
be amed
be ams
Ġco vers
Ġco ining
Ġco gging
Ġco gnizance
ons o
ons ider
ons hire
alk in
Ġpa h
Ġpa p
Ġpa w
Ġpa ced
ĠAn chises
ield y
Ġtra m
har k
Ġcons on
Ġcons ign
Ġcons erves
Ġel f
Ġel bows
Ġconf ronted
ile th
Ġserv est
Ġserv itor
we yan
Ġgu iding
ru ps
ru pter
Ġrest ed
Ġrest eth
Ġrest rained
Ġtri pp
Ġtri als
Ġtri pped
ins men
Ġplay fellows
ilt ies
Ġch ir
Ġpass port
Ġpass ado
Ġmind ing
Ġwoman ly
Ġkind est
Ġanswer able
Ġres ide
Ġres iding
Ġgi ver
Ġgi psy
Ġgri pes
Ġchar ters
Ġmean ings
Ġthr ill
Ġpe pper
Ġpe bble
Ġpe ascod
Ġforth coming
Ġdra ch
Ġdra gging
Ġcur d
Ġcur l
Ġcur ds
ĠHere in
Ġmeet ings
Ġneed ed
Ġneed les
Ġche veril
Ġcrown er
ens ive
ens ation
asure d
Ġchan t
Ġchan ts
Ġback ing
ĠSt rong
ĠSt riking
Ġwrong er
Ġhusband ed
Ġret ort
Ġret ention
ix ing
Ġacc um
Ġacc ost
Ġacc urst
Ġhum s
Ġhum bler
Ġimp awn
Ġover whelm
Ġover peer
Ġbod kin
Ġsub stantial
Ġsub missive
Ġhel ms
Ġbreat her
Ġdou bling
ĠDo g
Ġass ailed
Ġass oci
Ġhence forward
Ġsl ug
Ġsl ugg
ĠRe ceived
ĠRe yna
Ġpra ins
Ġdisc olour
Ġdisc retions
Ġi bat
Ġi vory
Ġthank ings
Ġthank less
AL IARD
Ġstre ak
Ġstre aks
Ġsure r
ĠGo ing
Ġbed ded
Ġbed lam
Ġmis like
Ġmis lead
Ġmis gives
Ġmis fortunes
Ġjust icer
Ġlaw fully
Ġsent entious
Ġbus hes
Ġuse th
Ġdi able
Ġmo vest
ĠGood w
Ġwel comed
Ġban ns
ĠHer self
ĠNor man
ĠNor weyan
Ġhelp less
Ġbu g
Ġbu z
Ġbu gs
Ġbu bbles
ĠAl oud
ĠAl mighty
Ġhang ers
Ġhang ings
Re ceived
Ġhapp ened
Ġhapp iest
Ġstri pp
Ġstri king
Ġstri cken
Ġsun k
Ġsun ny
Ġsun set
Ġsun burnt
pen sed
ĠWill oughby
Ġenter pr
Ġbo b
Ġbo gs
Ġinst all
ild s
pl ight
ARD O
Ġfault less
ST ANCE
Ġfire d
ac ies
ac ulous
Ġpal y
Ġpal er
Ġpal es
Ġpal sy
Ġjoy fully
Ġill usion
Ġrun away
Ġrun agate
Ġrun aways
Ġreturn ing
St eal
St rong
St orm
St raight
Ġsla ugh
iz es
iz ing
Ġspo ons
Ġspo kes
Ġspo kest
Ġprom otion
Ġprom iseth
Ġprom otions
itt i
itt ish
itt ary
Ġden ier
Ġstra nd
com b
com mand
Ġsen is
Ġsen ator
Ġhard iment
ran gers
ran gle
ift on
Ġcr ad
Ġcr ouch
Ġcr itic
Ġcr isp
Not e
Ġaw aking
op a
op ilius
Ġmet als
Ġdef ace
Ġdef low
Ġdef unct
Ġdef lower
Ġsupp oses
Ġcra ving
Ġcra mp
by l
ĠPr on
Ġfore ver
Ġfore war
Ġfore told
chan ged
chan ging
Ġwork men
Ġmark ets
Ġsight less
Ġwear isome
hard y
Ġbri bes
Ġsuff ocate
Ġbound ed
Ġfurther ance
Ġfurther more
xt us
Ġwat ched
ĠANTI GON
Ġtend ance
mer cies
Ġbro om
Ġdam m
Ġdam sel
Ġdam age
cess ity
Ġinf used
Ġdream er
Ġcar n
Ġcar ters
Ġcar ping
Ġcar nal
Ġcar ouses
Ġcar oused
Ġint imate
ĠOur self
Ġsad der
Ġba its
Ġlear nt
Ġwo ven
Ġwin ning
Ġwin now
Ġcold est
Ġgrave l
Ġter ra
Ġcommon ly
Ġsk ills
Ġsk ittish
ub stantial
Ġaff ined
Ġaff ability
Ġvi als
Ġvi pers
!' --'
Ġfit chew
Ġwa res
Ġwa vering
Ġcut purse
Ġrec laim
Ġsit u
Ġdisp ut
Ġdisp rove
Ġloved st
Ġmin x
Ġmin eral
Ġpar ings
so ft
Ġbar n
Ġbar ric
ec ost
ĠWarwick shire
Ġremember ing
pr ings
Tw enty
Ġcor res
Ġcol ic
Ġcol ts
Ġgar rison
Ġeat er
Ġperson age
Ġperson ally
Ġdeep s
Ġinc ertain
Ġinc ident
Ġinc urable
Ġinc arn
Ġinc ontinency
Ġsign ified
Ġsign ories
Ġsign iors
bra cing
Ġsum mit
Ġconfess ing
Ġwoo llen
Ġest ablished
Ġvis its
Ġvis ions
Ġprot ract
Ġdiv ulged
Ġdiv isions
Ġord ered
Ġdog g
Ġatt est
Ġatt ires
Ġatt ainted
ph s
Ġcreat ing
Ġblack est
Ġdev ours
Ġburn ed
Ġsur cease
vo iced
Ġred uce
Ġred oubled
Ġshort ens
Ġspeed ing
Ġspeed iest
ĠCl ock
ĠCl erk
ĠCl ifton
Ġthri ves
ĠCh oose
Ġsat ire
Ġexp ul
Ġexp ire
Ġexp iration
Ġweak en
Ġweak ly
Ġappro acheth
