{"<pad>":0,"<unk>":1,"<s>":2,"</s>":3,"<mask>":4,"!":5,"\"":6,"#":7,"$":8,"%":9,"&":10,"'":11,"(":12,")":13,"*":14,"+":15,",":16,"-":17,".":18,"/":19,"0":20,"1":21,"2":22,"3":23,"4":24,"5":25,"6":26,"7":27,"8":28,"9":29,":":30,";":31,"<":32,"=":33,">":34,"?":35,"@":36,"A":37,"B":38,"C":39,"D":40,"E":41,"F":42,"G":43,"H":44,"I":45,"J":46,"K":47,"L":48,"M":49,"N":50,"O":51,"P":52,"Q":53,"R":54,"S":55,"T":56,"U":57,"V":58,"W":59,"X":60,"Y":61,"Z":62,"[":63,"\\":64,"]":65,"^":66,"_":67,"`":68,"a":69,"b":70,"c":71,"d":72,"e":73,"f":74,"g":75,"h":76,"i":77,"j":78,"k":79,"l":80,"m":81,"n":82,"o":83,"p":84,"q":85,"r":86,"s":87,"t":88,"u":89,"v":90,"w":91,"x":92,"y":93,"z":94,"{":95,"|":96,"}":97,"~":98,"¡":99,"¢":100,"£":101,"¤":102,"¥":103,"¦":104,"§":105,"¨":106,"©":107,"ª":108,"«":109,"¬":110,"®":111,"¯":112,"°":113,"±":114,"²":115,"³":116,"´":117,"µ":118,"¶":119,"·":120,"¸":121,"¹":122,"º":123,"»":124,"¼":125,"½":126,"¾":127,"¿":128,"À":129,"Á":130,"Â":131,"Ã":132,"Ä":133,"Å":134,"Æ":135,"Ç":136,"È":137,"É":138,"Ê":139,"Ë":140,"Ì":141,"Í":142,"Î":143,"Ï":144,"Ð":145,"Ñ":146,"Ò":147,"Ó":148,"Ô":149,"Õ":150,"Ö":151,"×":152,"Ø":153,"Ù":154,"Ú":155,"Û":156,"Ü":157,"Ý":158,"Þ":159,"ß":160,"à":161,"á":162,"â":163,"ã":164,"ä":165,"å":166,"æ":167,"ç":168,"è":169,"é":170,"ê":171,"ë":172,"ì":173,"í":174,"î":175,"ï":176,"ð":177,"ñ":178,"ò":179,"ó":180,"ô":181,"õ":182,"ö":183,"÷":184,"ø":185,"ù":186,"ú":187,"û":188,"ü":189,"ý":190,"þ":191,"ÿ":192,"Ā":193,"ā":194,"Ă":195,"ă":196,"Ą":197,"ą":198,"Ć":199,"ć":200,"Ĉ":201,"ĉ":202,"Ċ":203,"ċ":204,"Č":205,"č":206,"Ď":207,"ď":208,"Đ":209,"đ":210,"Ē":211,"ē":212,"Ĕ":213,"ĕ":214,"Ė":215,"ė":216,"Ę":217,"ę":218,"Ě":219,"ě":220,"Ĝ":221,"ĝ":222,"Ğ":223,"ğ":224,"Ġ":225,"ġ":226,"Ģ":227,"ģ":228,"Ĥ":229,"ĥ":230,"Ħ":231,"ħ":232,"Ĩ":233,"ĩ":234,"Ī":235,"ī":236,"Ĭ":237,"ĭ":238,"Į":239,"į":240,"İ":241,"ı":242,"Ĳ":243,"ĳ":244,"Ĵ":245,"ĵ":246,"Ķ":247,"ķ":248,"ĸ":249,"Ĺ":250,"ĺ":251,"Ļ":252,"ļ":253,"Ľ":254,"ľ":255,"Ŀ":256,"ŀ":257,"Ł":258,"ł":259,"Ń":260,"Ġt":261,"he":262,"Ġa":263,"Ġ\"":264,"ou":265,"Ġs":266,"Ġm":267,"in":268,"Ġw":269,"re":270,"ha":271,"nd":272,"Ġthe":273,"Ġb":274,"is":275,"er":276,"or":277,"ll":278,"Ġf":279,"it":280,"Ġo":281,"Ġd":282,"Ġc":283,"es":284,"ĠI":285,"Ġl":286,"Ġy":287,"Ġn":288,"on":289,"en":290,"Ġh":291,"Ġth":292,"ar":293,"Ġyou":294,"Ġp":295,"Ġto":296,"Ġand":297,"hat":298,"Ġhe":299,"ve":300,"Ġof":301,"ot":302,"an":303,"Ġg":304,"ow":305,"ing":306,"om":307,"st":308,".\"":309,",\"":310,"at":311,"Ġbe":312,"Ġin":313,"se":314,"ce":315,"Ġha":316,"Ġmy":317,"le":318,"ĠT":319,"et":320,"ay":321,"ld":322,"ĠA":323,"ed":324,"ut":325,"Ġme":326,"im":327,"ith":328,"ir":329,"ch":330,"Ġnot":331,"Ġis":332,"gh":333,"'s":334,"ill":335,"Ġthat":336,"Ġe":337,"Ġfor":338,"our":339,"oo":340,"ke":341,"Ġu":342,"Ġwe":343,"Ġwith":344,"Ġit":345,"ter":346,"ad":347,"ĠW":348,"Ġyour":349,"as":350,"id":351,"her":352,"ent":353,"Ġhis":354,"al":355,"Ġst":356,"Ġk":357,"ri":358,"Ġthou":359,"ra":360,"ĠS":361,"Ġhim":362,"Ġthis":363,"Ġhave":364,"Ġre":365,"ome":366,"ght":367,"ord":368,"ly":369,"Ġso":370,"'d":371,"Ġon":372,"Ġli":373,"Ġas":374,"ur":375,"ver":376,"ĠH":377,"ore":378,"ould":379,"ĠB":380,"Ġdo":381,"Ġwill":382,"Ġde":383,"ĠE":384,"ro":385,"ain":386,"ood":387,"hi":388,"us":389,"ĠC":390,"Ġsha":391,"ck":392,"ĠM":393,"est":394,"am":395,"ea":396,"ion":397,"ess":398,"Ġher":399,"Ġse":400,"Ġbut":401,"Ġno":402,"Ġan":403,"un":404,"?\"":405,"ĠAnd":406,"and":407,"Ġthy":408,"ge":409,"Ġlo":410,"Ġall":411,"if":412,"And":413,"ĠO":414,"ĠThe":415,"ake":416,"th":417,"Ġsp":418,"Ġsu":419,"ell":420,"Ġ'":421,"ĠF":422,"il":423,"ĠL":424,"Ġfa":425,"Ġkn":426,"Ġshall":427,"ct":428,"han":429,"ear":430,"Ġare":431,"Ġthee":432,"Ġv":433,"ho":434,":\"":435,"ight":436,"Ġour":437,"rom":438,"ĠP":439,"ĠG":440,"Ġby":441,"ue":442,"Ġsh":443,"ast":444,"Ġman":445,"ard":446,"Ġne":447,"The":448,"ant":449,"art":450,"Ġat":451,"ust":452,"end":453,"Ġlord":454,"Ġam":455,"ous":456,"Ġwhat":457,"Ġup":458,"ine":459,"sel":460,"Ġcom":461,"'ll":462,"Ġgo":463,"out":464,"ĠD":465,"ive":466,"ĠN":467,"Ġwhe":468,"Ġgood":469,"ie":470,"!\"":471,"Ġpr":472,"one":473,"res":474,"Ġcon":475,"ind":476,"ble":477,"Ġshe":478,"ven":479,"Ġfrom":480,"hich":481,"em":482,"Ġr":483,"ong":484,"ul":485,"ers":486,"Ġknow":487,"--":488,"nt":489,"Ġtr":490,"nter":491,"Ġlove":492,"Ġthem":493,"Ġwould":494,"Ġthere":495,"um":496,"Ġwas":497,"row":498,"qu":499,"Ġmore":500,"Ġbl":501,"ĠR":502,"hy":503,"ic":504,"ry":505,"Ġnow":506,"Ġif":507,"Ġsw":508,"Ġcan":509,"Ġca":510,"oth":511,"reat":512,"pp":513,"Ġthey":514,"ure":515,"Ġhat":516,"ost":517,"ĠY":518,"Ġtheir":519,"Ġor":520,"Ġlet":521,"fe":522,"ep":523,"Ġsir":524,"Ġthan":525,"self":526,"Ġar":527,"Ġsay":528,"Ġhere":529,"Ġwor":530,"Ġus":531,"ink":532,"ate":533,"la":534,"ĠTo":535,"ish":536,"el":537,"To":538,"ĠEx":539,"ame":540,"ath":541,"ort":542,"ol":543,"Ġwell":544,"other":545,"Ġthen":546,"Ġbr":547,"Ġcome":548,"fore":549,"Ġone":550,"Ġhath":551,"ather":552,"Ġsee":553,"ves":554,"ook":555,"Ġlike":556,"ak":557,"ĠTh":558,"ig":559,"Ġun":560,"od":561,"Ġj":562,"Ġking":563,"ound":564,"Ġdid":565,"Ġmay":566,"Ġshould":567,"Ġmad":568,"Ġmake":569,"Ġen":570,"ĠThat":571,"ance":572,"Ġsa":573,"ng":574,"Ġho":575,"gain":576,"eak":577,"Ġdis":578,"EN":579,"Ġout":580,"That":581,"Ġupon":582,"Ġmust":583,"ere":584,"ĠBut":585,"Ġwere":586,"unt":587,"ice":588,"ĠWhat":589,"very":590,"Ġhad":591,"ide":592,"Ġwhich":593,"Ġtoo":594,"Ġpro":595,"ity":596,"pe":597,"ence":598,"are":599,"Ġwhen":600,"pt":601,"ies":602,"ime":603,"Ġhon":604,"Ġsuch":605,"Ġhand":606,"uch":607,"Ġpo":608,"Ġspeak":609,"Ġheart":610,"Th":611,"Ġgra":612,"ther":613,"ire":614,"orn":615,"Ġyet":616,"Ġex":617,"au":618,"Ġagain":619,"ness":620,"all":621,"Ġwho":622,"ise":623,"ose":624,"ond":625,"Ġoff":626,"US":627,"Ġal":628,"Ġhow":629,"Ġsome":630,"wn":631,"Ġthese":632,"Ġey":633,"Ġthink":634,"ĠEnter":635,"ff":636,"Ġqu":637,"ady":638,"ist":639,"Ġfather":640,"ass":641,"ough":642,"urn":643,"Ġfo":644,"ick":645,"eunt":646,"Ġfri":647,"But":648,"Ġmine":649,"ci":650,"oy":651,"Ġgive":652,"age":653,"As":654,"Ġab":655,"'t":656,"ud":657,"Ġhea":658,"Ġgreat":659,"Ġtake":660,"Ġpl":661,"own":662,"eet":663,"hen":664,"Ġcha":665,"Ġmar":666,"Ġro":667,"Ġmuch":668,"Ġtell":669,"Ġwhere":670,"way":671,"entle":672,"ful":673,"Ġtime":674,"ation":675,"Ġtw":676,"Ġmost":677,"ave":678,"here":679,"What":680,"ree":681,"ĠJ":682,"Ġhear":683,"Ġfriend":684,"AR":685,"ĠHe":686,"ĠFor":687,"aster":688,"Ġlook":689,"ince":690,"Ġbet":691,"Ġnever":692,"ither":693,"ings":694,"Ġmen":695,"Ġday":696,"ign":697,"Enter":698,"Ġdes":699,"Ġlea":700,"per":701,"ĠMy":702,"ĠYou":703,"tis":704,"Ġle":705,"ack":706,"Ġblood":707,"ber":708,"Ġword":709,"Ġdeath":710,"Ġhonour":711,"ress":712,"Ġear":713,"Ġother":714,"ĠK":715,",--":716,"Ġart":717,"li":718,"Ġfl":719,"Ġpart":720,"Ġlife":721,"ull":722,"io":723,"to":724,"For":725,"ĠIf":726,"not":727,"oul":728,"ĠExeunt":729,"ĠAs":730,"Ġwr":731,"ove":732,"Ġfear":733,"igh":734,"ount":735,"ag":736,"Ġgentle":737,"ase":738,"ENE":739,"tle":740,"Ġple":741,"Ġser":742,"ool":743,"ĠV":744,"Ġfair":745,"Ġany":746,"Ġstr":747,"Ġcomm":748,"Ġri":749,"Ġheaven":750,"Ġwar":751,"ĠExit":752,"nder":753,"Ġson":754,"hing":755,"Ġcall":756,"Ġper":757,"Ġsc":758,"old":759,"Ġown":760,"My":761,"ment":762,"ite":763,"Ġad":764,"IN":765,"ft":766,"ward":767,"ans":768,"CENE":769,"Ġmade":770,"eed":771,"ss":772,"Ġra":773,"Ġpray":774,"ee":775,"rown":776,"use":777,"man":778,"Ġnight":779,"Ġvery":780,"ouse":781,"Ġhast":782,"Ġdoth":783,"ces":784,"Ġwh":785,"Ġtrue":786,"Ġke":787,"nce":788,"Ġsweet":789,"able":790,"ER":791,"ĠGod":792,"Ġpre":793,"les":794,"Ġcannot":795,"Ġbeen":796,"ction":797,"Ġapp":798,"ON":799,"ving":800,"You":801,"Ġaway":802,"ock":803,"Ġla":804,"llow":805,"che":806,"Ġwit":807,"Ġma":808,"Ġcour":809,"Ġworld":810,"Ġdone":811,"land":812,"augh":813,"Ġbear":814,"Ġaf":815,"Ġway":816,"ĠBe":817,"orrow":818,"Ġbrother":819,"Ġeyes":820,"ple":821,"cc":822,"Ġcl":823,"sw":824,"Ġlady":825,"ty":826,"Ġnor":827,"Ġever":828,"Ġbre":829,"Ġstand":830,"With":831,"Ġname":832,"Ġdown":833,"ĠHow":834,"Ġwom":835,"ĠThis":836,"He":837,"If":838,"Ġim":839,"Ġhead":840,"Ġarm":841,"ger":842,"ps":843,"Ġleave":844,"ĠCa":845,"Ġtwo":846,"ĠWhy":847,"Ġpres":848,"ĠIn":849,"Ġpla":850,"Ġbefore":851,"Ġnoble":852,"ife":853,"Ġfool":854,"Ġcont":855,"ĠLord":856,"ks":857,"que":858,"ower":859,"AN":860,"Ġthus":861,"Ġmight":862,"Ġbeg":863,"irst":864,"ĠNo":865,"Ġhar":866,"Ġthought":867,"atter":868,"Ġcomes":869,"ears":870,"ved":871,"Ġgrace":872,"less":873,"Ġcould":874,"uke":875,"Ġlong":876,"ĠWith":877,"ef":878,"os":879,"ought":880,"Ġ\"'":881,"aint":882,"uck":883,"ason":884,"Ġold":885,"ES":886,"Ġhouse":887,"iss":888,"Ġrem":889,"Ġsoul":890,"Ġpur":891,"Ġcomp":892,"ds":893,"ors":894,"led":895,"ious":896,"ĠCome":897,"Ġbetter":898,"Ġmaster":899,"In":900,"ĠSo":901,"Tis":902,"Ġdead":903,"come":904,"ew":905,"Ġkeep":906,"ĠMar":907,"Ġnew":908,"Ġfind":909,"Ġpoor":910,"aughter":911,"ach":912,"eace":913,"Ġinto":914,"red":915,"Ġbeing":916,"Ġshow":917,"Ġrep":918,"Ġbest":919,"Ġmyself":920,"Ġnothing":921,"nto":922,"me":923,"Ġboth":924,"ĠIs":925,"Ġend":926,"for":927,"ĠSir":928,"Ġmer":929,"ĠIt":930,"atch":931,"OL":932,"Ġmany":933,"ert":934,"ne":935,"cy":936,"tend":937,"akes":938,"Ġgl":939,"une":940,"ĠWho":941,"Ġfriends":942,"Ġput":943,"ied":944,"Ġdaughter":945,"Why":946,"Ġlive":947,"Ġfell":948,"ian":949,"Ġem":950,"Ġevery":951,"ĠU":952,"Ġbra":953,"hip":954,"ier":955,"ittle":956,"Ġfollow":957,"Ġsm":958,"men":959,"rance":960,"How":961,"Ġwife":962,"ĠOf":963,"Ġind":964,"ius":965,"vil":966,"This":967,"Ġlie":968,"ĠThere":969,"ia":970,"well":971,"Ġnat":972,"Ġset":973,"ren":974,"Ġstill":975,"IUS":976,"No":977,"Ġque":978,"Ġlittle":979,"ĠEng":980,"ĠLet":981,"Of":982,"Ex":983,"sed":984,"Ġfort":985,"ĠThou":986,"Be":987,"hall":988,"Ġthing":989,"Ġdr":990,"ark":991,"ret":992,"So":993,"Ġtong":994,"Ġfirst":995,"OR":996,"Ġhold":997,"Ġgr":998,"Ġchi":999,"Ġsle":1000,"be":1001,"ĠWe":1002,"Ġthose":1003,"Ġco":1004,"int":1005,"ons":1006,"Ġdie":1007,"Ġplace":1008,"Ġhigh":1009,"Ġdear":1010,"Ġansw":1011,"Ġqueen":1012,"alk":1013,"Ġhour":1014,"Ġpa":1015,"ĠAn":1016,"ĠRome":1017,"esar":1018,"Ġlords":1019,"ield":1020,"Ġtra":1021,"har":1022,"Ġunder":1023,"Ġgone":1024,"Ġcons":1025,"Ġyoung":1026,"eth":1027,"ĠNow":1028,"Ġel":1029,"ĠWhere":1030,"ĠWhich":1031,"Ġconf":1032,"ile":1033,"Who":1034,"Ġhimself":1035,"Ġserv":1036,"we":1037,"Ġmother":1038,"Ġgu":1039,"ru":1040,"iness":1041,"Which":1042,"Ġrest":1043,"It":1044,"Ġtri":1045,"ins":1046,"its":1047,"Ġagainst":1048,"Ġplay":1049,"ilt":1050,"Ġch":1051,"Ġcourt":1052,"uth":1053,"Ġpass":1054,"ĠBy":1055,"Ġplease":1056,"get":1057,"Ġstay":1058,"ĠII":1059,"istress":1060,"ged":1061,"Ġmind":1062,"Ġfall":1063,"Ġtill":1064,"Ġcount":1065,"Ġbring":1066,"Ġwoman":1067,"Ġnone":1068,"ult":1069,"Ġsword":1070,"Ġkind":1071,"Ġworth":1072,"Ġanswer":1073,"ceive":1074,"Ġres":1075,"Ġface":1076,"esty":1077,"Ġboy":1078,"Ġeye":1079,"Ġgi":1080,"bl":1081,"oud":1082,"ĠWhen":1083,"Ġgri":1084,"ows":1085,"lf":1086,"irt":1087,"the":1088,"Ġchar":1089,"ison":1090,"Ġpeace":1091,"Ġmean":1092,"ĠOr":1093,"ect":1094,"Ġfull":1095,"Ġwords":1096,"ĠCaesar":1097,"Ġta":1098,"We":1099,"Ġpresent":1100,"lt":1101,"Thou":1102,"Ġtongue":1103,"Ġelse":1104,"Ġturn":1105,"Ġthine":1106,"Ġtherefore":1107,"Ġthough":1108,"Is":1109,"ĠFrance":1110,"Ġthr":1111,"Ġhus":1112,"pon":1113,"ump":1114,"ition":1115,"Ġpe":1116,"Ġchild":1117,"ĠAt":1118,"Ġbel":1119,"Ġforth":1120,"Ġdra":1121,"Ġcur":1122,"ĠHere":1123,"Ġafter":1124,"Ġmeet":1125,"Ġvill":1126,"Ġneed":1127,"band":1128,"Ġtre":1129,"Ġcou":1130,"SCENE":1131,"Ġbid":1132,"Ġche":1133,"Ġcrown":1134,"ens":1135,"ĠSCENE":1136,"Ġwhose":1137,"Ġright":1138,"sand":1139,"asure":1140,"Ġchan":1141,"Ġseem":1142,"Ġmatter":1143,"Ġwhy":1144,"ants":1145,"Ġsaid":1146,"eech":1147,"Ġback":1148,"ĠAnt":1149,"hile":1150,"ĠSt":1151,"bt":1152,"pose":1153,"ised":1154,"TI":1155,"ati":1156,"Ġwrong":1157,"Ġpri":1158,"ried":1159,"Ġreason":1160,"Ġonce":1161,"Ġhusband":1162,"By":1163,"Ġret":1164,"Ġletter":1165,"ix":1166,"ĠAN":1167,"Where":1168,"ĠAy":1169,"Ġunto":1170,"Ġprince":1171,"Ġstran":1172,"Ġeven":1173,".'":1174,"ister":1175,"Ġthree":1176,"Ġearth":1177,"cl":1178,"orse":1179,"Ġacc":1180,"Ġkill":1181,"Ġhope":1182,"EL":1183,"Ġspir":1184,"There":1185,"Ġhum":1186,"Ġfaith":1187,"Ġhas":1188,",'":1189,"Ġhome":1190,"Ġimp":1191,"Ġwhom":1192,"Ġdre":1193,"Ġabout":1194,"Ġanother":1195,"Ġover":1196,"Ġbod":1197,"When":1198,"Ġbes":1199,"ĠBr":1200,"uty":1201,"Ġsub":1202,"Ġpower":1203,"Ġheard":1204,"Ġindeed":1205,"Let":1206,"Ġhel":1207,"Ġlight":1208,"Ġbreat":1209,"Ġcause":1210,"Ġdou":1211,"ĠDo":1212,"ĠYour":1213,"Ġmadam":1214,"Ġass":1215,"tw":1216,"Ġhence":1217,"Ġhands":1218,"Ġsl":1219,"Ġmon":1220,"any":1221,"ĠRe":1222,"selves":1223,"arry":1224,"ory":1225,"Ġpra":1226,"Ġnature":1227,"Ay":1228,"Ġdisc":1229,"cle":1230,"Ġi":1231,"ont":1232,"ray":1233,"Ġ[":1234,"enter":1235,"ardon":1236,"Ġthank":1237,"Ġsleep":1238,"Ġgods":1239,"Ġfal":1240,"Ġthousand":1241,"AL":1242,"ary":1243,"Ġstre":1244,"Ġwithin":1245,"Ġsure":1246,"Ġdost":1247,"UC":1248,"Come":1249,"ĠWell":1250,"ap":1251,"ĠThen":1252,"Ġvirt":1253,"bs":1254,"Ġsold":1255,"ĠGo":1256,"pect":1257,"Ġbed":1258,"Ġmis":1259,"Ġduke":1260,"day":1261,"--\"":1262,"Or":1263,"Ġjust":1264,"fect":1265,"omet":1266,"Aside":1267,"ony":1268,"Ġgold":1269,"Ġlaw":1270,"cious":1271,"vere":1272,"Ġtruth":1273,"Ġhither":1274,"ace":1275,"ail":1276,"Ġstate":1277,"Ġmakes":1278,"Ġfalse":1279,"ET":1280,"fort":1281,"ains":1282,"Ġval":1283,"Ġmaid":1284,"Ġsent":1285,"Ġcame":1286,"Now":1287,"Ġbus":1288,"imes":1289,"Ġuse":1290,"ĠShe":1291,"ets":1292,"eal":1293,"ars":1294,"Ġshame":1295,"Your":1296,"Ġdi":1297,"Ġmo":1298,"Ġere":1299,"ĠGood":1300,"Ġwel":1301,"Ġfight":1302,"ury":1303,"ches":1304,"ĠEngland":1305,"ade":1306,"Ġbreak":1307,"ute":1308,"Ġban":1309,"vy":1310,"urd":1311,"Ġdoes":1312,"ĠHer":1313,"Ġsame":1314,"rant":1315,"yal":1316,"Ġsince":1317,"Ġye":1318,"Ġfortune":1319,"eel":1320,"Ġwind":1321,"Ġ\"[":1322,"Ġrather":1323,"ouch":1324,"ĠNor":1325,"Ġhelp":1326,"Ġbu":1327,"gu":1328,"Ġfellow":1329,"ĠAl":1330,"Ġthings":1331,"Ġlast":1332,"Ġhang":1333,"Ġfar":1334,"Ġenough":1335,"Ġnews":1336,"ĠThey":1337,"Re":1338,"air":1339,"Ġland":1340,"Ġdevil":1341,"Ġmistress":1342,"ieve":1343,"Ġgentleman":1344,"IO":1345,"Ġhapp":1346,"Ġstri":1347,"gether":1348,"Ġsea":1349,"Ġadv":1350,"Ġsun":1351,"ates":1352,"Ġwithout":1353,"ctor":1354,"ING":1355,"ents":1356,"Ġshalt":1357,"ab":1358,"night":1359,"pen":1360,"hes":1361,"ĠWill":1362,"ours":1363,"Ġmaj":1364,"Ġsound":1365,"Ġsec":1366,"Ġenter":1367,"Ġtears":1368,"uff":1369,"Ġbody":1370,"IC":1371,"Ġenem":1372,"Ġyouth":1373,"ides":1374,"Ġhonest":1375,"ener":1376,"Ġwelcome":1377,"gue":1378,"ions":1379,"Ġbo":1380,"Ġinst":1381,"Ġsend":1382,"Ġlay":1383,"vers":1384,"Then":1385,"ild":1386,"Ġpati":1387,"pl":1388,"hed":1389,"ARD":1390,"ner":1391,"ĠNay":1392,"Ġcommand":1393,"ily":1394,"Ġyourself":1395,"PH":1396,"Ġpers":1397,"Ġdeed":1398,"Ġfault":1399,"Ġstrange":1400,"Ġdan":1401,"Here":1402,"ST":1403,"Ġfire":1404,"CT":1405,"ms":1406,"ork":1407,"ĠHis":1408,"Ġfare":1409,"Ġcare":1410,"Ġsaw":1411,"Ġgrief":1412,"ac":1413,"Ġarms":1414,"Ġmeans":1415,"Ġpal":1416,"Ġswear":1417,"Ġjoy":1418,"Ġsomet":1419,"Ġseen":1420,"Ġill":1421,"ject":1422,"Ġgre":1423,"ween":1424,"Ġent":1425,"Ġnear":1426,"usic":1427,"hold":1428,"ousin":1429,"Ġmajesty":1430,"Ġonly":1431,"ning":1432,"ats":1433,"Ġlost":1434,"Ġrun":1435,"Ġremem":1436,"Ġreturn":1437,"St":1438,"Ġweep":1439,"Ġsla":1440,"Ġwish":1441,"Ġkiss":1442,"iers":1443,"Ġpardon":1444,"Ġoft":1445,"Ġless":1446,"Ġget":1447,"dom":1448,"Ġstrong":1449,"iz":1450,"ĠEd":1451,"Ġdare":1452,"onder":1453,"gs":1454,"like":1455,"ike":1456,"Ġhorse":1457,"Ġread":1458,"Ġspo":1459,"Than":1460,"Ġfree":1461,"Ġprom":1462,"morrow":1463,"itt":1464,"ĠNot":1465,"dd":1466,"Ġspirit":1467,"Ġtalk":1468,"Ġden":1469,"Ġyours":1470,"They":1471,"Ġcountry":1472,"ĠThan":1473,"His":1474,"Ġbusiness":1475,"ithe":1476,"Ġstra":1477,"oney":1478,",--\"":1479,"Well":1480,"com":1481,"Ġsen":1482,"Ġitself":1483,"ause":1484,"Ġleft":1485,"ken":1486,"Ġborn":1487,"Ġtogether":1488,"ople":1489,"els":1490,"Ġroyal":1491,"Ġvillain":1492,"Ġgener":1493,"Ġhard":1494,"erv":1495,"Ġfly":1496,"Do":1497,"Ġdesire":1498,"ertain":1499,"Ġtem":1500,"outh":1501,"ran":1502,"Ġwant":1503,"Ġprove":1504,"Ġjud":1505,"Ġsorrow":1506,"ift":1507,"Ġseek":1508,"Ġthrough":1509,"Ġgrow":1510,"Ġcomfort":1511,"rench":1512,"Ġbea":1513,"Ġvo":1514,"Ġpurpose":1515,"Ġdoubt":1516,"IA":1517,"form":1518,"Ġwilt":1519,"ery":1520,"Ġhalf":1521,"Good":1522,"Ġfur":1523,"Ġcr":1524,"ads":1525,"Ġcry":1526,"Not":1527,"Nay":1528,"Ġthoughts":1529,"Ġcoun":1530,"und":1531,"Ġsing":1532,"of":1533,"Ġaw":1534,"Ġtold":1535,"let":1536,"Ġexce":1537,"Ġbreath":1538,"LO":1539,"Ġfoul":1540,"ĠTro":1541,"Ġreven":1542,"Ġfound":1543,"ĠYork":1544,"enry":1545,"ĠHave":1546,"Ġservice":1547,"ĠShall":1548,"ithee":1549,"op":1550,"Ġsick":1551,"Ġmet":1552,"Ġmurd":1553,"ĠJo":1554,"Exeunt":1555,"bour":1556,"Ġlate":1557,"ĠDuke":1558,"Ġdraw":1559,"ures":1560,"Ġdef":1561,"ross":1562,"Ġsays":1563,"Ġpeople":1564,"She":1565,"Ġbloody":1566,"Ġsupp":1567,"Ġcra":1568,"Ġattend":1569,"ever":1570,"itor":1571,"Ġsister":1572,"Ġpity":1573,"gainst":1574,"Ġdist":1575,"Ġoath":1576,"Ġcousin":1577,"by":1578,"Ġfield":1579,"Ġlies":1580,"ĠPr":1581,"Ġfore":1582,"Ġair":1583,"ĠQ":1584,"alth":1585,"ĠMaster":1586,"chan":1587,"Ġwork":1588,"Ġmark":1589,"Ġsight":1590,"most":1591,"Ġproud":1592,"Ġgave":1593,"Ġprison":1594,"Ġquick":1595,"IL":1596,"lish":1597,"Ġwear":1598,"ĠHenry":1599,"hard":1600,"ĠCass":1601,"ham":1602,"Ġbri":1603,"Ġsuff":1604,"Ġdanger":1605,"AT":1606,"ls":1607,"Ġbound":1608,"Ġalone":1609,"ĠAntony":1610,"now":1611,"ĠAll":1612,"Ġfurther":1613,"ĠFrench":1614,"ĠYet":1615,"xt":1616,"Ġsil":1617,"Ġwat":1618,"Ġask":1619,"ĠANTI":1620,"Ġbeseech":1621,"Ġtend":1622,"mer":1623,"Ġbro":1624,"ced":1625,"Ġdam":1626,"ĠCla":1627,"Sir":1628,"cess":1629,"vour":1630,"Ġsoon":1631,"Ġfoot":1632,"Ġcast":1633,"ĠKING":1634,"Ġgeneral":1635,"hn":1636,"oose":1637,"oman":1638,"Ġhate":1639,"Go":1640,"Have":1641,"Will":1642,"ues":1643,"Ġinf":1644,"Ġlose":1645,"Ġdream":1646,"Shall":1647,"ior":1648,"up":1649,"Ġcar":1650,"ster":1651,"Ġint":1652,"ĠOur":1653,"peak":1654,"uc":1655,"Ġcond":1656,"Ġmarry":1657,"ible":1658,"unes":1659,"Ġlooks":1660,"cause":1661,"iet":1662,"Ġsad":1663,"Ġsin":1664,"Ġba":1665,"Ġlear":1666,"Ġdep":1667,"Ġcompany":1668,"Ġwo":1669,"Ġmusic":1670,"Ġwin":1671,"Ġcold":1672,"Ġcertain":1673,"Ġthyself":1674,"Ġtrust":1675,"Ġgrave":1676,"OLUS":1677,"ĠIII":1678,"PHOLUS":1679,"ĠANTIPHOLUS":1680,"Ġter":1681,"Ġcho":1682,"ĠKing":1683,"Exit":1684,"Ġuncle":1685,"Ġworthy":1686,"ring":1687,"Ġdel":1688,"Ġcommon":1689,"Ġsk":1690,"adam":1691,"wick":1692,"Ġcharge":1693,"ub":1694,"Ġaff":1695,"Ġbrought":1696,"ĠJohn":1697,"ĠThy":1698,"Ġvi":1699,"Ġgracious":1700,"Ġeach":1701,"Ġknows":1702,"Ġholy":1703,"!'":1704,"ling":1705,"Ġfit":1706,"laim":1707,"Ġhighness":1708,"Ġothers":1709,"Ġgiven":1710,"Ġbelieve":1711,"Ġwa":1712,"Ġwis":1713,"inks":1714,"ched":1715,"vent":1716,"Ġcut":1717,"Ġrec":1718,"Ġyears":1719,"Ġloves":1720,"Ġknown":1721,"Ġwarrant":1722,"ĠEdward":1723,"bed":1724,"Ġwound":1725,"ott":1726,"ford":1727,"Ġsit":1728,"Ġwise":1729,"arwick":1730,"Ġtimes":1731,"Ġdisp":1732,"ude":1733,"oor":1734,"ief":1735,"Ġfarewell":1736,"hould":1737,"Ġyield":1738,"Ġloved":1739,"no":1740,"Ġmin":1741,"Ġpar":1742,"Ġserve":1743,"Ġbetween":1744,"Ġvirtue":1745,"cius":1746,"so":1747,"Ġsovere":1748,"Ġside":1749,"Ġbir":1750,"ured":1751,"Ġhappy":1752,"Ġmove":1753,"hal":1754,"Ġbar":1755,"arewell":1756,"Ġcontent":1757,"ial":1758,"Ġmoney":1759,"ĠMAR":1760,"Ġdays":1761,"av":1762,"ec":1763,"Ġage":1764,"Ġhell":1765,"AS":1766,"rence":1767,"ceed":1768,"eter":1769,"ĠWarwick":1770,"oward":1771,"Ġforg":1772,"Ġbrave":1773,"Ġbeat":1774,"ĠFrom":1775,"Ġprin":1776,"Ġpleasure":1777,"Ġremember":1778,"ĠGive":1779,"az":1780,"Ġact":1781,"Ġbat":1782,"Ġknight":1783,"ices":1784,"Ġlives":1785,"aking":1786,"ned":1787,"Ġpay":1788,"estion":1789,"iece":1790,"Ġreport":1791,"Ġwhile":1792,"rew":1793,"Ġtouch":1794,"Ġpast":1795,"Ġtru":1796,"Ġpoint":1797,"Nor":1798,"iant":1799,"ives":1800,"pr":1801,"enty":1802,"ichard":1803,"Ġposs":1804,"Tw":1805,"Ġmouth":1806,"Our":1807,"kes":1808,"rest":1809,"fection":1810,"Ġground":1811,"Thy":1812,"Ġcor":1813,"Ġgall":1814,"Ġrequ":1815,"ĠEnglish":1816,"ship":1817,"Ġprof":1818,"Ġmorn":1819,"ments":1820,"Ġhearts":1821,"Ġmercy":1822,"Al":1823,"Ġcol":1824,"ĠAr":1825,"utus":1826,"ush":1827,"essen":1828,"Ġgar":1829,"Ġsuit":1830,"urt":1831,"IS":1832,"oint":1833,"Ġeat":1834,"From":1835,"oof":1836,"Ġears":1837,"ceived":1838,"Ġenemy":1839,"Ġsake":1840,"Ġmock":1841,"Ġgoes":1842,"Ġbeauty":1843,"bly":1844,"ught":1845,"cester":1846,"Ġperson":1847,"lly":1848,"Ġdeep":1849,"Ġknave":1850,"Ġdrink":1851,"ek":1852,"ires":1853,"Ġfour":1854,"Ġinc":1855,"All":1856,"Ġsign":1857,"stand":1858,"Ġrich":1859,"Ġwomen":1860,"Ġpatience":1861,"Ġdeser":1862,"Ġlead":1863,"An":1864,"bra":1865,"Ġac":1866,"Ġwonder":1867,"hil":1868,"Ġsum":1869,"Ġring":1870,"esh":1871,"Ġten":1872,"Ġbold":1873,"Ġcham":1874,"Ġconfess":1875,"Ġtender":1876,"Ġwoo":1877,"ĠRichard":1878,"AM":1879,"Ġest":1880,"ĠAre":1881,"Ġfast":1882,"Ġvis":1883,"Ġprot":1884,"Ġdiv":1885,"ined":1886,"ĠUpon":1887,"ixt":1888,"Ġentreat":1889,"Yet":1890,"Ġnext":1891,"Ġheavy":1892,"sue":1893,"Ġopen":1894,"Ġord":1895,"ĠServ":1896,"Ġdog":1897,"Ġatt":1898,"Ġsovereign":1899,"ph":1900,"ĠIV":1901,"Ġru":1902,"ally":1903,"Ġsubject":1904,"Ġpalace":1905,"Ġcreat":1906,"Ġlad":1907,"ĠGl":1908,"uous":1909,"irm":1910,"ask":1911,"ĠDid":1912,"Ġblack":1913,"Ġsave":1914,"gar":1915,"Ġdev":1916,"Ġquar":1917,"Ġhaste":1918,"Ġburn":1919,"osom":1920,"Ġsur":1921,"Ġwatch":1922,"Ġbehold":1923,"ourish":1924,"Ġstraight":1925,"Ġbless":1926,"Ġcanst":1927,"RY":1928,"Upon":1929,"vo":1930,"gel":1931,"Ġgentlemen":1932,"Ġcourse":1933,"ĠAttend":1934,"Ġpraise":1935,"Ġbosom":1936,"Ġvoice":1937,"LE":1938,"Ġduty":1939,"ots":1940,"ĠWould":1941,"Ġred":1942,"ĠLook":1943,"Ġshort":1944,"Ġneither":1945,"ready":1946,"Ġdro":1947,"Ġhair":1948,"Ġspeed":1949,"Ġchange":1950,"ĠCl":1951,"ortal":1952,"Ġmurder":1953,"Ġwalk":1954,"Ġhot":1955,"Ġtown":1956,"Ġtoward":1957,"alt":1958,"Ġknew":1959,"ĠBrutus":1960,"ges":1961,"Ġthri":1962,"ries":1963,"EST":1964,"ethinks":1965,"RO":1966,"ĠCh":1967,"Ġtook":1968,"Ġsomething":1969,"oucester":1970,"Ġwall":1971,"ites":1972,"rah":1973,"Ġsat":1974,"ones":1975,"Ġmerry":1976,"owers":1977,"riage":1978,"Ġsons":1979,"Ġtraitor":1980,"essenger":1981,"Ġwret":1982,"Ġworse":1983,"ĠHector":1984,"eem":1985,"Ġpen":1986,"Ġtwenty":1987,"Ġsoldier":1988,"ca":1989,"Ġcity":1990,"Ġexp":1991,"Ġfeel":1992,"Ġnote":1993,"Ġweak":1994,"Ġliege":1995,"Ġbase":1996,"vel":1997,"ated":1998,"Ġquestion":1999,"Ġbanish":2000,"ities":2001,"Ġdeli":2002,"ully":2003,"Ġcounsel":2004,"Ġappro":2005,"Ġclose":2006,"Ġglad":2007,"aff":2008,"east":2009,"each":2010,"ument":2011,"Ġplain":2012,"Ġvaliant":2013,"over":2014,"Ġopp":2015,"Ġcoward":2016,"ĠCan":2017,"Ġcoming":2018,"Ġheavens":2019,"that":2020,"Ġdidst":2021,"ered":2022,"pare":2023,"cept":2024,"Ġthemselves":2025,"ĠGloucester":2026,"with":2027,"Ġstir":2028,"ĠPro":2029,"Ġappear":2030,"Ġpresently":2031,"Ġwater":2032,"gg":2033,"Ġbad":2034,"ĠHel":2035,"ĠOn":2036,"ĠDON":2037,"Ġoffend":2038,"Ġpret":2039,"Ġsuffer":2040,"ote":2041,"ĠPer":2042,"ĠVI":2043,"Ġfavour":2044,"rows":2045,"ĠBefore":2046,"Ġrevenge":2047,"Ġtrump":2048,"Ġharm":2049,"Ġjustice":2050,"Ġmoon":2051,"dden":2052,"Are":2053,"Ġconst":2054,"Ġflesh":2055,"Ġspeech":2056,"olk":2057,"Ġmarried":2058,"ĠHath":2059,"Ġdesp":2060,"Ġscorn":2061,"cher":2062,"fter":2063,"Ġcle":2064,"Ġlam":2065,"Ġalready":2066,"Ġroom":2067,"Ġwithal":2068,"Ġneeds":2069,"Ġspoke":2070,"Ġreg":2071,"Ġprithee":2072,"Ġstands":2073,"eness":2074,"Ġsport":2075,"aste":2076,"feit":2077,"Ġalmost":2078,"Hath":2079,"Ġsoldiers":2080,"ting":2081,"Ġdark":2082,"etch":2083,"Ġpluck":2084,"Ġdeny":2085,"bit":2086,"Ġund":2087,"Ġguard":2088,"rel":2089,"Ġgro":2090,"imon":2091,"ip":2092,"med":2093,"Ġlips":2094,"Ġtrou":2095,"Ġrespect":2096,"hood":2097,"weet":2098,"ptain":2099,"Ġwars":2100,"ĠUn":2101,"ĠMay":2102,"Ġmorning":2103,"rist":2104,"Ġfra":2105,"Ġlack":2106,"cks":2107,"ĠFl":2108,"empt":2109,"cience":2110,"Ġbond":2111,"ĠEven":2112,".'\"":2113,"Ġaction":2114,"Ġforb":2115,"unk":2116,"Ġloss":2117,"umber":2118,"Ġabove":2119,"Ġchamber":2120,"Ġheir":2121,"Ġinter":2122,"Ġsworn":2123,"Ġthanks":2124,"Ġfeast":2125,"ĠLA":2126,"Ġran":2127,"Ġscar":2128,"used":2129,"Ġgrant":2130,"Ġstrike":2131,"alm":2132,"urse":2133,"ĠTherefore":2134,"Ġdeliver":2135,"ash":2136,"ashi":2137,"Ġjest":2138,"Ġext":2139,"ESS":2140,"Ġstreng":2141,"ird":2142,"Ġready":2143,"Ġsudden":2144,"ience":2145,"Ġunt":2146,"Ġadd":2147,"mand":2148,"Ġprop":2149,"Ġoffice":2150,"Ġpale":2151,"cri":2152,"gry":2153,"hind":2154,"Ġlow":2155,"oop":2156,"Ġdrum":2157,"vol":2158,"Ġspeaks":2159,"Ġtit":2160,"Ġbattle":2161,"ESTER":2162,"Ġpu":2163,"Ġbeast":2164,"Ġbecome":2165,"thy":2166,"Ġwrit":2167,"Ġslain":2168,"AG":2169,"At":2170,"OM":2171,"oss":2172,"ines":2173,"asters":2174,"Ġkingdom":2175,"Ġbegin":2176,"Ġgrie":2177,"Ġsense":2178,"Ġpriv":2179,"UE":2180,"ses":2181,"you":2182,"Ġwild":2183,"llent":2184,"Ġmarriage":2185,"bey":2186,"Ġhours":2187,"Ġunderstand":2188,"Ġwoe":2189,"Give":2190,"pes":2191,"Ġmot":2192,"Ġmod":2193,"Ġhide":2194,"Ġsever":2195,"ĠThese":2196,"Ġvile":2197,"AND":2198,"Ġchildren":2199,"FF":2200,"IAN":2201,"Would":2202,"eep":2203,"Ġmount":2204,"ution":2205,"Ġletters":2206,"ĠCassio":2207,"Ġlaugh":2208,"Ġhaving":2209,"als":2210,"amp":2211,"Ġslave":2212,"Did":2213,"mb":2214,"isf":2215,"Ġdire":2216,"arum":2217,"Ġdoor":2218,"roke":2219,"Ġshad":2220,"Even":2221,"On":2222,"con":2223,"Ġfat":2224,"ĠSome":2225,"IR":2226,"gment":2227,"ished":2228,"Ġdish":2229,"Ġsoft":2230,"Ġself":2231,"ends":2232,"aken":2233,"ainted":2234,"ĠRomeo":2235,"ale":2236,"tain":2237,"Ġshi":2238,"Ġpit":2239,"Ġhonourable":2240,"ron":2241,"lack":2242,"Ġwhole":2243,"Ġoffer":2244,"Within":2245,"Ġtruly":2246,"Ġid":2247,"Ġbook":2248,"ang":2249,"Ġfortunes":2250,"ench":2251,"Ġrel":2252,"Ġexc":2253,"Ġstrength":2254,"God":2255,"Ġty":2256,"Ġfe":2257,"ĠWas":2258,"Ġservant":2259,"Ġresol":2260,"Ġmal":2261,"vern":2262,"ired":2263,"Ġrage":2264,"Ġlabour":2265,"Ġchur":2266,"!--":2267,"Ġfashi":2268,"ĠFarewell":2269,"Ġabs":2270,"Un":2271,"pit":2272,"Ġmortal":2273,"enge":2274,"Ġbehind":2275,"ĠMore":2276,"ignior":2277,"Ġpassion":2278,"Ġdread":2279,"Ġve":2280,"Ġgot":2281,"Ġeither":2282,"Ġliber":2283,"Ġkings":2284,"Ġwitness":2285,"Ġconscience":2286,"Ġjo":2287,"ations":2288,"Ġlordship":2289,"twas":2290,"rey":2291,"ĠLu":2292,"ieu":2293,"ĠServant":2294,"ĠAttendants":2295,"pin":2296,"Ġfam":2297,"Ġspirits":2298,"Ġlearn":2299,"UR":2300,"ging":2301,"inal":2302,"Ġissue":2303,"ĠPray":2304,"Ġwhite":2305,"Ġmighty":2306,"umph":2307,"undred":2308,"hilst":2309,"Ġsigh":2310,"Ġpleas":2311,"ĠWhose":2312,"Whose":2313,"Ġpretty":2314,"ffect":2315,"ler":2316,"Ġfive":2317,"Ġsteal":2318,"ural":2319,"Ġcase":2320,"erer":2321,"Ġcheer":2322,"ĠChrist":2323,"under":2324,"ying":2325,"Ġfing":2326,"str":2327,"ĠMadam":2328,"Ġloving":2329,"ĠLUC":2330,"KE":2331,"aith":2332,"ny":2333,"Ġmorrow":2334,"itter":2335,"ĠTake":2336,"ĠPom":2337,"antage":2338,"Ġoffence":2339,"Ġemper":2340,"Ġtreason":2341,"Ġsecret":2342,"Ġoften":2343,"Ġmist":2344,"ĠTr":2345,"Ġliving":2346,"Ġsatisf":2347,"LA":2348,"ises":2349,"Ġlust":2350,"Ġnay":2351,"Ġpoison":2352,"Ġalong":2353,"Ġenemies":2354,"Ġfashion":2355,"ĠTimon":2356,"ĠSay":2357,"Ġrevere":2358,"Ġwouldst":2359,"Ġsafe":2360,"ient":2361,"Ġtent":2362,"Ġfetch":2363,"ited":2364,"Ġcross":2365,"Ġgift":2366,"ĠCA":2367,"ĠCom":2368,"ils":2369,"ĠLe":2370,"Ġourselves":2371,"ĠPar":2372,"resh":2373,"umb":2374,"ĠThough":2375,"Ġheads":2376,"Ġtale":2377,"Ġteach":2378,"Ġfeed":2379,"Ġlim":2380,"Ġhost":2381,"Ġeas":2382,"idd":2383,"ĠPage":2384,"ĠDU":2385,"Ġmarch":2386,"ĠKate":2387,"Ġadm":2388,"ĠClaud":2389,"Ġorder":2390,"CE":2391,"oly":2392,"Ġut":2393,"Ġag":2394,"Ġay":2395,"Ġsho":2396,"Ġhundred":2397,"ancy":2398,"ider":2399,"ĠHEN":2400,"Ġexec":2401,"Ġsouls":2402,"Ġseems":2403,"ĠHENRY":2404,"gra":2405,"Ġble":2406,"Ġfill":2407,"Ġhurt":2408,"Ġform":2409,"bb":2410,"Ġsim":2411,"Ġmir":2412,"anch":2413,"Ġeffect":2414,"Ġlion":2415,"ondon":2416,"ages":2417,"Ġsecond":2418,"Ġob":2419,"ĠLondon":2420,"othing":2421,"Ġpresence":2422,"Ġawhile":2423,"More":2424,"vest":2425,"Ġign":2426,"rem":2427,"ĠTy":2428,"raw":2429,"ĠHa":2430,"Ġparts":2431,"ORD":2432,"Ġgives":2433,"Ġvalour":2434,"Ġdeeds":2435,"Ġtrouble":2436,"Some":2437,"Ġdied":2438,"ĠMistress":2439,"Ġdangerous":2440,"TON":2441,"fully":2442,"wd":2443,"ze":2444,"Ġwood":2445,"Ġbow":2446,"Ġdrown":2447,"Ġbeard":2448,"Ġgod":2449,"Ġlonger":2450,"Ġchance":2451,"Ġladies":2452,"IT":2453,"nown":2454,"Ġda":2455,"ened":2456,"ĠMost":2457,"ĠOF":2458,"ĠLady":2459,"Ġproceed":2460,"Ġwisdom":2461,"ked":2462,"ern":2463,"Ġthrow":2464,"alb":2465,"ĠLE":2466,"ĠRoman":2467,"elcome":2468,"Ġbreast":2469,"Ġchoose":2470,"Ġdouble":2471,"UCESTER":2472,"Ġpatient":2473,"Ġpromise":2474,"LOUCESTER":2475,"ugh":2476,"Ġap":2477,"Ġocc":2478,"right":2479,"ĠPl":2480,"ĠGLOUCESTER":2481,"ĠJul":2482,"Ġcommend":2483,"Ġbrief":2484,"ĠClaudio":2485,"EM":2486,"UN":2487,"Ġwed":2488,"ene":2489,"Ġpost":2490,"ĠWere":2491,"Ġunk":2492,"Ġjudgment":2493,"Ġemperor":2494,"Was":2495,"hom":2496,"Ġobs":2497,"Ġconsent":2498,"Ġcurse":2499,"Ġbirth":2500,"but":2501,"ners":2502,"Ġdin":2503,"ingly":2504,"ety":2505,"ĠSee":2506,"ilus":2507,"ardinal":2508,"aked":2509,"oved":2510,"Ġaffection":2511,"Ġsmall":2512,"ICH":2513,"Ġacqu":2514,"Ġtitle":2515,"set":2516,"Ġforce":2517,"Ġprov":2518,"cent":2519,"Ġhealth":2520,"ĠTill":2521,"Ġvow":2522,"Ġworship":2523,"hens":2524,"Ġflatter":2525,"Ġbears":2526,"Ġbreed":2527,"ealous":2528,"Ġbuy":2529,"Ġdepart":2530,"Ġprinces":2531,"sh":2532,"Ġins":2533,"Ġpaper":2534,"Look":2535,"Till":2536,"ued":2537,"Ġer":2538,"Ġsn":2539,"Ġforget":2540,"ĠLa":2541,"astard":2542,"Ġdri":2543,"arch":2544,"Ġnoise":2545,"Ġangry":2546,"Ġpract":2547,"CH":2548,"pher":2549,"Ġwent":2550,"Ġgates":2551,"leep":2552,"Ġreb":2553,"Ġconqu":2554,"ĠRICH":2555,"Though":2556,"Ġfools":2557,"ĠLords":2558,"ledge":2559,"rupt":2560,"Ġmatch":2561,"Ġfine":2562,"ĠGentle":2563,"Ġgoing":2564,"ĠYes":2565,"Her":2566,"gin":2567,"ict":2568,"mon":2569,"onour":2570,"Ġstud":2571,"Ġpride":2572,"Ġleast":2573,"Ġhumour":2574,"Ġentertain":2575,"Ġsor":2576,"Ġmasters":2577,"ĠAway":2578,"ĠSpeak":2579,"Ġsole":2580,"ĠDe":2581,"Ġworst":2582,"Ġunw":2583,"Ġexcellent":2584,":'":2585,"ts":2586,"Ġlan":2587,"asion":2588,"iff":2589,"ify":2590,"ĠOne":2591,"ility":2592,"bury":2593,"ĠTalb":2594,"though":2595,"Ġsucc":2596,"Ġwrite":2597,"Ġperform":2598,"Ġquickly":2599,"po":2600,"via":2601,"yra":2602,"essed":2603,"Ġround":2604,"ume":2605,"Ġproc":2606,"twere":2607,"Ġjudge":2608,"Most":2609,"ĠTell":2610,"Ġforsw":2611,"ĠSignior":2612,"Ġamb":2613,"Ġblow":2614,"Ġenc":2615,"Ġprayers":2616,"Ġvirtuous":2617,"Ġpossess":2618,"my":2619,"iles":2620,"uel":2621,"emn":2622,"osition":2623,"Ġshows":2624,"Ġquarrel":2625,"Can":2626,"king":2627,"Ġfresh":2628,"Ġopin":2629,"Ġshar":2630,"Ġembra":2631,"ĠTalbot":2632,"ACT":2633,"Were":2634,"ĠACT":2635,"ĠSc":2636,"Ġherself":2637,"pey":2638,"aught":2639,"May":2640,"ering":2641,"ĠAd":2642,"urs":2643,"These":2644,"Ġsaf":2645,"Ġprepare":2646,"Ġfoolish":2647,"ĠAlas":2648,"Ġchurch":2649,"ror":2650,"ina":2651,"Ġwhi":2652,"Ġele":2653,"eaven":2654,"iew":2655,"ĠJew":2656,"Ġfearful":2657,"Ġkept":2658,"gl":2659,"uri":2660,"Ġmeasure":2661,"ract":2662,"Ġseal":2663,"ĠLike":2664,"Ġamong":2665,"Ġblind":2666,"Ġplague":2667,"LI":2668,"born":2669,"gers":2670,"iled":2671,"sa":2672,"anc":2673,"chief":2674,"illes":2675,"Ġforward":2676,"ĠHad":2677,"Ġneigh":2678,"Ġcounter":2679,"Ġtor":2680,"Ġnob":2681,"Ġanon":2682,"ĠRO":2683,"Ġjealous":2684,"Ġperceive":2685,"Therefore":2686,"ĠHelen":2687,"ual":2688,"Ġyear":2689,"Ġknock":2690,"Ġgovern":2691,"icul":2692,"ounds":2693,"ĠMarry":2694,"Like":2695,"TH":2696,"gy":2697,"head":2698,"Ġwon":2699,"erve":2700,"Ġcarry":2701,"Ġpiece":2702,"ease":2703,"Ġvain":2704,"ĠThus":2705,"Ġqual":2706,"ĠANTON":2707,"Ġfaults":2708,"Ġmed":2709,"Ġhorn":2710,"Ġpains":2711,"Ġstar":2712,"ĠMessenger":2713,"Ġquiet":2714,"rid":2715,"Ġwert":2716,"sem":2717,"Ġshake":2718,"unning":2719,"Ġours":2720,"Ġjew":2721,"ucking":2722,"ĠTroy":2723,"ĠClarence":2724,"OP":2725,"Ġbitter":2726,"Ġfier":2727,"Ġpain":2728,"asc":2729,"ĠSaint":2730,"ĠChar":2731,"ames":2732,"Ġalive":2733,"itted":2734,"UEEN":2735,"ĠPompey":2736,"ĠParis":2737,"ĠDUKE":2738,"eks":2739,"Ġtaken":2740,"Ġdemand":2741,"ĠTroilus":2742,"One":2743,"Ġdu":2744,"ona":2745,"arge":2746,"vey":2747,"urst":2748,"amlet":2749,"Ġmanner":2750,"Ġgrand":2751,"Ġcruel":2752,"Ġcastle":2753,"Ġdinner":2754,"rum":2755,"ĠTit":2756,"ĠSuff":2757,"Ġconcl":2758,"ĠJove":2759,"ĠVen":2760,"ĠQUEEN":2761,"ax":2762,"Ġsort":2763,"rent":2764,"Ġdull":2765,"Ġinno":2766,"iron":2767,"Ġstood":2768,"ĠGree":2769,"ĠRos":2770,"perate":2771,"Ġwhore":2772,"Ġforgot":2773,"Ġsorry":2774,"cha":2775,"Ġtakes":2776,"Ġsus":2777,"Ġobey":2778,"ĠLove":2779,"ĠDes":2780,"Ġtroth":2781,"Ġcap":2782,"Ġcalls":2783,"Ġscarce":2784,"Ġcred":2785,"Ġcardinal":2786,"stance":2787,"chilles":2788,"ided":2789,"Ġview":2790,"Ġproper":2791,"Ġhonesty":2792,"icked":2793,"Ġsmo":2794,"Ġignor":2795,"pherd":2796,"Say":2797,"ker":2798,"Ġcir":2799,"Ġthro":2800,"Ġthither":2801,"force":2802,"Ġinstant":2803,"Ġgreen":2804,"Ġtemp":2805,"sper":2806,"Ġfrown":2807,"itiz":2808,"Ġintend":2809,"ĠOut":2810,"ilty":2811,"Ġproof":2812,"osed":2813,"Ġglory":2814,"Ġfellows":2815,"Ġmonth":2816,"Ġgolden":2817,"Ġmut":2818,"itors":2819,"Ġdest":2820,"Ġmel":2821,"Ġwherefore":2822,"Ġlaid":2823,"Ġtrib":2824,"Ġimport":2825,"Ġviol":2826,"'re":2827,"Take":2828,"reed":2829,"Ġevil":2830,"Ġur":2831,"idow":2832,"Ġstop":2833,"Ġuns":2834,"Ġbeggar":2835,"ĠAngel":2836,"Ġcourtes":2837,"Ġdefend":2838,"Ġsch":2839,"Ġbastard":2840,"Ġfled":2841,"Ġshore":2842,"Ġarg":2843,"Ġhadst":2844,"ĠVal":2845,"ĠMarcius":2846,"Ġbrain":2847,"Ġopinion":2848,"Ġsharp":2849,"ĠSuffolk":2850,"LES":2851,"gare":2852,"mn":2853,"Ġsland":2854,"Ġsix":2855,"rer":2856,"ters":2857,"Ġlived":2858,"ĠHamlet":2859,"usion":2860,"iful":2861,"Ġtry":2862,"Ġblame":2863,"ference":2864,"Ġoffic":2865,"Ġarmy":2866,"ĠAngelo":2867,"Madam":2868,"read":2869,"Ġlist":2870,"Ġshape":2871,"Ġvan":2872,"Ġcaptain":2873,"Marry":2874,"ws":2875,"Ġes":2876,"ounter":2877,"ators":2878,"Ġbeha":2879,"Ġpurse":2880,"Ġdrunk":2881,"ICK":2882,"phin":2883,"Ġjoin":2884,"uckingham":2885,"Yes":2886,"Ġhun":2887,"Ġgent":2888,"ĠCor":2889,"Ġdelight":2890,"ding":2891,"Ġwine":2892,"Ġgross":2893,"ĠHarry":2894,"ĠED":2895,"ĠMoor":2896,"ĠLuc":2897,"Ġthence":2898,"Ġwalls":2899,"Ġpubl":2900,"ĠRICHARD":2901,"garet":2902,"Ġmethinks":2903,"Ġwast":2904,"Ġhor":2905,"vell":2906,"Ġga":2907,"ĠAh":2908,"Ġstor":2909,"ĠShould":2910,"Ġref":2911,"ĠBuckingham":2912,"hose":2913,"Ġsirrah":2914,"Ġfolly":2915,"Ġchast":2916,"Ġrequest":2917,"Alas":2918,"RA":2919,"iv":2920,"ug":2921,"zen":2922,"ndeed":2923,"orthy":2924,"Ġheld":2925,"ley":2926,"entine":2927,"ĠSil":2928,"Ġreceive":2929,"Ġkneel":2930,"ustom":2931,"Ġtrain":2932,"joy":2933,"Ġfie":2934,"Ġdance":2935,"Ġnurse":2936,"Ġwealth":2937,"host":2938,"ĠPeace":2939,"Ġconce":2940,"ĠAnother":2941,"Ġdrawn":2942,"Ġpriest":2943,"Ġprisoner":2944,"Ġwounds":2945,"Ġcolour":2946,"Ġwretched":2947,"Ġsuccess":2948,"Ġpowers":2949,"Ġvir":2950,"cient":2951,"Ġleg":2952,"Ġstruck":2953,"ission":2954,"ĠMargaret":2955,"Ġrememb":2956,"comes":2957,"UM":2958,"par":2959,"Ġfi":2960,"Ġpet":2961,"Ġbecause":2962,"Ġinv":2963,"ĠAchilles":2964,"Ġreceived":2965,"Ġcontin":2966,"Ġpleased":2967,"Ġhumble":2968,"ĠCassius":2969,"Ha":2970,"Had":2971,"broke":2972,"een":2973,"more":2974,"phe":2975,"ys":2976,"Ġaught":2977,"Ġship":2978,"Ġmid":2979,"Ġobed":2980,"atri":2981,"Ġequ":2982,"ĠSh":2983,"ĠMake":2984,"ical":2985,"Ġswift":2986,"uthor":2987,"ĠAnton":2988,"Ġbroke":2989,"Ġmoved":2990,"Ġprotect":2991,"Ġtrumpet":2992,"ĠRosal":2993,"cus":2994,"Ġver":2995,"Ġbones":2996,"ĠJack":2997,"Ġwits":2998,"ĠLucius":2999,"Com":3000,"See":3001,"cul":3002,"ians":3003,"Ġclaim":3004,"Ġcunning":3005,"ester":3006,"Ġlend":3007,"Ġpure":3008,"Ġinj":3009,"lease":3010,"Ġeld":3011,"Ġdec":3012,"ĠCon":3013,"Ġknowledge":3014,"Ġgreater":3015,"Ġways":3016,"Ġremain":3017,"ancholy":3018,"Should":3019,"Ġtear":3020,"Ġthreat":3021,"Ġthird":3022,"ales":3023,"ĠSweet":3024,"ĠBel":3025,"ĠMust":3026,"icious":3027,"ago":3028,"Ġdispatch":3029,"Ġprivate":3030,"Ġseveral":3031,"house":3032,"erc":3033,"Ġcatch":3034,"Ġloud":3035,"edy":3036,"Ġfail":3037,"Ġfaire":3038,"Ġgoodly":3039,"bling":3040,"Ġprincely":3041,"chance":3042,"Ġcondition":3043,"Ġvisit":3044,"Ġcreature":3045,"Ġclear":3046,"Ġforbid":3047,"itizens":3048,"Ġed":3049,"Ġpun":3050,"ĠSince":3051,"ĠHast":3052,"Ġneck":3053,"Ġunf":3054,"Ġbestow":3055,"Ġstreet":3056,"airs":3057,"Ġembrace":3058,"de":3059,"mia":3060,"vail":3061,"ature":3062,"Ġmere":3063,"Ġyourselves":3064,"Ġdeare":3065,"Ġrasc":3066,"Ġdism":3067,"Ġhonours":3068,"ploy":3069,"Ġgreet":3070,"Ġdamn":3071,"Ġchoice":3072,"ĠSold":3073,"ĠSIR":3074,"Thus":3075,"bert":3076,"ocks":3077,"Ġborne":3078,"Ġmotion":3079,"ID":3080,"go":3081,"na":3082,"ollow":3083,"Ġfru":3084,"Ġlest":3085,"omer":3086,"ĠSal":3087,"ellow":3088,"auphin":3089,"Ġgreatness":3090,"ways":3091,"Ġhearing":3092,"ĠStand":3093,"uce":3094,"Ġtaste":3095,"ĠFort":3096,"Ġconj":3097,"Ġrough":3098,"Ġboys":3099,"Ġpromised":3100,"Ġterms":3101,"Out":3102,"UT":3103,"rt":3104,"ua":3105,"Ġwicked":3106,"Ġbare":3107,"Ġdies":3108,"Ġcamp":3109,"Ġthunder":3110,"cend":3111,"utation":3112,"Ġdeg":3113,"Ġancient":3114,"Ġrise":3115,"Ġblessed":3116,"Ġwhence":3117,"Ġendure":3118,"Ġcheeks":3119,"Tr":3120,"eg":3121,"woman":3122,"your":3123,"Ġcorn":3124,"Ġmem":3125,"Ġnecess":3126,"Ġexpect":3127,"Ġsmile":3128,"Ġutter":3129,"Ġbleed":3130,"Ġmelancholy":3131,"acle":3132,"iance":3133,"mp":3134,"take":3135,"vish":3136,"oral":3137,"arl":3138,"anio":3139,"Ġbend":3140,"ĠTower":3141,"Ġused":3142,"ident":3143,"Ġtrans":3144,"arent":3145,"Ġprecious":3146,"Ġcompl":3147,"Ġemp":3148,"Ġemploy":3149,"Ġholds":3150,"Ġadvantage":3151,"otten":3152,"Ġsummer":3153,"Ġdrop":3154,"Ġmalice":3155,"ĠChristian":3156,"Ġcourtesy":3157,"omerset":3158,":--":3159,"Ġauthor":3160,"Ġcat":3161,"ays":3162,"ament":3163,"ĠTheir":3164,"ĠFord":3165,"Ġblows":3166,"Ġcontr":3167,"ĠMark":3168,"Ġmonster":3169,"Ġforest":3170,"Ġsafety":3171,"EY":3172,"ich":3173,"Ġbount":3174,"Ġheels":3175,"ourse":3176,"ĠSomerset":3177,"ander":3178,"Ġlod":3179,"Ġcomple":3180,"ĠDauphin":3181,"hys":3182,"Ġusur":3183,"Ġrob":3184,"Ġlegs":3185,"Ġwrath":3186,"Ġcheek":3187,"TIO":3188,"Ġpersu":3189,"Ġbright":3190,"ughter":3191,"Ġproclaim":3192,"IM":3193,"Speak":3194,"Tell":3195,"Ġlarge":3196,"Ġgir":3197,"Ġstars":3198,"ĠSuch":3199,"Ġrevol":3200,"Ġdeal":3201,"Ġdebt":3202,"ĠMac":3203,"Ġmanners":3204,"Ġquite":3205,"Ġbearing":3206,"Ġtongues":3207,"Ġwrongs":3208,"ĠBrit":3209,"Ġgrows":3210,"ĠPrince":3211,"Ġdamned":3212,"Ġliberty":3213,"GAR":3214,"Make":3215,"Pray":3216,"cing":3217,"wise":3218,"llo":3219,"Ġowe":3220,"Ġmend":3221,"ĠCam":3222,"Ġspend":3223,"Ġshouldst":3224,"Ġcourage":3225,"Ġguilty":3226,"ruction":3227,"posed":3228,"ize":3229,"Ġwait":3230,"Since":3231,"mit":3232,"Ġow":3233,"ards":3234,"Ġrude":3235,"Ġchain":3236,"ĠAnne":3237,"Ġcolours":3238,"Ġoccasion":3239,"HAR":3240,"cum":3241,"ising":3242,"orous":3243,"Ġpol":3244,"Ġmeat":3245,"Ġnose":3246,"Ġanger":3247,"ifford":3248,"Ġamaz":3249,"Ġshepherd":3250,"Ġrans":3251,"Ġfoes":3252,"Ġwherein":3253,"Ġdesires":3254,"Ġswords":3255,"gues":3256,"Ġminister":3257,"Ġthrice":3258,"Ġshadow":3259,"ronic":3260,"strous":3261,"Ġencounter":3262,"Ġmour":3263,"Ġben":3264,"Ġfig":3265,"Ġpin":3266,"Ġheat":3267,"ĠAR":3268,"Ġshr":3269,"Ġmadness":3270,"Ġrogue":3271,"Ġawake":3272,"Ġpublic":3273,"IST":3274,"eous":3275,"mong":3276,"what":3277,"will":3278,"Ġsong":3279,"orge":3280,"Ġcried":3281,"Ġgain":3282,"iment":3283,"Ġstory":3284,"Ġsteel":3285,"ĠCall":3286,"Ġwash":3287,"Ġsail":3288,"Ġchall":3289,"Ġfears":3290,"Ġthrone":3291,"ĠAthens":3292,"Ġmaiden":3293,"ĠHero":3294,"Ġsilence":3295,"gypt":3296,"hysic":3297,"Must":3298,"ees":3299,"Ġfond":3300,"Ġdue":3301,"Ġport":3302,"Ġsto":3303,"ĠEgypt":3304,"ppy":3305,"Ġadieu":3306,"Ġrare":3307,"Ġbrothers":3308,"Ġslaughter":3309,"Ġprotest":3310,"Ġapproach":3311,"Ġexcuse":3312,"Ġvirgin":3313,"ĠAntonio":3314,"ED":3315,"his":3316,"jax":3317,"Ġaid":3318,"Ġsens":3319,"orious":3320,"Ġfought":3321,"Ġweary":3322,"ords":3323,"Ġknee":3324,"Ġfoe":3325,"Ġdesert":3326,"Ġrain":3327,"Ġkeeps":3328,"Ġrepent":3329,"Ġsilver":3330,"Ġidle":3331,"Ġpractise":3332,"Against":3333,"have":3334,"Ġthief":3335,"ating":3336,"ĠAgainst":3337,"Ġstuff":3338,"Ġseven":3339,"Ġdesperate":3340,"Ġoaths":3341,"ĠClifford":3342,"Ġdirect":3343,"Ġdishonour":3344,"Ġsolemn":3345,"ĠValentine":3346,"Faith":3347,"UL":3348,"Ġsli":3349,"Ġbrow":3350,"Ġfury":3351,"Ġdry":3352,"Ġyea":3353,"Ġhunt":3354,"Ġstain":3355,"ĠBl":3356,"Ġlover":3357,"ĠFal":3358,"Ġkna":3359,"ĠJO":3360,"orses":3361,"Ġreasons":3362,"Ġmonstrous":3363,"Ġmiser":3364,"Ah":3365,"aunt":3366,"ead":3367,"Ġfood":3368,"Ġfaint":3369,"Ġdwell":3370,"Ġcustom":3371,"Ġdoom":3372,"ĠRo":3373,"Ġquoth":3374,"Ġleis":3375,"RESS":3376,"fer":3377,"Ġwag":3378,"enance":3379,"Ġaside":3380,"ĠEarl":3381,"ĠMont":3382,"elve":3383,"oling":3384,"Ġfriar":3385,"ruly":3386,"Ġwanton":3387,"Ġprofess":3388,"Ġtowards":3389,"Such":3390,"aid":3391,"iol":3392,"rate":3393,"su":3394,"wixt":3395,"Ġfle":3396,"esides":3397,"Ġheed":3398,"Ġease":3399,"ĠBass":3400,"Ġtwice":3401,"Ġbetray":3402,"Ġglass":3403,"Ġlament":3404,"Ġransom":3405,"AB":3406,"UD":3407,"cil":3408,"thi":3409,"ounce":3410,"ination":3411,"Ġfame":3412,"Ġfew":3413,"Ġhol":3414,"ane":3415,"Ġformer":3416,"ĠHear":3417,"ĠHark":3418,"ĠBoling":3419,"Ġdoing":3420,"ified":3421,"Ġspring":3422,"Ġvows":3423,"Ġperfect":3424,"Ġimag":3425,"Ġfollows":3426,"ARDIN":3427,"Ġwinter":3428,"Ġfinger":3429,"ĠBolingbroke":3430,"Farewell":3431,"Pr":3432,"gle":3433,"Ġwhilst":3434,"Ġwidow":3435,"Ġod":3436,"Ġniece":3437,"Ġpot":3438,"Ġphysic":3439,"staff":3440,"Ġweight":3441,"Ġones":3442,"Ġwhether":3443,"Ġsheep":3444,"law":3445,"Ġunless":3446,"Ġcompan":3447,"Ġsmell":3448,"Ġfalls":3449,"Ġexpress":3450,"Ġcircum":3451,"Ġleisure":3452,"VIUS":3453,"dain":3454,"jo":3455,"kin":3456,"Ġtune":3457,"Ġbas":3458,"Ġfeet":3459,"Ġdust":3460,"Ġduc":3461,"omach":3462,"Ġkins":3463,"Ġvenge":3464,"Ġconc":3465,"icles":3466,"pped":3467,"Ġflat":3468,"Ġflowers":3469,"Ġparticul":3470,"ERT":3471,"Ġpaid":3472,"Ġlawful":3473,"Ġdreadful":3474,"Ġeasy":3475,"Ġsimple":3476,"Ġcounterfeit":3477,"Ġfruit":3478,"heart":3479,"Ġwives":3480,"aring":3481,"Ġtop":3482,"Ġstart":3483,"ĠHeaven":3484,"ĠBened":3485,"ĠFirst":3486,"Their":3487,"Ġearn":3488,"Ġwarlike":3489,"Ġguilt":3490,"Ġprincess":3491,"ointed":3492,"Ġsubjects":3493,"ĠROS":3494,"Ġremembrance":3495,"?'":3496,"RAN":3497,"can":3498,"der":3499,"fl":3500,"pir":3501,"ted":3502,"Ġwench":3503,"Ġdet":3504,"Ġyonder":3505,"Ġhit":3506,"ĠAjax":3507,"Ġmeant":3508,"road":3509,"Ġspent":3510,"ieur":3511,"Ġrid":3512,"Ġunha":3513,"Ġwitch":3514,"Ġnatural":3515,"Reads":3516,"Stand":3517,"upid":3518,"ASS":3519,"Ġforgive":3520,"Ġgallant":3521,"ĠLeon":3522,"Ġslander":3523,"Ġfiend":3524,"ĠSoldiers":3525,"mo":3526,"rat":3527,"Ġsqu":3528,"Ġfee":3529,"ĠIago":3530,"Ġled":3531,"ĠAb":3532,"Ġstone":3533,"Ġvent":3534,"Ġmayst":3535,"Ġdisgra":3536,"Ġprosper":3537,"Ġtwelve":3538,"Ġbegg":3539,"Ġconsider":3540,"Ġguest":3541,"Ġforsworn":3542,"Ġargument":3543,"balt":3544,"pers":3545,"ouds":3546,"Ġmessenger":3547,"Ġfain":3548,"itude":3549,"Ġnumber":3550,"Ġstomach":3551,"Ġreign":3552,"ĠCy":3553,"ĠLanc":3554,"Ġtrial":3555,"Ġtriumph":3556,"acher":3557,"Ġdeserve":3558,"Ġstudy":3559,"ĠLancaster":3560,"bar":3561,"iving":3562,"Ġfancy":3563,"enet":3564,"Ġbef":3565,"ĠAE":3566,"ills":3567,"ĠPR":3568,"ĠYea":3569,"Ġwhereof":3570,"Ġleaves":3571,"ĠAside":3572,"Ġcalled":3573,"Before":3574,"Ġkindness":3575,"Ġsooner":3576,"Ġconquer":3577,"safe":3578,"Ġneighbour":3579,"BY":3580,"after":3581,"ey":3582,"yond":3583,"Ġtable":3584,"reck":3585,"Ġbab":3586,"Ġhap":3587,"eds":3588,"Ġstol":3589,"Ġseat":3590,"Ġspite":3591,"ĠGreat":3592,"Ġshut":3593,"Ġconvey":3594,"Ġflood":3595,"Ġaffect":3596,"Ġfollowing":3597,"Ġcrowns":3598,"Ġbreathe":3599,"Ġslow":3600,"itting":3601,"ĠQu":3602,"Ġbroken":3603,"Ġvict":3604,"oteus":3605,"Ġexecution":3606,"ĠFortune":3607,"Away":3608,"Peace":3609,"Sweet":3610,"Ġcre":3611,"Ġcuck":3612,"amed":3613,"ĠNever":3614,"lace":3615,"Ġunp":3616,"Ġenjoy":3617,"allow":3618,"Ġrose":3619,"Ġremedy":3620,"Ġdiscourse":3621,"Ġweeping":3622,"Ġpossible":3623,"Ġcorrupt":3624,"ĠRosalind":3625,"AST":3626,"ault":3627,"do":3628,"iest":3629,"Ġwont":3630,"enant":3631,"lex":3632,"ams":3633,"Ġloyal":3634,"Ġspare":3635,"ĠPo":3636,"ĠGu":3637,"ĠDis":3638,"Ġgoodness":3639,"Ġbride":3640,"Ġdisple":3641,"Ġthinks":3642,"eeth":3643,"Ġflower":3644,"Ġcharity":3645,"aced":3646,"eterm":3647,"Ġwretch":3648,"ĠLEON":3649,"Ġjewel":3650,"ĠSilvia":3651,"Ġpunish":3652,"Ġbig":3653,"Ġdign":3654,"Ġlen":3655,"Ġstones":3656,"ĠCupid":3657,"ĠGe":3658,"Ġabroad":3659,"Ġemb":3660,"Ġthrive":3661,"Ġreverend":3662,"lo":3663,"oot":3664,"ping":3665,"ining":3666,"Ġcal":3667,"Ġcost":3668,"Ġline":3669,"omans":3670,"Ġweigh":3671,"Ġasleep":3672,"Ġdoors":3673,"Ġseason":3674,"ĠDoth":3675,"pping":3676,"elt":3677,"Ġflight":3678,"Ġwarm":3679,"ĠBecause":3680,"OLK":3681,"Ġmeaning":3682,"ĠProteus":3683,"Ġmirth":3684,"yram":3685,"Ġschool":3686,"Yea":3687,"erving":3688,"Ġfun":3689,"Ġdag":3690,"Ġhorses":3691,"Ġdoctor":3692,"ĠOff":3693,"ĠGre":3694,"Ġprod":3695,"Ġalways":3696,"Ġheavenly":3697,"Ġcountenance":3698,"Ġtrem":3699,"Ġsometime":3700,"Ġvoices":3701,"Ġsupper":3702,"Ġruin":3703,"Ġtyrant":3704,"OT":3705,"ib":3706,"vours":3707,"Ġdif":3708,"Ġcure":3709,"omp":3710,"utenant":3711,"idius":3712,"Ġstep":3713,"ĠCount":3714,"ĠMil":3715,"iling":3716,"arden":3717,"Ġsac":3718,"Ġhopes":3719,"Ġdisgu":3720,"Ġroot":3721,"ĠKnow":3722,"INE":3723,"Ġclot":3724,"Ġempt":3725,"Ġbelow":3726,"Ġlands":3727,"Ġbawd":3728,"asket":3729,"Ġtrumpets":3730,"Ġstorm":3731,"Ġdearest":3732,"erved":3733,"Ġfirm":3734,"Ġgown":3735,"ĠWelcome":3736,"ĠCle":3737,"Ġcomb":3738,"ĠNe":3739,"Ġswore":3740,"Ġhollow":3741,"ĠBeing":3742,"Ġsingle":3743,"Ġlearned":3744,"Ġdeserved":3745,"Ġlangu":3746,"ĠVenice":3747,"Ġgirl":3748,"Con":3749,"Pro":3750,"act":3751,"nat":3752,"oard":3753,"Ġteeth":3754,"Ġmain":3755,"Ġband":3756,"ences":3757,"Ġtomb":3758,"Ġgate":3759,"edious":3760,"rius":3761,"rible":3762,"Ġrealm":3763,"Ġdeceived":3764,"ĠCARDIN":3765,"Ġvouch":3766,"ĠPAG":3767,"oths":3768,"Ġunc":3769,"Ġenvy":3770,"udge":3771,"Ġclo":3772,"Ġclouds":3773,"Ġbegins":3774,"Ġhark":3775,"Because":3776,"Ġchief":3777,"Ġtail":3778,"twixt":3779,"Ġburied":3780,"Ġhappiness":3781,"Ġgriefs":3782,"Ġtempt":3783,"ĠANTONY":3784,"Ġprotector":3785,"Ġducats":3786,"ĠBenedick":3787,"ĠCARDINAL":3788,"ĠPAGE":3789,"val":3790,"Ġwings":3791,"Ġgrown":3792,"Ġloath":3793,"Ġknees":3794,"Ġdaughters":3795,"Ġtraitors":3796,"Ġhumbly":3797,"Ġstreets":3798,"Ġspoken":3799,"Ġaffairs":3800,"ĠFlourish":3801,"Ġrank":3802,"ĠJuliet":3803,"Ġcredit":3804,"Ġbenef":3805,"Ġparticular":3806,"ex":3807,"mund":3808,"uct":3809,"Ġing":3810,"Ġtedious":3811,"Ġaim":3812,"Ġable":3813,"Ġsal":3814,"Ġmild":3815,"Ġbought":3816,"Ġnine":3817,"anus":3818,"idings":3819,"ĠHold":3820,"Ġhers":3821,"Ġlovers":3822,"icy":3823,"Ġoutward":3824,"ption":3825,"Ġalas":3826,"Ġfright":3827,"ressid":3828,"Ġimper":3829,"Ġcontempt":3830,"aintain":3831,"ney":3832,"Ġguess":3833,"Ġtreacher":3834,"Ġsometimes":3835,"Ġfreely":3836,"Ġintent":3837,"ĠVII":3838,"Ġdespair":3839,"Ġundone":3840,"Lord":3841,"port":3842,"there":3843,"Ġdeterm":3844,"etween":3845,"Ġrenown":3846,"Ġallow":3847,"Ġfaces":3848,"Ġperil":3849,"Being":3850,"Ġtrick":3851,"Ġbids":3852,"Ġaccount":3853,"Ġbesides":3854,"ontent":3855,"Ġextrem":3856,"ĠCoriol":3857,"Ġearnest":3858,"him":3859,"vious":3860,"Ġmil":3861,"iny":3862,"Ġbuck":3863,"ĠAlex":3864,"ĠCO":3865,"Ġnobl":3866,"Ġshrew":3867,"ĠRomans":3868,"Ġgreatest":3869,"Ġplot":3870,"Ġserved":3871,"Ġmeeting":3872,"pense":3873,"STA":3874,"Ġdenied":3875,"ottom":3876,"Twas":3877,"Ġprofit":3878,"cape":3879,"umphrey":3880,"urious":3881,"ĠTitus":3882,"Ġtempest":3883,"Ġofficer":3884,"ivil":3885,"she":3886,"Ġtree":3887,"Ġwond":3888,"Ġborrow":3889,"Ġdig":3890,"Ġhaz":3891,"ĠTIT":3892,"Ġdece":3893,"ĠCressid":3894,"Ġvice":3895,"bled":3896,"Ġminds":3897,"Ġboot":3898,"ĠPercy":3899,"Ġunkind":3900,"hum":3901,"Ġaud":3902,"haps":3903,"Ġbark":3904,"isbury":3905,"iter":3906,"Ġcher":3907,"Ġnought":3908,"Ġnaked":3909,"Ġthick":3910,"Ġpack":3911,"Ġbell":3912,"Ġeag":3913,"ades":3914,"Ġreward":3915,"ursed":3916,"Ġangel":3917,"ĠLy":3918,"ĠNothing":3919,"ĠYOR":3920,"Ġsaying":3921,"igence":3922,"cian":3923,"Ġlean":3924,"Ġflies":3925,"ctions":3926,"Ġwomb":3927,"Ġdeadly":3928,"Ġhanged":3929,"Ġtemper":3930,"ĠPrithee":3931,"Ġestate":3932,"Ġabsence":3933,"ĠTybalt":3934,"ĠCharles":3935,"Ġinnocent":3936,"ISTRESS":3937,"Ġvengeance":3938,"yramus":3939,"ĠYORK":3940,"bles":3941,"beth":3942,"dem":3943,"hor":3944,"Ġwide":3945,"Ġpound":3946,"cel":3947,"ĠAm":3948,"ĠEp":3949,"ĠCLE":3950,"ĠMISTRESS":3951,"Ġseas":3952,"Ġknife":3953,"ĠDem":3954,"ĠDian":3955,"Ġexam":3956,"Ġprevail":3957,"Ġappears":3958,"Ġdisposition":3959,"Ġsuddenly":3960,"Ġquality":3961,"ĠFalstaff":3962,"Call":3963,"Doth":3964,"Hear":3965,"bear":3966,"iar":3967,"Ġz":3968,"Ġtidings":3969,"Ġmess":3970,"Ġmaking":3971,"inius":3972,"Ġhid":3973,"Ġpress":3974,"Ġghost":3975,"etrius":3976,"Ġmelt":3977,"tern":3978,"Ġrender":3979,"Ġlock":3980,"ĠPri":3981,"inds":3982,"ement":3983,"Ġblest":3984,"Ġbrings":3985,"Ġjoint":3986,"Ġcommission":3987,"oses":3988,"Ġcover":3989,"ethought":3990,"Ġvirtues":3991,"ĠEdmund":3992,"Ġsickness":3993,"sooth":3994,"Ġconstant":3995,"Ġregard":3996,"Ġforbear":3997,"Ġsighs":3998,"Ġsatisfied":3999,"Ġapart":4000,"Ġacquaint":4001,"atrice":4002,"Ġempress":4003,"rough":4004,"sc":4005,"Ġsalt":4006,"ision":4007,"Ġfish":4008,"Ġfurn":4009,"Ġcere":4010,"Ġcries":4011,"Ġcivil":4012,"Ġgarden":4013,"ĠTH":4014,"ĠHumphrey":4015,"ĠCOR":4016,"Ġsearch":4017,"Ġplead":4018,"Ġprevent":4019,"Ġimm":4020,"Ġcompass":4021,"Ġvillany":4022,"atience":4023,"Ġstranger":4024,"Ġwinds":4025,"Ġcrack":4026,"Ġrule":4027,"Ġtyran":4028,"ĠLUCIUS":4029,"Ġthroat":4030,"Ġviolent":4031,"Ġrascal":4032,"Ġauthority":4033,".--":4034,"AC":4035,"DY":4036,"UFF":4037,"folk":4038,"net":4039,"son":4040,"shi":4041,"Ġapt":4042,"isho":4043,"Ġloose":4044,"Ġincl":4045,"imer":4046,"Ġspake":4047,"antag":4048,"Ġshed":4049,"Ġcapt":4050,"akest":4051,"Ġflourish":4052,"Ġappre":4053,"ĠCaius":4054,"Ġbeloved":4055,"Ġmischief":4056,"Ġcouncil":4057,"Ġprophe":4058,"ĠSalisbury":4059,"ĠMontag":4060,"Ca":4061,"draw":4062,"eat":4063,"Ġwol":4064,"Ġhoney":4065,"Ġpict":4066,"ĠAg":4067,"ĠSp":4068,"verse":4069,"Ġant":4070,"ĠFare":4071,"Ġsack":4072,"Ġwhis":4073,"Ġarmour":4074,"ĠMarcus":4075,"!'\"":4076,"Ġmodesty":4077,"Ġchallenge":4078,"ĠLeonat":4079,"Ġleng":4080,"Fl":4081,"Hold":4082,"UG":4083,"WICK":4084,"bus":4085,"hither":4086,"Ġtort":4087,"inate":4088,"Ġdurst":4089,"Ġnames":4090,"Ġgaz":4091,"omas":4092,"athar":4093,"Ġbecomes":4094,"illo":4095,"ĠWhom":4096,"cket":4097,"ĠMAC":4098,"ctav":4099,"ĠPyramus":4100,"Ġswell":4101,"Ġbrook":4102,"ĠVol":4103,"Ġperj":4104,"Ġwhither":4105,"Ġpurcha":4106,"Ġends":4107,"ĠItal":4108,"Ġundertake":4109,"Ġthrust":4110,"Ġtreasure":4111,"twill":4112,"UCK":4113,"ISH":4114,"Ġdrops":4115,"Ġobject":4116,"Ġsuspect":4117,"Ġignorant":4118,"Ġequal":4119,"Ġcontrary":4120,"Ġempty":4121,"ope":4122,"Ġhig":4123,"Ġthie":4124,"ĠSen":4125,"Ġsore":4126,"ĠAndronic":4127,"ĠDost":4128,"Ġmerit":4129,"Ġseeming":4130,"clock":4131,"ĠTroj":4132,"Ġcondemn":4133,"Ġconduct":4134,"Ġskill":4135,"Ġambition":4136,"Ġmemory":4137,"Dis":4138,"Whom":4139,"ipe":4140,"rs":4141,"ront":4142,"oured":4143,"Ġsy":4144,"Ġwing":4145,"Ġwake":4146,"Ġcease":4147,"Ġpie":4148,"idence":4149,"rived":4150,"ĠMen":4151,"ĠMort":4152,"Ġlovely":4153,"icate":4154,"ARWICK":4155,"ESAR":4156,"Ġglorious":4157,"Ġtrif":4158,"Ġbodies":4159,"ĠNorfolk":4160,"ĠAlarum":4161,"Ġbird":4162,"Ġdivine":4163,"Ġoffended":4164,"ĠUnless":4165,"Ġmountain":4166,"Ġobedience":4167,"UTUS":4168,"Ġcomplex":4169,"Ġkinsman":4170,"ĠGeorge":4171,"Ġsacred":4172,"ISHOP":4173,"Ab":4174,"Ġsides":4175,"Ġpage":4176,"ances":4177,"Ġhabit":4178,"ĠWARWICK":4179,"ĠBR":4180,"ĠBoy":4181,"Ġspe":4182,"Ġvar":4183,"Ġunb":4184,"Ġdisdain":4185,"Ġearly":4186,"Ġprize":4187,"Ġimposs":4188,"Ġexcept":4189,"Ġgarments":4190,"Ġattempt":4191,"Ġgifts":4192,"ĠCAESAR":4193,"ĠMacbeth":4194,"Ġvictory":4195,"HN":4196,"eld":4197,"look":4198,"time":4199,"rees":4200,"Ġbade":4201,"Ġbrows":4202,"Ġcup":4203,"Ġbew":4204,"Ġforfeit":4205,"ria":4206,"Ġreck":4207,"ording":4208,"Ġliest":4209,"ored":4210,"ĠBian":4211,"ĠFair":4212,"ĠPoor":4213,"Ġshot":4214,"Ġtherein":4215,"ĠRich":4216,"eless":4217,"ĠThink":4218,"ĠThomas":4219,"INIUS":4220,"INCE":4221,"Ġcoz":4222,"Ġcursed":4223,"Ġassure":4224,"Ġassured":4225,"ETH":4226,"ETR":4227,"Ġsentence":4228,"Ġadvance":4229,"Ġmurderer":4230,"Ġmarket":4231,"Ġreverence":4232,"Ġlimbs":4233,"UNT":4234,"Ġfiery":4235,"Ġsmooth":4236,"Ġbehalf":4237,"ĠDemetrius":4238,"iver":4239,"ped":4240,"ĠHal":4241,"ĠOctav":4242,"ĠPet":4243,"Ġblush":4244,"forth":4245,"Ġfollowers":4246,"ĠStay":4247,"Ġcrave":4248,"CA":4249,"Into":4250,"NO":4251,"rim":4252,"ras":4253,"Ġsits":4254,"Ġmiss":4255,"Ġmaintain":4256,"inite":4257,"inia":4258,"ĠInto":4259,"Ġpat":4260,"Ġstock":4261,"ĠSAL":4262,"ĠMal":4263,"romio":4264,"ĠPost":4265,"Ġchair":4266,"Ġparty":4267,"ĠBeatrice":4268,"Ġladyship":4269,"ĠCaptain":4270,"ĠCapit":4271,"ĠMars":4272,"Ġbrains":4273,"Ġservants":4274,"Ġtread":4275,"ails":4276,"ĠHermia":4277,"hamber":4278,"Ġbeaten":4279,"Ġdevice":4280,"umberland":4281,"ridge":4282,"demona":4283,"vous":4284,"Ġcam":4285,"etter":4286,"ĠWilt":4287,"rald":4288,"ĠSe":4289,"ros":4290,"Ġsuck":4291,"ĠGet":4292,"Ġpron":4293,"Ġrash":4294,"ody":4295,"Ġeng":4296,"Ġquit":4297,"Ġabused":4298,"ĠKathar":4299,"Ġparted":4300,"Ġclim":4301,"Ġreputation":4302,"Ġsmiles":4303,"Ġpair":4304,"Ġretire":4305,"change":4306,"Ġesteem":4307,"Ġshortly":4308,"Ġdespite":4309,"Ġresolved":4310,"Ġdares":4311,"Ġhorns":4312,"ĠAndronicus":4313,"ĠBRUTUS":4314,"ĠCapitol":4315,"aul":4316,"how":4317,"kind":4318,"lock":4319,"mond":4320,"rust":4321,"uge":4322,"hest":4323,"Ġavo":4324,"Ġmag":4325,"Ġwaste":4326,"ndy":4327,"Ġfro":4328,"Ġfix":4329,"Ġpear":4330,"Ġpier":4331,"Ġpainted":4332,"Ġinfect":4333,"Ġinform":4334,"ĠTw":4335,"Ġisland":4336,"raid":4337,"ĠSha":4338,"hiles":4339,"ĠCLA":4340,"uns":4341,"Ġsuper":4342,"ĠFri":4343,"cted":4344,"Ġven":4345,"ieved":4346,"ember":4347,"Ġcave":4348,"Ġsav":4349,"ENCE":4350,"Ġprovo":4351,"alls":4352,"cial":4353,"Ġraise":4354,"ERN":4355,"ERS":4356,"Ġprefer":4357,"onsieur":4358,"Ġconfirm":4359,"umpet":4360,"ELLO":4361,"ĠBrook":4362,"UCH":4363,"Ġbuild":4364,"Ġadvice":4365,"ized":4366,"chant":4367,"Ġinfinite":4368,"Ġdreams":4369,"Ġaffli":4370,"avinia":4371,"Ġfatal":4372,"Ġdegree":4373,"Ġamazed":4374,"ĠJOHN":4375,"natural":4376,"antagenet":4377,"ĠMontague":4378,"ĠMortimer":4379,"ĠBianca":4380,"ĠCLAUD":4381,"First":4382,"HAM":4383,"Never":4384,"sing":4385,"Ġwither":4386,"Ġfits":4387,"Ġcool":4388,"Ġcock":4389,"Ġherald":4390,"ĠBur":4391,"roach":4392,"Ġshallow":4393,"ĠPER":4394,"Ġride":4395,"Ġserp":4396,"Ġafraid":4397,"Ġcloud":4398,"Ġdearly":4399,"Ġturns":4400,"Ġsorrows":4401,"Ġwoes":4402,"Ġburning":4403,"ĠHastings":4404,"Ġdagger":4405,"Ġhazard":4406,"Hark":4407,"bours":4408,"dge":4409,"pic":4410,"rous":4411,"which":4412,"hend":4413,"Ġsan":4414,"Ġsour":4415,"Ġwreck":4416,"Ġdumb":4417,"Ġcell":4418,"ĠIndeed":4419,"ening":4420,"Ġbeyond":4421,"utes":4422,"Ġwea":4423,"ado":4424,"asy":4425,"entio":4426,"alks":4427,"eave":4428,"earer":4429,"Ġsees":4430,"ĠOCT":4431,"this":4432,"ilius":4433,"Ġrhy":4434,"Ġsway":4435,"Ġhereafter":4436,"Ġgraces":4437,"lesome":4438,"Ġbred":4439,"ĠMarch":4440,"Ġcharm":4441,"Ġchanged":4442,"Ġdischar":4443,"Ġmisery":4444,"Ġmaids":4445,"gundy":4446,"Ġdarest":4447,"Ġprisoners":4448,"Ġwax":4449,"prise":4450,"ĠArt":4451,"Ġgroan":4452,"Ġframe":4453,"Unless":4454,"Ġvex":4455,"ĠScot":4456,"ĠDesdemona":4457,"Ġknaves":4458,"Ġodds":4459,"ĠBurgundy":4460,"ĠOCTA":4461,"co":4462,"lic":4463,"some":4464,"shall":4465,"reak":4466,"Ġfif":4467,"Ġdying":4468,"Ġcens":4469,"Ġpick":4470,"uts":4471,"Ġforsooth":4472,"ĠEre":4473,"ĠCo":4474,"ĠFollow":4475,"ĠDromio":4476,"Ġtrade":4477,"inking":4478,"Ġalike":4479,"Ġbetwixt":4480,"Ġbegu":4481,"Ġfriendship":4482,"Ġvillains":4483,"otted":4484,"Ġminute":4485,"Ġdevise":4486,"ĠCamillo":4487,"Ġpolicy":4488,"Ad":4489,"Know":4490,"iam":4491,"iate":4492,"nock":4493,"ta":4494,"Ġiron":4495,"Ġyo":4496,"Ġpil":4497,"omed":4498,"Ġinvent":4499,"adies":4500,"rain":4501,"uring":4502,"ĠBISHOP":4503,"Ġdeer":4504,"ĠCal":4505,"iliar":4506,"asting":4507,"olute":4508,"ENT":4509,"erest":4510,"Ġfairly":4511,"INA":4512,"ĠUnder":4513,"Ġchide":4514,"sander":4515,"ETER":4516,"Ġrevenged":4517,"Ġuntil":4518,"Ġmodest":4519,"Ġfairest":4520,"Ġrevolt":4521,"Ġdispleasure":4522,"Welcome":4523,"ban":4524,"gen":4525,"wor":4526,"Ġeter":4527,"inous":4528,"Ġwants":4529,"Ġsooth":4530,"ĠBa":4531,"ĠMine":4532,"Ġspr":4533,"Ġves":4534,"ĠPAR":4535,"ĠDi":4536,"ĠRem":4537,"Ġworthi":4538,"Ġheav":4539,"Ġnorth":4540,"ĠCap":4541,"ĠWithout":4542,"Ġnative":4543,"Ġslew":4544,"Ġmonument":4545,"ĠNorth":4546,"Ġsky":4547,"Ġunknown":4548,"ĠGentlemen":4549,"Ġprepared":4550,"Ġmidnight":4551,"ĠBassanio":4552,"ĠLEONAT":4553,"Ġthieves":4554,"?--":4555,"ION":4556,"Under":4557,"WARD":4558,"sp":4559,"uf":4560,"wear":4561,"Ġsnow":4562,"Ġfin":4563,"Ġder":4564,"Ġnumb":4565,"Ġparent":4566,"ĠAL":4567,"aded":4568,"rand":4569,"ĠBo":4570,"ĠBar":4571,"roll":4572,"ĠMusic":4573,"amour":4574,"ung":4575,"unate":4576,"thur":4577,"ĠFie":4578,"ENTIO":4579,"Ġheartily":4580,"Ġfathers":4581,"Ġrock":4582,"Ġtells":4583,"lip":4584,"Ġgentlewoman":4585,"Ġprey":4586,"ertes":4587,"Ġconsul":4588,"Ġpeers":4589,"Ġbanqu":4590,"INGHAM":4591,"Ġcountrymen":4592,"Ġsenate":4593,"Ġbabe":4594,"bitious":4595,"volio":4596,"Ġcuckold":4597,"zz":4598,"Ġtaught":4599,"hether":4600,"Ġfant":4601,"sequ":4602,"Ġstaff":4603,"ĠEn":4604,"Ġripe":4605,"Ġprayer":4606,"Ġappare":4607,"Ġputs":4608,"ĠBring":4609,"Ġdiscover":4610,"Ġsounds":4611,"ĠMARK":4612,"ĠProv":4613,"Ġgrieve":4614,"ĠPlantagenet":4615,"Ġmonths":4616,"Ġchaste":4617,"Ġfigure":4618,"ĠOffic":4619,"Ġvessel":4620,"Great":4621,"VIA":4622,"ded":4623,"faced":4624,"nal":4625,"ton":4626,"Ġtest":4627,"Ġtide":4628,"inct":4629,"Ġfate":4630,"Ġcitizens":4631,"Ġpor":4632,"ator":4633,"ĠTime":4634,"ĠAp":4635,"uted":4636,"Ġev":4637,"oops":4638,"Ġweeds":4639,"adua":4640,"ases":4641,"Ġste":4642,"Ġstat":4643,"Ġstroke":4644,"ĠSat":4645,"ĠSyra":4646,"ĠOR":4647,"thou":4648,"Ġshine":4649,"seless":4650,"iege":4651,"Ġswallow":4652,"igious":4653,"Ġunnatural":4654,"Ġjour":4655,"Ġsaved":4656,"Ġspeaking":4657,"Ġalter":4658,"Ġalthough":4659,"assad":4660,"ĠKent":4661,"Ġperforce":4662,"ONIUS":4663,"ĠWithin":4664,"Ġrepair":4665,"Ġslight":4666,"Ġsleeping":4667,"uteous":4668,"Ġattended":4669,"Ġhateful":4670,"Ġaccept":4671,"ĠServants":4672,"Ġblessing":4673,"Ġfierce":4674,"Ġelder":4675,"Ġedge":4676,"Ġbounty":4677,"Ġmourn":4678,"ERTR":4679,"Ġclothes":4680,"ishop":4681,"Ġcomplexion":4682,"Ġimpossible":4683,"ĠDiomed":4684,"Bel":4685,"af":4686,"mend":4687,"place":4688,"Ġtarry":4689,"Ġbite":4690,"Ġfart":4691,"Ġcrow":4692,"Ġdogs":4693,"Ġsell":4694,"ĠLavinia":4695,"Ġvol":4696,"ĠPis":4697,"ĠPRO":4698,"ĠGR":4699,"Ġmarks":4700,"ĠSirrah":4701,"Ġdevils":4702,"Stay":4703,"ĠQue":4704,"ĠMARC":4705,"Ġprivile":4706,"Ġfingers":4707,"Ġdisgrace":4708,"Ġpicture":4709,"Ġwhisper":4710,"Br":4711,"De":4712,"Nothing":4713,"dis":4714,"Ġsaint":4715,"Ġbind":4716,"Ġcla":4717,"Ġcalm":4718,"ency":4719,"arm":4720,"oment":4721,"ater":4722,"ĠThose":4723,"ĠAfter":4724,"rib":4725,"urance":4726,"Ġwilling":4727,"Ġdew":4728,"ĠMerc":4729,"Ġbutcher":4730,"ĠFran":4731,"ĠLest":4732,"Ġfavours":4733,"ĠPlease":4734,"ĠPadua":4735,"Ġnegle":4736,"outs":4737,"Think":4738,"ĠVer":4739,"Ġfairy":4740,"Ġimage":4741,"Ġpurp":4742,"Ġfinds":4743,"ĠUnto":4744,"Ġlieutenant":4745,"ORA":4746,"Ġkilled":4747,",'\"":4748,"hesus":4749,"ĠWilliam":4750,"itten":4751,"ĠMARGAR":4752,"Ġbanishment":4753,"Ġadmir":4754,"ĠLucentio":4755,"Ġbenefit":4756,"Ġspecial":4757,"Ġpronounce":4758,"Ġbanquet":4759,"DR":4760,"Des":4761,"ald":4762,"father":4763,"ivers":4764,"pul":4765,"ris":4766,"Ġtame":4767,"Ġscept":4768,"Ġbury":4769,"Ġdim":4770,"Ġhill":4771,"Ġisle":4772,"Ġeight":4773,"Ġstick":4774,"ĠServing":4775,"ĠHence":4776,"roy":4777,"asted":4778,"ĠDen":4779,"Ġfox":4780,"Without":4781,"Ġcoff":4782,"Ġconfound":4783,"Ġsleeps":4784,"Ġbanished":4785,"Ġintell":4786,"Ġdarkness":4787,"ĠFlore":4788,"ĠLADY":4789,"Ġfamiliar":4790,"ĠRichmond":4791,"ĠNorthumberland":4792,"BU":4793,"Fie":4794,"Unto":4795,"action":4796,"acy":4797,"cis":4798,"gan":4799,"oll":4800,"rument":4801,"Ġtask":4802,"held":4803,"Ġsand":4804,"Ġmoment":4805,"Ġbottom":4806,"Ġfelt":4807,"Ġodd":4808,"Ġyond":4809,"Ġyester":4810,"Ġnice":4811,"Ġnaught":4812,"Ġpour":4813,"Ġpomp":4814,"omin":4815,"ĠWin":4816,"urk":4817,"ĠBoth":4818,"ĠBUCK":4819,"uses":4820,"ĠCould":4821,"gels":4822,"Ġsple":4823,"ĠPand":4824,"ĠPardon":4825,"ĠGU":4826,"Ġnephe":4827,"ĠDO":4828,"ĠDou":4829,"ntil":4830,"ĠRet":4831,"ĠToby":4832,"Ġseeing":4833,"Ġung":4834,"Ġsau":4835,"Ġhandker":4836,"Ġwrought":4837,"INC":4838,"Ġappet":4839,"ĠHereford":4840,"ELL":4841,"Ġfaithful":4842,"apons":4843,"Ġinstrument":4844,"Ġsends":4845,"elsh":4846,"Ġdelay":4847,"Ġknights":4848,"ĠArthur":4849,"Ġcreatures":4850,"ĠGreek":4851,"Ġignorance":4852,"Ġtribunes":4853,"Ġconceit":4854,"cules":4855,"Ġunfold":4856,"Ġnecessity":4857,"Ġdifference":4858,"ĠEphesus":4859,"ĠVols":4860,"Ġreckon":4861,"ufidius":4862,"ĠMARGARET":4863,"BURY":4864,"ĠBUCKINGHAM":4865,"good":4866,"Ġbent":4867,"Ġpill":4868,"Ġeast":4869,"ourt":4870,"Ġweather":4871,"Ġweapons":4872,"Ġseest":4873,"ĠPeter":4874,"ept":4875,"Ġworm":4876,"Ġenvious":4877,"Ġproved":4878,"Ġcler":4879,"Ġhangs":4880,"Ġdefence":4881,"Ġlamb":4882,"ĠGentleman":4883,"Ġentertainment":4884,"Ġnobility":4885,"ĠPRINCE":4886,"ĠLysander":4887,"Ġlength":4888,"ĠQueen":4889,"Indeed":4890,"Lest":4891,"Master":4892,"TEN":4893,"bow":4894,"light":4895,"love":4896,"ruch":4897,"ugg":4898,"ym":4899,"oun":4900,"Ġmart":4901,"ino":4902,"Ġfil":4903,"Ġdot":4904,"arus":4905,"aries":4906,"atra":4907,"Ġink":4908,"Ġhail":4909,"illing":4910,"Ġforces":4911,"ĠWales":4912,"ĠWelsh":4913,"hers":4914,"Ġstret":4915,"ĠSUFF":4916,"Ġrepe":4917,"Ġrecom":4918,"Ġlip":4919,"ĠCASS":4920,"ĠMade":4921,"ilia":4922,"ĠLie":4923,"Ġvantage":4924,"Ġsweat":4925,"Ġdiss":4926,"ared":4927,"Ġpocket":4928,"Ġabuse":4929,"Ġplant":4930,"Ġtwain":4931,"ĠKAT":4932,"overed":4933,"fty":4934,"Ġplaces":4935,"Ġremains":4936,"Ġglove":4937,"retion":4938,"blood":4939,"Ġhuman":4940,"Ġsecure":4941,"Ġslaves":4942,"Ġhardly":4943,"ranio":4944,"Ġexceed":4945,"opatra":4946,"upiter":4947,"Ġmouths":4948,"Ġundo":4949,"Ġfeather":4950,"Ġpleasures":4951,"iddle":4952,"Ġnobles":4953,"Ġusurp":4954,"ĠBritain":4955,"Ġconcern":4956,"Ġdisguised":4957,"Ġmilk":4958,"Ġshrewd":4959,"Ġpieces":4960,"Ġsanct":4961,"ĠOCTAVIUS":4962,"Ġpurposes":4963,"ruchio":4964,"ĠSUFFOLK":4965,"boy":4966,"Ġmood":4967,"Ġmult":4968,"Ġbelly":4969,"Ġinher":4970,"ĠAmen":4971,"ĠAufidius":4972,"Ġrejo":4973,"think":4974,"ĠPut":4975,"ĠPOL":4976,"ĠDies":4977,"Ġsacri":4978,"Ġthinking":4979,"Ġabhor":4980,"Ġfriendly":4981,"ĠKeep":4982,"Ġflow":4983,"Ġscene":4984,"Ġcontract":4985,"Ġslept":4986,"Ġresc":4987,"ĠHercules":4988,"Ġcommanded":4989,"Ġruns":4990,"Ġsilent":4991,"ĠANTONIO":4992,"Ġsenses":4993,"Ġcompanion":4994,"Ġcircumstance":4995,"Ġlanguage":4996,"Ar":4997,"After":4998,"Both":4999,"IG":5000,"LY":5001,"Made":5002,"Per":5003,"RI":5004,"fold":5005,"long":5006,"leness":5007,"mes":5008,"pet":5009,"ubert":5010,"vior":5011,"Ġmass":5012,"itable":5013,"Ġlun":5014,"Ġyes":5015,"Ġhind":5016,"Ġpause":5017,"Ġhaunt":5018,"Ġdeb":5019,"ĠMe":5020,"ĠMethinks":5021,"Ġnobly":5022,"Ġangels":5023,"ouses":5024,"Ġworn":5025,"Ġroar":5026,"ression":5027,"Ġraven":5028,"ANIO":5029,"Ġharsh":5030,"Ġglo":5031,"Ġpassage":5032,"Ġkindly":5033,"thello":5034,"Ġassist":5035,"Ġpraised":5036,"ALSTA":5037,"Ġlaws":5038,"Ġadvise":5039,"Ġstronger":5040,"Ġcommonwe":5041,"Ġrecover":5042,"Ġwounded":5043,"Alarum":5044,"ĠClown":5045,"Ġexped":5046,"Ġoppos":5047,"ĠPericles":5048,"Ġgroans":5049,"mediate":5050,"Ġpitch":5051,"Ġmiserable":5052,"ABEL":5053,"hearted":5054,"humus":5055,"Caesar":5056,"Ġavoid":5057,"ĠKATHAR":5058,"ALSTAFF":5059,"En":5060,"Ere":5061,"Mine":5062,"des":5063,"eve":5064,"just":5065,"pro":5066,"would":5067,"Ġtall":5068,"Ġbot":5069,"Ġstab":5070,"ĠBan":5071,"ĠBesides":5072,"ĠOthello":5073,"ĠFALSTAFF":5074,"ĠPhi":5075,"Ġambitious":5076,"Ġrotten":5077,"Ġblown":5078,"Ġcares":5079,"pper":5080,"irect":5081,"ĠJupiter":5082,"Ġdescend":5083,"Ġotherwise":5084,"Ġrail":5085,"Ġarmed":5086,"Ġprick":5087,"Ġsubstance":5088,"Ġadvised":5089,"Ġshift":5090,"Ġbooks":5091,"ĠLaun":5092,"Ġdrive":5093,"Ġconjure":5094,"Ġunhappy":5095,"Ġdignity":5096,"Ġvouchsafe":5097,"ĠTITUS":5098,"ĠPriam":5099,"ĠItaly":5100,"Ġapparel":5101,"BETH":5102,"IEL":5103,"LAND":5104,"Qu":5105,"Those":5106,"While":5107,"aw":5108,"came":5109,"col":5110,"gn":5111,"pass":5112,"Ġsink":5113,"Ġwhip":5114,"Ġwrest":5115,"Ġburt":5116,"orat":5117,"Ġluck":5118,"onest":5119,"arrow":5120,"Ġgather":5121,"ĠWhile":5122,"Ġkin":5123,"ĠSle":5124,"urb":5125,"aine":5126,"ested":5127,"amemn":5128,"Ġamiss":5129,"Ġgodd":5130,"ĠNOR":5131,"emper":5132,"Ġsayest":5133,"Ġalarum":5134,"Ġmarvel":5135,"tled":5136,"Ġperish":5137,"Ġprepar":5138,"ANUS":5139,"Ġcourtier":5140,"Ġstays":5141,"ĠStill":5142,"ELIA":5143,"ĠReads":5144,"ILIA":5145,"ATRA":5146,"Ġpleasant":5147,"Ġaffections":5148,"OPATRA":5149,"reedom":5150,"ĠMilan":5151,"ĠCleopatra":5152,"Ġmessage":5153,"Ġtorture":5154,"ĠMACBETH":5155,"ĠPosthumus":5156,"Ġsavage":5157,"Ġnumbers":5158,"ABELLA":5159,"amemnon":5160,"cuse":5161,"then":5162,"Ġsings":5163,"ishes":5164,"Ġhuge":5165,"otion":5166,"Ġfors":5167,"Ġwears":5168,"Ġstore":5169,"Ġstoop":5170,"Ġsoci":5171,"ĠCL":5172,"ĠLong":5173,"Ġshri":5174,"Ġconference":5175,"Ġunse":5176,"Ġenforce":5177,"Ġaboard":5178,"Ġleague":5179,"Ġserves":5180,"Ġyounger":5181,"Ġaccuse":5182,"Ġsurely":5183,"omething":5184,"Ġwindow":5185,"Ġinstru":5186,"hamed":5187,"Ġredeem":5188,"Ġconstable":5189,"Ġdrums":5190,"Ġbeasts":5191,"ĠCLEOPATRA":5192,"Flourish":5193,"ĠOfficers":5194,"Ġhandkerchief":5195,"Ġsacrif":5196,"Could":5197,"Pl":5198,"QU":5199,"bell":5200,"dle":5201,"pier":5202,"zed":5203,"Ġach":5204,"Ġmoral":5205,"ora":5206,"iting":5207,"Ġheight":5208,"Ġhall":5209,"leans":5210,"irty":5211,"ĠBid":5212,"Ġwillingly":5213,"Ġspl":5214,"ĠLadies":5215,"ĠGoths":5216,"Ġshown":5217,"quire":5218,"Ġarrest":5219,"ortens":5220,"igo":5221,"oder":5222,"ENC":5223,"Ġquench":5224,"cians":5225,"Ġperhaps":5226,"Ġnights":5227,"ERO":5228,"chester":5229,"ANS":5230,"ewis":5231,"Ġservices":5232,"Ġcharged":5233,"Ġearthly":5234,"Ġsubtle":5235,"Ġfalsehood":5236,"Ġadvent":5237,"CTOR":5238,"Ġstrain":5239,"Ġtemple":5240,"Ġcholer":5241,"Ġrecord":5242,"Ġdeserves":5243,"cription":5244,"Ġshoot":5245,"Ġacquainted":5246,"ĠEDWARD":5247,"Ġfairer":5248,"Ġcreep":5249,"Ġacquaintance":5250,"Ġserpent":5251,"ĠCapu":5252,"Ġappetite":5253,"Ġgoddess":5254,"'\"":5255,"ser":5256,"wife":5257,"Ġtou":5258,"Ġsought":5259,"Ġsins":5260,"Ġbag":5261,"Ġoak":5262,"ĠTranio":5263,"Ġstub":5264,"ĠHubert":5265,"Ġblus":5266,"eliver":5267,"Ġexper":5268,"Ġwholesome":5269,"Ġchase":5270,"Ġdesign":5271,"Ġpartly":5272,"Ġcommitted":5273,"ĠWherein":5274,"ĠOrleans":5275,"Ġenterprise":5276,"Ġboast":5277,"Ġgrey":5278,"Ġreading":5279,"Ġwishes":5280,"Ġbarren":5281,"Ġsigns":5282,"Ġliberal":5283,"Ġwedding":5284,"ĠLaertes":5285,"Ġunworthy":5286,"Ġjealousy":5287,"Ġwondrous":5288,"Ġfurnish":5289,"ĠAgamemnon":5290,"ĠTrojan":5291,"ĠPetruchio":5292,"ĠMalvolio":5293,"ĠFrancis":5294,"Ġsceptre":5295,"DER":5296,"EB":5297,"Fair":5298,"bble":5299,"gon":5300,"rison":5301,"ux":5302,"Ġtro":5303,"rease":5304,"reland":5305,"rels":5306,"hand":5307,"Ġbore":5308,"Ġdow":5309,"ĠIreland":5310,"Ġpee":5311,"ative":5312,"lend":5313,"Ġforced":5314,"rike":5315,"ĠBEL":5316,"rog":5317,"ĠCHAR":5318,"ĠFaith":5319,"Ġknit":5320,"arded":5321,"ĠNature":5322,"ptist":5323,"Ġexchange":5324,"Ġalso":5325,"Ġrobb":5326,"ARENCE":5327,"Ġado":5328,"Ġafear":5329,"Ġstanding":5330,"Ġcoat":5331,"ĠWherefore":5332,"Ġtricks":5333,"Ġpassing":5334,"Ġturned":5335,"TIAN":5336,"Ġaccus":5337,"aples":5338,"Ġstrife":5339,"Ġsenators":5340,"Ġwaters":5341,"Ġdepend":5342,"Ġgarland":5343,"Ġguarded":5344,"IANA":5345,"Ġmistake":5346,"ĠTrue":5347,"Ġsatisfaction":5348,"kedom":5349,"ĠJulia":5350,"Ġambassad":5351,"Ġtorch":5352,"Ġdukedom":5353,"Ġpetition":5354,"IMON":5355,"Prithee":5356,"Ġflatt":5357,"Ġstolen":5358,"Ġtremble":5359,"ĠCOUNT":5360,"Ġzeal":5361,"Ġtyranny":5362,"picion":5363,"Ġyoke":5364,"ĠProvost":5365,"Ġspleen":5366,"oratio":5367,"ortensio":5368,"ĠCapulet":5369,"Ġpeevish":5370,"Heaven":5371,"app":5372,"gged":5373,"mark":5374,"Ġet":5375,"Ġsine":5376,"Ġmill":5377,"Ġthorn":5378,"Ġthrown":5379,"omen":5380,"sell":5381,"Ġashamed":5382,"ĠHEL":5383,"ĠCitizens":5384,"ĠLO":5385,"ĠLewis":5386,"Ġknot":5387,"Ġperfection":5388,"Ġchid":5389,"they":5390,"Ġbelong":5391,"Ġvillan":5392,"Ġmonarch":5393,"Ġterm":5394,"Ġcoron":5395,"Ġmedic":5396,"ĠGrecian":5397,"ĠBaptist":5398,"ĠCLARENCE":5399,"BUS":5400,"BER":5401,"Me":5402,"Methinks":5403,"Pardon":5404,"bes":5405,"cest":5406,"cence":5407,"new":5408,"Ġbay":5409,"Ġfret":5410,"Ġfront":5411,"Ġdress":5412,"Ġnation":5413,"Ġhie":5414,"Ġpaint":5415,"Ġtoil":5416,"inger":5417,"stain":5418,"ĠTom":5419,"ldom":5420,"ĠApp":5421,"uties":5422,"Ġsting":5423,"Ġstamp":5424,"rac":5425,"ĠSOM":5426,"Ġspur":5427,"ĠFORD":5428,"ĠLo":5429,"Ġamen":5430,"ously":5431,"ĠDraw":5432,"ĠNaples":5433,"resent":5434,"Ġconven":5435,"Ġknowing":5436,"Ġthereof":5437,"quo":5438,"ques":5439,"ferent":5440,"oler":5441,"Ġbrid":5442,"istol":5443,"Ġcharac":5444,"aged":5445,"Ġkey":5446,"Ġbegan":5447,"osing":5448,"Ġremorse":5449,"ĠIsab":5450,"forced":5451,"Ġsmiling":5452,"Ġtravel":5453,"Ġtravell":5454,"Ġconfusion":5455,"Ġkindred":5456,"Ġneedful":5457,"Ġhelm":5458,"Ġdiscretion":5459,"Ġsounded":5460,"Ġkisses":5461,"Ġbirds":5462,"Ġruled":5463,"voc":5464,"Ġobserv":5465,"Ġerror":5466,"Ġwhiles":5467,"Ġgait":5468,"celot":5469,"ĠTwo":5470,"Ġfifty":5471,"Ġeternal":5472,"Ġjourney":5473,"Ġnephew":5474,"Ġsaucy":5475,"ĠSlender":5476,"Ġafeard":5477,"Ne":5478,"live":5479,"off":5480,"Ġsiege":5481,"Ġbon":5482,"Ġbill":5483,"Ġfed":5484,"arried":5485,"stant":5486,"ĠTam":5487,"ĠWest":5488,"Ġstage":5489,"ĠBra":5490,"ĠBear":5491,"ĠMurd":5492,"thing":5493,"Ġsup":5494,"Ġrouse":5495,"Ġshoulders":5496,"Ġabide":5497,"Ġappointed":5498,"Ġclock":5499,"Ġbread":5500,"Ġbreach":5501,"Ġgiving":5502,"Ġwisely":5503,"Ġcombat":5504,"Ġwolf":5505,"Ġhigher":5506,"Ġprivilege":5507,"Ġstubborn":5508,"ĠBaptista":5509,"EUS":5510,"Lo":5511,"Poor":5512,"Too":5513,"fellow":5514,"give":5515,"master":5516,"should":5517,"scape":5518,"te":5519,"upt":5520,"xford":5521,"Ġtut":5522,"Ġstern":5523,"Ġmask":5524,"Ġwest":5525,"Ġbur":5526,"isible":5527,"orough":5528,"Ġfla":5529,"Ġcorse":5530,"Ġhur":5531,"Ġpate":5532,"illon":5533,"ĠEm":5534,"ĠMess":5535,"Ġancest":5536,"geon":5537,"Ġlovest":5538,"Ġspurn":5539,"Ġspace":5540,"Ġsuits":5541,"Ġfares":5542,"Ġrust":5543,"Ġtroop":5544,"Ġcaught":5545,"Ġarch":5546,"aker":5547,"Ġpoet":5548,"aug":5549,"Ġserious":5550,"Ġwarri":5551,"Ġcouldst":5552,"Ġremoved":5553,"Ġmerri":5554,"Ġcoll":5555,"Ġplays":5556,"ĠAthen":5557,"Ġstream":5558,"Ġvalue":5559,"Ġstrive":5560,"Ġjoyful":5561,"Ġweeps":5562,"Ġforeign":5563,"ĠQU":5564,"Ġparley":5565,"soever":5566,"Twere":5567,"Ġvisage":5568,"Ġtowns":5569,"ĠHelp":5570,"Ġgranted":5571,"Ġships":5572,"Ġshield":5573,"Ġresolution":5574,"Ġabsolute":5575,"erers":5576,"Ġeasily":5577,"Ġdaily":5578,"Ġtorment":5579,"Ġpetty":5580,"Ġobedient":5581,"mongst":5582,"Ġcloak":5583,"ĠCoriolanus":5584,"Ġeagle":5585,"Ġpurchase":5586,"Ġvenom":5587,"ERSET":5588,"Ġcensure":5589,"Ġstretch":5590,"oderigo":5591,"ĠSOMERSET":5592,"Am":5593,"Bring":5594,"Hel":5595,"Rem":5596,"SP":5597,"br":5598,"hra":5599,"lain":5600,"maid":5601,"rite":5602,"Ġbasket":5603,"Ġfreedom":5604,"Ġnon":5605,"ĠSet":5606,"Ġliqu":5607,"Ġaspect":5608,"Ġspit":5609,"Ġrum":5610,"Ġtrim":5611,"udd":5612,"Ġlooked":5613,"lied":5614,"Wherein":5615,"Ġhumours":5616,"Ġpalm":5617,"Ġproport":5618,"Ġpitiful":5619,"Ġabsent":5620,"Ġtroubled":5621,"Ġpossession":5622,"Ġjewels":5623,"ĠShow":5624,"Ġprodig":5625,"ĠLeonato":5626,"Ġclimb":5627,"ĠBohe":5628,"ĠWinchester":5629,"Ġburthen":5630,"LET":5631,"OG":5632,"bridge":5633,"cap":5634,"lse":5635,"oon":5636,"uries":5637,"Ġav":5638,"oubt":5639,"Ġwand":5640,"Ġwander":5641,"Ġball":5642,"Ġbull":5643,"Ġburst":5644,"isons":5645,"Ġope":5646,"Ġcrest":5647,"Ġlent":5648,"Ġnet":5649,"Ġnim":5650,"Ġnails":5651,"Ġgoose":5652,"Ġbeheld":5653,"illain":5654,"Ġwithdraw":5655,"ĠST":5656,"Ġreach":5657,"Ġlift":5658,"ĠHoratio":5659,"ĠHortensio":5660,"ĠMON":5661,"ĠOLI":5662,"Ġshun":5663,"Ġrat":5664,"Ġblunt":5665,"ica":5666,"Ġcann":5667,"fered":5668,"Ġunm":5669,"Ġlooking":5670,"Ġparting":5671,"together":5672,"Ġscour":5673,"ĠThisby":5674,"Ġended":5675,"Ġcurst":5676,"Ġcurses":5677,"Ġcurrent":5678,"clam":5679,"Ġimprison":5680,"Ġhenceforth":5681,"Ġstrew":5682,"ICLES":5683,"Ġcommands":5684,"Ġjoys":5685,"Ġspoil":5686,"Ġlately":5687,"Ġinterest":5688,"Ġdelicate":5689,"noon":5690,"prus":5691,"Two":5692,"Ġincen":5693,"Ġhairs":5694,"Ġgrievous":5695,"Ġseverally":5696,"Ġlusty":5697,"Ġconquest":5698,"LIFF":5699,"Ġinvisible":5700,"Ġbefall":5701,"Ġaudience":5702,"Ġapprehend":5703,"ĠSenators":5704,"Ġrhyme":5705,"Ġpreparation":5706,"ĠMONT":5707,"'?":5708,"Dost":5709,"Put":5710,"cer":5711,"lus":5712,"mony":5713,"upon":5714,"war":5715,"zy":5716,"Ġwail":5717,"Ġfran":5718,"ĠIS":5719,"Ġwept":5720,"Ġrece":5721,"ĠHost":5722,"ĠEither":5723,"aming":5724,"Ġalleg":5725,"ĠOxford":5726,"ĠFool":5727,"ĠGra":5728,"ĠGaunt":5729,"ĠRep":5730,"eling":5731,"Ġgraves":5732,"Ġhears":5733,"Ġleap":5734,"Ġleads":5735,"Ġwritten":5736,"Ġstrumpet":5737,"Ġperchance":5738,"Ġscru":5739,"Ġadvers":5740,"Ġmerchant":5741,"Ġpawn":5742,"Ġpeas":5743,"clus":5744,"Ġdiscontent":5745,"Sirrah":5746,"Ġcarried":5747,"Ġterror":5748,"Ġbravely":5749,"Ġcorre":5750,"Ġpenny":5751,"Ġfeeling":5752,"ĠOnly":5753,"Ġago":5754,"ĠTyre":5755,"Ġamongst":5756,"Ġconclude":5757,"Ġconclusion":5758,"Ġsuspicion":5759,"Ġgently":5760,"Ġcontinue":5761,"Ġexample":5762,"Ġcamest":5763,"ĠPERICLES":5764,"Ġinstruct":5765,"Art":5766,"IOL":5767,"OW":5768,"cra":5769,"chamber":5770,"foot":5771,"grim":5772,"mian":5773,"sire":5774,"than":5775,"upp":5776,"where":5777,"Ġir":5778,"Ġtum":5779,"Ġaunt":5780,"Ġbud":5781,"Ġcand":5782,"Ġnest":5783,"Ġhom":5784,"arro":5785,"Ġtow":5786,"Ġtoken":5787,"ĠTO":5788,"ĠToo":5789,"Ġweek":5790,"Ġsteed":5791,"ĠSH":5792,"ĠSic":5793,"Ġsoil":5794,"Ġload":5795,"Ġsuc":5796,"ĠPho":5797,"ardol":5798,"ustice":5799,"ressed":5800,"Ġtroops":5801,"Ġtheme":5802,"ĠRoderigo":5803,"Ġtheirs":5804,"Ġkingly":5805,"ARBUS":5806,"Ġcommit":5807,"Ġlap":5808,"Ġplaced":5809,"Ġpace":5810,"Ġtrees":5811,"Ġhusbands":5812,"Ġoverth":5813,"Ġlights":5814,"Ġslay":5815,"Ġbank":5816,"Ġhanging":5817,"Ġbeauteous":5818,"Ġcrying":5819,"Ġfields":5820,"iety":5821,"Ġterrible":5822,"Ġbarbar":5823,"ĠMARIA":5824,"ISBURY":5825,"Ġestim":5826,"Ġquarter":5827,"Ġbeholding":5828,"Ġcloset":5829,"Ġactions":5830,"Ġaddition":5831,"Ġfamous":5832,"EMETR":5833,"Ġprovide":5834,"urio":5835,"Ġgovernment":5836,"Ġdestroy":5837,"Ġurged":5838,"Ġrefuse":5839,"Ġinjury":5840,"ĠBelieve":5841,"True":5842,"ĠRobert":5843,"Ġfleet":5844,"ĠCyprus":5845,"Ġhaply":5846,"Ġcalf":5847,"ĠVIII":5848,"indsor":5849,"ĠSALISBURY":5850,"Ġweapon":5851,"IOLANUS":5852,"ardolph":5853,"EMETRIUS":5854,"Keep":5855,"Love":5856,"Wilt":5857,"bin":5858,"bon":5859,"sha":5860,"Ġmile":5861,"Ġwink":5862,"itness":5863,"Ġnun":5864,"Ġgidd":5865,"Ġinward":5866,"ĠTurn":5867,"Ġnotice":5868,"Ġrend":5869,"Ġliking":5870,"ĠHAM":5871,"Ġdozen":5872,"Ġdecl":5873,"ĠMight":5874,"Ġspy":5875,"ĠFear":5876,"ĠPort":5877,"Ġshook":5878,"ĠDEMETRIUS":5879,"ĠNone":5880,"Ġarrived":5881,"ĠThree":5882,"ounded":5883,"Ġcommons":5884,"ĠAntip":5885,"Ġprice":5886,"Ġaccident":5887,"Ġassurance":5888,"Ġmisc":5889,"Ġsupply":5890,"Ġincrease":5891,"standing":5892,"Ġbleeding":5893,"Ġtreacherous":5894,"ĠCORIOLANUS":5895,"Ġfarther":5896,"ĠPOLONIUS":5897,"ĠLauncelot":5898,"ĠBohemia":5899,"ĠISABELLA":5900,"ĠHAMLET":5901,"Mark":5902,"chard":5903,"ez":5904,"nz":5905,"tic":5906,"tles":5907,"Ġtaking":5908,"Ġaged":5909,"reme":5910,"Ġoce":5911,"Ġdun":5912,"Ġdote":5913,"Ġlower":5914,"Ġlaughter":5915,"aron":5916,"vels":5917,"ank":5918,"atro":5919,"ĠAG":5920,"ĠAlack":5921,"Ġevent":5922,"Ġforty":5923,"ĠWindsor":5924,"asca":5925,"Ġstro":5926,"urvy":5927,"ĠBAST":5928,"ĠEX":5929,"room":5930,"ĠMant":5931,"ĠMEN":5932,"Ġseize":5933,"ĠOnce":5934,"Ġsue":5935,"ilful":5936,"Ġmanhood":5937,"Ġcomest":5938,"ĠDon":5939,"ived":5940,"ivered":5941,"Ġoracle":5942,"elia":5943,"Ġshoulder":5944,"Ġdissem":5945,"ĠMyself":5946,"ĠKENT":5947,"Ġflout":5948,"Ġraised":5949,"Ġappla":5950,"lando":5951,"Ġcontro":5952,"Ġbeget":5953,"osop":5954,"Ġbrace":5955,"ORTI":5956,"Ġgrat":5957,"Ġgild":5958,"umpets":5959,"Ġdrew":5960,"Ġpraises":5961,"ALB":5962,"Ġjustly":5963,"acles":5964,"Still":5965,"Ġstrongly":5966,"ILUS":5967,"ĠArm":5968,"hilosop":5969,"Ġredress":5970,"ROILUS":5971,"Ġveins":5972,"ĠCAP":5973,"Ġobsc":5974,"pollo":5975,"ĠAdieu":5976,"headed":5977,"ĠGreeks":5978,"Ġurge":5979,"Ġeldest":5980,"Ġpersuade":5981,"Ġpinch":5982,"mogen":5983,"Ġprosperous":5984,"Ġdeceit":5985,"Ġceremony":5986,"Ġperjured":5987,"Ġdischarge":5988,"Ġpilgrim":5989,"ĠSyracuse":5990,"Ġrecompense":5991,"ĠBanquo":5992,"ĠTamora":5993,"Ġsucceed":5994,"atroclus":5995,"ĠBASTARD":5996,"Bl":5997,"Either":5998,"Hang":5999,"acc":6000,"abs":6001,"fed":6002,"fall":6003,"iven":6004,"ips":6005,"hel":6006,"inent":6007,"Ġwot":6008,"Ġburd":6009,"Ġfan":6010,"Ġcro":6011,"ĠInd":6012,"ĠImogen":6013,"Ġtooth":6014,"athe":6015,"cellent":6016,"ĠTROILUS":6017,"ĠWhither":6018,"asp":6019,"Ġlikes":6020,"Ġassem":6021,"ĠHy":6022,"Ġwills":6023,"Ġdeceive":6024,"ĠCade":6025,"unken":6026,"ĠLay":6027,"ĠPaul":6028,"ĠNurse":6029,"venge":6030,"Ġunjust":6031,"Ġperf":6032,"Ġrapier":6033,"Ġbraw":6034,"ĠStep":6035,"Ġlesser":6036,"Thanks":6037,"Ġcarri":6038,"Ġcorp":6039,"Ġcowards":6040,"Ġrebell":6041,"Ġwhoreson":6042,"Ġthroats":6043,"Ġdestruction":6044,"ĠEDGAR":6045,"ĠARIEL":6046,"Ġtailor":6047,"ĠKatharina":6048,"ĠFriar":6049,"BARBUS":6050,"DEN":6051,"FORD":6052,"Save":6053,"aches":6054,"cate":6055,"ele":6056,"ique":6057,"ratch":6058,"side":6059,"scri":6060,"wing":6061,"Ġsouth":6062,"eral":6063,"ĠIAG":6064,"Ġyellow":6065,"owl":6066,"atic":6067,"Ġbelike":6068,"lean":6069,"adle":6070,"ĠWhilst":6071,"idus":6072,"Ġstale":6073,"rial":6074,"ĠHo":6075,"ĠHail":6076,"ĠBIAN":6077,"Ġdeaf":6078,"ĠENO":6079,"Ġshare":6080,"Ġshapes":6081,"Ġseldom":6082,"Ġvoy":6083,"iel":6084,"Ġhated":6085,"Ġsirs":6086,"ĠExeter":6087,"Ġbru":6088,"Ġseeks":6089,"Ġlikewise":6090,"Ġunl":6091,"Ġexile":6092,"Ġoffices":6093,"oyal":6094,"ĠJa":6095,"ARUS":6096,"ĠVery":6097,"Ġfairies":6098,"Myself":6099,"ONG":6100,"chess":6101,"Ġimmediate":6102,"Ġbegun":6103,"Ġremove":6104,"Ġnewly":6105,"Ġmerc":6106,"Ġdrunken":6107,"ĠOrlando":6108,"Ġafternoon":6109,"Ġcouch":6110,"Ġcheque":6111,"Ġlightning":6112,"Ġyouthful":6113,"Ġbox":6114,"Ġdesired":6115,"Ġgrowing":6116,"Ġdraws":6117,"Ġlearning":6118,"prised":6119,"Ġdivor":6120,"Ġresolve":6121,"Ġapace":6122,"Ġobserve":6123,"Ġbreeding":6124,"Ġrebels":6125,"ĠDeath":6126,"Ġforswear":6127,"Ġwhipped":6128,"glas":6129,"ĠHelena":6130,"Ġgrandam":6131,"Ġschol":6132,"Ġimagination":6133,"Ġpotent":6134,"Ġloyalty":6135,"logue":6136,"Ġextremity":6137,"Ġpierce":6138,"Ġinvention":6139,"ĠLEONATO":6140,"ERTRAM":6141,"ĠDouglas":6142,"hersites":6143,"Ġinherit":6144,"ĠIsabel":6145,"ĠAthenian":6146,"clamation":6147,"ĠIAGO":6148,"ĠBIANCA":6149,"ĠENOBARBUS":6150,"Besides":6151,"Fear":6152,"ares":6153,"oe":6154,"Ġale":6155,"Ġbol":6156,"Ġlying":6157,"Ġnap":6158,"ĠAcc":6159,"ĠHang":6160,"ĠBERTRAM":6161,"ĠEros":6162,"ĠMonsieur":6163,"Ġsem":6164,"uned":6165,"ĠPol":6166,"Ġrhe":6167,"ased":6168,"Ġperpet":6169,"wards":6170,"Ġwhit":6171,"Ġpursue":6172,"Ġendea":6173,"Ġbidding":6174,"Ġbreaks":6175,"Ġinstrum":6176,"Ġroyalty":6177,"Ġexcell":6178,"Ġmetal":6179,"Ġdistress":6180,"Ġbargain":6181,"Ġgrandsire":6182,"ĠSaturn":6183,"ĠPisanio":6184,"ĠHELEN":6185,"Ġallegiance":6186,"Ġinstruments":6187,"Bid":6188,"Hast":6189,"Please":6190,"Whilst":6191,"bol":6192,"gentle":6193,"rish":6194,"sion":6195,"xcom":6196,"Ġtied":6197,"Ġax":6198,"Ġalack":6199,"Ġming":6200,"Ġmakest":6201,"reg":6202,"Ġfever":6203,"itch":6204,"itic":6205,"Ġdine":6206,"eseech":6207,"Ġlines":6208,"Ġnamed":6209,"Ġthread":6210,"Ġphilosop":6211,"stit":6212,"ĠTruly":6213,"ĠTurk":6214,"utch":6215,"illy":6216,"Ġug":6217,"Ġstum":6218,"riend":6219,"orenz":6220,"ĠBARD":6221,"ĠCasca":6222,"andal":6223,"Ġspread":6224,"ĠLear":6225,"hant":6226,"ĠGon":6227,"ĠGhost":6228,"Ġshines":6229,"antus":6230,"Ġamend":6231,"ĠDOM":6232,"Ġconceive":6233,"emantus":6234,"Ġrush":6235,"nty":6236,"Ġorchard":6237,"epidus":6238,"Ġthane":6239,"Ġbran":6240,"ignty":6241,"Ġhole":6242,"Ġoutra":6243,"Ġbetimes":6244,"Ġlev":6245,"lipp":6246,"Ġscore":6247,"Ġsweetly":6248,"ONA":6249,"Ġpreserve":6250,"Ġpursu":6251,"ĠMarina":6252,"OLPH":6253,"neas":6254,"Ġcoast":6255,"Ġguide":6256,"atient":6257,"Ġstrang":6258,"Ġaccused":6259,"Ġbreathed":6260,"Ġbush":6261,"ably":6262,"Ġboots":6263,"Ġstrangely":6264,"Ġgrew":6265,"Ġtalking":6266,"Ġcounsell":6267,"Ġdefy":6268,"Ġsupposed":6269,"Ġsisters":6270,"Ġwoful":6271,"Ġsignify":6272,"ĠAttendant":6273,"Ġbosoms":6274,"Ġweakness":6275,"Ġopposed":6276,"Ġsufferance":6277,"Ġshadows":6278,"IRON":6279,"Ġsecrets":6280,"Ġmarching":6281,"Ġmiracle":6282,"Ġeffects":6283,"ITIUS":6284,"ĠAdam":6285,"ĠCharmian":6286,"Ġtribute":6287,"Ġbehavior":6288,"Ġconditions":6289,"Ġowes":6290,"ULET":6291,"Ġimperial":6292,"Ġcherish":6293,"ĠDiana":6294,"Ġimmortal":6295,"UGH":6296,"Ġgaze":6297,"Ġtrifle":6298,"Ġpearl":6299,"ĠScotland":6300,"Believe":6301,"Ġyesterday":6302,"Ġcommonwealth":6303,"Ġopposite":6304,"Ġocean":6305,"ĠCAPULET":6306,"orenzo":6307,"ĠBARDOLPH":6308,"ĠDOMITIUS":6309,"Follow":6310,"Gentle":6311,"Might":6312,"Makes":6313,"None":6314,"Turn":6315,"overy":6316,"roth":6317,"roof":6318,"same":6319,"Ġought":6320,"Ġte":6321,"Ġwore":6322,"Ġward":6323,"orp":6324,"Ġhy":6325,"Ġpull":6326,"Ġphra":6327,"stone":6328,"sec":6329,"ĠHugh":6330,"ĠCorn":6331,"ĠMakes":6332,"ĠGar":6333,"Ġrate":6334,"ulf":6335,"quis":6336,"ĠRE":6337,"ĠRous":6338,"Ġswears":6339,"Ġdisci":6340,"Ġdisease":6341,"Ġprocess":6342,"Ġaloud":6343,"Ġaltogether":6344,"ickle":6345,"ĠYoung":6346,"Ġearl":6347,"ĠBehold":6348,"Ġeverl":6349,"Ġcontents":6350,"Ġnatures":6351,"Item":6352,"them":6353,"Ġbusy":6354,"Ġrunning":6355,"ĠThanks":6356,"Ġmettle":6357,"Ġworking":6358,"Ġinfirm":6359,"Ġdeputy":6360,"Ġinterp":6361,"Only":6362,"Ġsatisfy":6363,"Ġmutiny":6364,"Ġofficers":6365,"Ġsteps":6366,"ĠVerona":6367,"Ġrejoice":6368,"Ġvillanous":6369,"Ġgiddy":6370,"ĠPortia":6371,"Ġphrase":6372,"Alack":6373,"MILIA":6374,"Sha":6375,"YM":6376,"ection":6377,"lter":6378,"oft":6379,"rity":6380,"voy":6381,"Ġtur":6382,"Ġbrown":6383,"erle":6384,"Ġlark":6385,"Ġpite":6386,"Ġgame":6387,"athed":6388,"Ġbeams":6389,"ĠThersites":6390,"Ġnoted":6391,"Ġstout":6392,"ric":6393,"rive":6394,"ram":6395,"ĠSave":6396,"ĠSIL":6397,"Ġlivery":6398,"ĠBiron":6399,"ĠBardolph":6400,"Ġwillow":6401,"ĠEMILIA":6402,"ĠCry":6403,"ĠCons":6404,"ĠCAT":6405,"essica":6406,"thought":6407,"Ġspect":6408,"ĠFL":6409,"ĠLY":6410,"ĠLeave":6411,"ĠLepidus":6412,"Ġfact":6413,"Ġvul":6414,"ĠPH":6415,"ĠGON":6416,"Ġmanif":6417,"Ġgoss":6418,"Ġruff":6419,"ulate":6420,"Ġtrunk":6421,"Ġthereby":6422,"umed":6423,"Ġblue":6424,"icient":6425,"Ġswain":6426,"Ġorn":6427,"ĠThurio":6428,"igent":6429,"Ġexpl":6430,"ĠJessica":6431,"ioch":6432,"Ġfearing":6433,"Ġscatter":6434,"Ġscope":6435,"Ġrack":6436,"Ġkeen":6437,"ERD":6438,"Ġpreced":6439,"Ġappoint":6440,"Ġharbour":6441,"aints":6442,"Ġpurs":6443,"Ġrepose":6444,"OLLES":6445,"Ġindign":6446,"Ġcoin":6447,"Ġcoxcom":6448,"Ġmothers":6449,"blance":6450,"thee":6451,"Ġtax":6452,"ension":6453,"ĠANG":6454,"Ġaccess":6455,"Ġaccursed":6456,"Ġsubd":6457,"Ġbreathing":6458,"ĠDoctor":6459,"Ġthankful":6460,"Ġstrikes":6461,"Ġcraves":6462,"Ġcraft":6463,"Ġdistemper":6464,"Ġdelivered":6465,"Ġskin":6466,"Ġsovereignty":6467,"Ġcontented":6468,"Ġrequite":6469,"Ġdrinking":6470,"ĠProceed":6471,"Ġprophes":6472,"Ġkingdoms":6473,"Ġshade":6474,"remio":6475,"Ġprovided":6476,"rumio":6477,"Ġinstantly":6478,"Ġevils":6479,"Ġlodge":6480,"Ġmiseries":6481,"ĠAEneas":6482,"Ġbabes":6483,"Ġtreachery":6484,"Ġrenowned":6485,"Ġvarlet":6486,"ĠPAROLLES":6487,"ĠApemantus":6488,"Ġintelligence":6489,"ĠGUIL":6490,"Ġclerk":6491,"ĠCOUNTESS":6492,"Ġnimble":6493,"ĠEXETER":6494,"ĠMantua":6495,"Ġvoyage":6496,"!--\"":6497,"Acc":6498,"Bear":6499,"Set":6500,"fast":6501,"know":6502,"ming":6503,"yet":6504,"yard":6505,"Ġtres":6506,"Ġmethought":6507,"repare":6508,"Ġnarrow":6509,"Ġhouses":6510,"Ġthirty":6511,"Ġpest":6512,"Ġbere":6513,"ĠAng":6514,"Ġec":6515,"keep":6516,"ĠWor":6517,"ĠWhiles":6518,"Ġstocks":6519,"ĠOld":6520,"ĠPart":6521,"Ġamends":6522,"Ġconsequ":6523,"Ġrub":6524,"Ġje":6525,"Ġens":6526,"Ġexerc":6527,"Ġroaring":6528,"Ġtelling":6529,"Ġwrink":6530,"Ġapparent":6531,"Ġbegot":6532,"Ġgrass":6533,"Ġsleeve":6534,"Ġmatters":6535,"Ġwronged":6536,"Ġbeside":6537,"Ġdivers":6538,"Ġbreaking":6539,"Ġsenseless":6540,"Ġpoints":6541,"Ġpenit":6542,"ĠCannot":6543,"Ġclean":6544,"ĠCAIUS":6545,"Cannot":6546,"Ġhungry":6547,"ivity":6548,"Ġdismiss":6549,"Ġdirectly":6550,"Ġwager":6551,"Ġbeggars":6552,"ĠOctavia":6553,"nocking":6554,"Ġrescue":6555,"Ġbottle":6556,"Ġsociety":6557,"Ġsacrifice":6558,"Ġmedicine":6559,"Ġproportion":6560,"Ġfrank":6561,"ĠAntipho":6562,"Ġdiscipl":6563,"App":6564,"BAN":6565,"Ret":6566,"Very":6567,"bation":6568,"den":6569,"fess":6570,"mm":6571,"mission":6572,"nel":6573,"ogue":6574,"run":6575,"sen":6576,"tered":6577,"ule":6578,"uced":6579,"Ġvers":6580,"Ġtim":6581,"Ġtal":6582,"inary":6583,"Ġbul":6584,"Ġox":6585,"Ġdil":6586,"Ġpul":6587,"Ġpush":6588,"oten":6589,"Ġbeds":6590,"ĠTars":6591,"ĠAaron":6592,"ĠApollo":6593,"Ġforms":6594,"ourn":6595,"tery":6596,"Ġsty":6597,"ril":6598,"rief":6599,"Ġrev":6600,"Ġlions":6601,"Ġliken":6602,"ĠHim":6603,"ĠBetween":6604,"Ġdeck":6605,"amond":6606,"ĠOli":6607,"Ġvault":6608,"ĠPO":6609,"ĠPatroclus":6610,"ĠGremio":6611,"Ġamorous":6612,"ĠDear":6613,"Ġgoods":6614,"Ġrites":6615,"ulous":6616,"umes":6617,"Ġblast":6618,"Ġblaz":6619,"icle":6620,"Ġarise":6621,"Ġworks":6622,"Ġlikely":6623,"Ġquest":6624,"Ġdeaths":6625,"lius":6626,"liament":6627,"Ġriches":6628,"chel":6629,"ianus":6630,"Ġanswers":6631,"Ġyoungest":6632,"Ġpasses":6633,"Ġresist":6634,"Ġthrong":6635,"Ġcouple":6636,"Ġaccom":6637,"ĠBrother":6638,"aph":6639,"Ġburial":6640,"Ġstrict":6641,"STERN":6642,"Ġprompt":6643,"Ġpromises":6644,"Ġcomforts":6645,"Ġdoubtful":6646,"Ġsuppose":6647,"Ġattending":6648,"Ġinfant":6649,"Ġrecon":6650,"Ġyielded":6651,"Ġrequire":6652,"Ġwonderful":6653,"Ġburns":6654,"Ġapprove":6655,"withstanding":6656,"Ġgroom":6657,"Ġbonds":6658,"Ġwriting":6659,"ossom":6660,"Ġdirection":6661,"eneath":6662,"Ġinsol":6663,"ursions":6664,"THELLO":6665,"Ġconclud":6666,"Ġhorrible":6667,"Ġconceal":6668,"Ġdecay":6669,"Ġgreeting":6670,"Ġcomplain":6671,"Ġlodging":6672,"Ġministers":6673,"Ġslip":6674,"ĠAlexand":6675,"shire":6676,"Ġfrost":6677,"ĠCLAUDIO":6678,"Ġneglect":6679,"ĠDenmark":6680,"ĠPandarus":6681,"ĠVolsces":6682,"eptune":6683,"Ġdowry":6684,"uptial":6685,"Ġstrokes":6686,"DENSTERN":6687,"ĠHELENA":6688,"Ġaxe":6689,"Ġugly":6690,"ĠGUILDENSTERN":6691,"ĠTarsus":6692,"Hence":6693,"Long":6694,"Show":6695,"cock":6696,"mouth":6697,"tell":6698,"teen":6699,"wh":6700,"wit":6701,"wind":6702,"Ġtren":6703,"hear":6704,"Ġsitting":6705,"Ġmat":6706,"Ġbatter":6707,"Ġnuptial":6708,"Ġpi":6709,"Ġped":6710,"Ġhey":6711,"ĠSm":6712,"ĠBea":6713,"cknow":6714,"ĠOTHELLO":6715,"ĠGrumio":6716,"ĠNeptune":6717,"orthi":6718,"Ġenforced":6719,"Ġdisposed":6720,"Ġplan":6721,"Ġscurvy":6722,"Ġmightst":6723,"Ġfalling":6724,"Ġmoves":6725,"Ġhappily":6726,"Ġinstruction":6727,"Ġcareful":6728,"Ġdistance":6729,"Ġdistract":6730,"Ġforehead":6731,"Ġsadness":6732,"Ġfourteen":6733,"ossess":6734,"Ġsafely":6735,"Ġbowels":6736,"Ġproceeding":6737,"Ġflattery":6738,"Ġqualities":6739,"Ġsensible":6740,"ĠROSAL":6741,"Ġventure":6742,"Ġconqueror":6743,"ĠCorioli":6744,"ĠRemember":6745,"ĠFlorence":6746,"Ġadventure":6747,"Ġsinews":6748,"ĠRousillon":6749,"Ġexplo":6750,"ĠAntipholus":6751,"BRO":6752,"Draw":6753,"DEM":6754,"MED":6755,"Rome":6756,"SEY":6757,"TZ":6758,"Truly":6759,"WAL":6760,"ae":6761,"bel":6762,"horse":6763,"nes":6764,"nicious":6765,"pur":6766,"were":6767,"wall":6768,"Ġton":6769,"Ġtents":6770,"Ġsed":6771,"Ġwaking":6772,"Ġwalks":6773,"reet":6774,"Ġfires":6775,"Ġdat":6776,"enius":6777,"Ġhounds":6778,"Ġthin":6779,"hath":6780,"anley":6781,"sey":6782,"Ġhaw":6783,"iring":6784,"chor":6785,"Ġnotes":6786,"key":6787,"Ġits":6788,"ĠWOL":6789,"ids":6790,"ordelia":6791,"ĠHas":6792,"ĠBO":6793,"ĠBASS":6794,"Ġdove":6795,"estor":6796,"uno":6797,"unch":6798,"ific":6799,"Ġspee":6800,"Ġsuitor":6801,"ĠLorenzo":6802,"Ġfawn":6803,"Ġvast":6804,"ĠPORTI":6805,"Ġshout":6806,"Ġupright":6807,"ĠDES":6808,"ĠDIO":6809,"Ġwheel":6810,"Ġroof":6811,"icha":6812,"Ġherein":6813,"Ġjot":6814,"Ġenm":6815,"Ġoffences":6816,"Ġfold":6817,"cially":6818,"Ġmarvell":6819,"Ġwrites":6820,"ĠVarro":6821,"Ġafoot":6822,"ĠCawd":6823,"ESBY":6824,"ĠSoft":6825,"Ġsets":6826,"Ġcozen":6827,"Ġhourly":6828,"Ġresign":6829,"Ġcharms":6830,"ĠAntioch":6831,"btain":6832,",'--":6833,"arson":6834,"Ġdiest":6835,"Ġdiamond":6836,"ĠAlban":6837,"atesby":6838,"Ġentrance":6839,"ILIUS":6840,"Ġsurfeit":6841,"ROM":6842,"Ġheirs":6843,"Ġtitles":6844,"Ġreligious":6845,"idden":6846,"Ġexecute":6847,"Ġdrowned":6848,"Ġdeparture":6849,"Ġrebel":6850,"Ġelection":6851,"Ġgovernor":6852,"ĠGreece":6853,"Ġshores":6854,"Ġchastity":6855,"Ġmourning":6856,"Ġstopp":6857,"Ġvirginity":6858,"Ġprofession":6859,"ĠBassianus":6860,"Ġphysician":6861,"ĠROSENC":6862,"RANTZ":6863,"ratitude":6864,"eyed":6865,"ĠGuard":6866,"Ġdetermine":6867,"ĠOctavius":6868,"Ġsuperfl":6869,"Ġbeguile":6870,"Ġsteward":6871,"Ġreckoning":6872,"Ġconcerns":6873,"Ġexpedition":6874,"Ġconvenient":6875,"Help":6876,"ĠPhoe":6877,"Ġdivorce":6878,"Ġscholar":6879,"Ġpiteous":6880,"ĠCATESBY":6881,"Ġlikeness":6882,"BROKE":6883,"DEMONA":6884,"MEDES":6885,"ĠWOLSEY":6886,"Ġspeeches":6887,"ĠPORTIA":6888,"ĠDESDEMONA":6889,"ĠDIOMEDES":6890,"ĠCawdor":6891,"ĠROSENCRANTZ":6892,"Get":6893,"Lay":6894,"Mistress":6895,"Rep":6896,"bast":6897,"heard":6898,"Ġape":6899,"Ġobtain":6900,"Ġhedge":6901,"Ġgap":6902,"Ġhare":6903,"ĠAri":6904,"Ġhist":6905,"Ġsteep":6906,"ifferent":6907,"Ġvot":6908,"Ġvous":6909,"Ġmanage":6910,"ĠNer":6911,"Ġconverse":6912,"oster":6913,"Ġworshi":6914,"Ġmayor":6915,"Ġmadman":6916,"Ġprologue":6917,"Ġproclamation":6918,"Through":6919,"ĠJud":6920,"ĠKne":6921,"Ġflint":6922,"Ġriot":6923,"Ġperd":6924,"Ġplayers":6925,"Ġrightly":6926,"Ġaccording":6927,"Ġkills":6928,"Ġassault":6929,"play":6930,"Ġdisturb":6931,"Ġbachel":6932,"Ġpays":6933,"Ġwooing":6934,"Ġgrieves":6935,"Ġfeign":6936,"Ġpleasing":6937,"Ġhostess":6938,"Ġelements":6939,"ĠAbout":6940,"Ġguests":6941,"Ġfuneral":6942,"Ġbeware":6943,"Ġfantast":6944,"boys":6945,"Ġbarbarous":6946,"Ġburden":6947,"Between":6948,"Dear":6949,"DELLO":6950,"MUN":6951,"NE":6952,"ULI":6953,"VIN":6954,"VOL":6955,"awn":6956,"acious":6957,"bray":6958,"eves":6959,"ien":6960,"kins":6961,"pas":6962,"rue":6963,"rors":6964,"wart":6965,"Ġtar":6966,"Ġtig":6967,"Ġmas":6968,"Ġmould":6969,"Ġmiddle":6970,"Ġwaked":6971,"Ġfray":6972,"Ġdiff":6973,"Ġchat":6974,"Ġcord":6975,"Ġcel":6976,"Ġlads":6977,"Ġnearer":6978,"enes":6979,"Ġhue":6980,"vet":6981,"owbray":6982,"ĠTALB":6983,"enton":6984,"ĠSings":6985,"ĠSleep":6986,"Ġrear":6987,"lyss":6988,"Ġsolic":6989,"ĠBION":6990,"Ġdeposed":6991,"uss":6992,"ĠCordelia":6993,"ĠMAL":6994,"Ġann":6995,"thren":6996,"Ġspark":6997,"ĠFERD":6998,"Ġfaction":6999,"Ġvass":7000,"Ġourself":7001,"ĠPIS":7002,"ĠPhil":7003,"umerle":7004,"Ġcanker":7005,"Ġhose":7006,"Ġdispose":7007,"imely":7008,"Ġroses":7009,"ĠKnight":7010,"lia":7011,"ĠVINC":7012,"Ġpernicious":7013,"Ġscratch":7014,"Ġscandal":7015,"IND":7016,"INO":7017,"INAND":7018,"Ġravish":7019,"ERM":7020,"Ġpresume":7021,"Ġcontain":7022,"Ġhousehold":7023,"ĠUlyss":7024,"Ġbragg":7025,"Ġfortunate":7026,"Ġcop":7027,"Ġconspir":7028,"Ġtried":7029,"Ġmeanest":7030,"Ġtap":7031,"Ġsubscri":7032,"ĠDoes":7033,"Ġslumber":7034,"Ġstraw":7035,"formed":7036,"ĠJoan":7037,"Ġsuffice":7038,"Ġcarries":7039,"Ġinteg":7040,"Ġcertainly":7041,"Ġskull":7042,"ublius":7043,"Ġvictor":7044,"Ġacts":7045,"Ġsignior":7046,"Ġchamp":7047,"Ġmurderous":7048,"eeming":7049,"Ġstirring":7050,"Ġscorns":7051,"Ġhideous":7052,"URN":7053,"Ġagree":7054,"Ġdoublet":7055,"Ġeleven":7056,"Ġstarve":7057,"ĠVenus":7058,"Ġsmoke":7059,"Ġhunger":7060,"phelia":7061,"Ġdismal":7062,"Ġdeserts":7063,"Ġpunishment":7064,"Ġembass":7065,"ĠCLAUDIUS":7066,"worth":7067,"ĠDOCTOR":7068,"RIAR":7069,"Ġexperience":7070,"lendower":7071,"Ġambassador":7072,"Ġancestors":7073,"ĠOLIVIA":7074,"Ġvulgar":7075,"Ġpestil":7076,"Ġverses":7077,"MUND":7078,"ULIET":7079,"VINIA":7080,"VOLIO":7081,"ĠTALBOT":7082,"ĠBIONDELLO":7083,"ĠFERDINAND":7084,"ĠPISANIO":7085,"ĠVINCENTIO":7086,"ĠUlysses":7087,"Sh":7088,"Signior":7089,"ky":7090,"late":7091,"may":7092,"say":7093,"speak":7094,"why":7095,"Ġost":7096,"enches":7097,"Ġthrew":7098,"Ġpark":7099,"Ġinquire":7100,"etwixt":7101,"ĠWhether":7102,"ĠSing":7103,"ĠSec":7104,"ĠCousin":7105,"ĠCatesby":7106,"ĠMowbray":7107,"ĠOphelia":7108,"ĠFRIAR":7109,"ĠGer":7110,"ĠGall":7111,"ĠGlendower":7112,"Ġamity":7113,"ĠNestor":7114,"Ġconver":7115,"ĠThrough":7116,"Ġprover":7117,"Three":7118,"Ġlecher":7119,"Ġflame":7120,"Ġriver":7121,"ĠNoble":7122,"Ġchin":7123,"Ġcourteous":7124,"Ġbacks":7125,"Ġbackward":7126,"ĠANDR":7127,"Ġaccord":7128,"Ġkissing":7129,"Ġbeaut":7130,"Ġchosen":7131,"Ġafford":7132,"Twixt":7133,"Ġdivision":7134,"Ġopport":7135,"Ġharmony":7136,"Ġdespised":7137,"Ġmeddle":7138,"Ġinnocence":7139,"ĠEDMUND":7140,"Ġmerely":7141,"Ġpolitic":7142,"Ġguiltless":7143,"Ġceremon":7144,"Ġforsake":7145,"ĠMessal":7146,"Ġmerrily":7147,"Ġscruple":7148,"Ġpeasant":7149,"Ġestimation":7150,"Ġsemblance":7151,"ĠGarter":7152,"Ġeverlasting":7153,"ACH":7154,"Cry":7155,"Cons":7156,"FOLK":7157,"Men":7158,"MON":7159,"Once":7160,"ium":7161,"iction":7162,"nard":7163,"ties":7164,"yr":7165,"Ġah":7166,"Ġsire":7167,"had":7168,"Ġbully":7169,"eration":7170,"Ġfount":7171,"Ġdain":7172,"Ġdame":7173,"Ġdrows":7174,"Ġduties":7175,"Ġyon":7176,"encon":7177,"oted":7178,"Ġgird":7179,"atest":7180,"see":7181,"Ġhab":7182,"ĠTut":7183,"ĠTIMON":7184,"eder":7185,"utio":7186,"ourage":7187,"advent":7188,"asions":7189,"Ġstead":7190,"raint":7191,"ĠSure":7192,"Ġliver":7193,"ĠHOR":7194,"ĠHUGH":7195,"ĠBlack":7196,"ĠCH":7197,"ĠMer":7198,"ĠMany":7199,"unity":7200,"Ġsugg":7201,"Ġsustain":7202,"ellows":7203,"Ġvig":7204,"ĠPhe":7205,"Ġmankind":7206,"ĠNym":7207,"Ġprint":7208,"Ġrot":7209,"umn":7210,"Ġblot":7211,"hylock":7212,"pple":7213,"Ġlets":7214,"eline":7215,"odity":7216,"Ġsails":7217,"Ġdisper":7218,"pecially":7219,"Ġrobe":7220,"Ġrocks":7221,"Ġrogues":7222,"ĠJULIET":7223,"Ġlevel":7224,"ullus":7225,"INUS":7226,"Ġraging":7227,"Ġragged":7228,"Ġhasty":7229,"Ġafar":7230,"Ġevermore":7231,"Ġharvest":7232,"issa":7233,"Ġreply":7234,"Ġreproach":7235,"iano":7236,"Ġbrand":7237,"Ġgrim":7238,"Ġcoats":7239,"Ġconfident":7240,"Ġbringing":7241,"Ġpeer":7242,"Ġbelie":7243,"Ġcheap":7244,"Ġrights":7245,"Ġimped":7246,"Ġpowerful":7247,"ĠRevenge":7248,"Ġsurety":7249,"Ġmischance":7250,"ĠAlthough":7251,"Ġhangman":7252,"Ġsoundly":7253,"Ġboar":7254,"Ġinstance":7255,"Ġpersons":7256,"Ġdancing":7257,"Ġcareless":7258,"Ġcountryman":7259,"Ġpurposed":7260,"Ġbounds":7261,"Ġwatery":7262,"Ġinfl":7263,"Ġcarriage":7264,"Ġintents":7265,"Ġaffright":7266,"Ġgallows":7267,"Ġgarment":7268,"Ġcreate":7269,"Ġladder":7270,"ĠDidst":7271,"Ġsurprised":7272,"Ġfrail":7273,"Ġbondage":7274,"ĠLAVINIA":7275,"Ġgrieved":7276,"mbeline":7277,"ĠLUCENTIO":7278,"ĠLEAR":7279,"Ġbreeds":7280,"Ġerrand":7281,"Ġdrift":7282,"poke":7283,"Ġcruelty":7284,"Ġvanish":7285,"Ġescape":7286,"Ġhung":7287,"Ġhorror":7288,"Ġlegions":7289,"atricians":7290,"Ġemployment":7291,"rateful":7292,"Ġholp":7293,"Ġfeeble":7294,"ĠCymbeline":7295,"Ġunkindness":7296,"Ġprevented":7297,"Ġapprehens":7298,"Ġprophet":7299,"ĠCASSIO":7300,"gnant":7301,"ĠNORFOLK":7302,"Ġsplit":7303,"Ġcharacter":7304,"craft":7305,"Ġoutrage":7306,"Ġcoxcomb":7307,"Ġtrespass":7308,"Ġconsequence":7309,"Ġexercise":7310,"ĠAlexandria":7311,"Ġtonight":7312,"ichael":7313,"Ġenmity":7314,"Ġhistory":7315,"Ġintegrity":7316,"Ġdainty":7317,"Came":7318,"Whiles":7319,"back":7320,"claim":7321,"work":7322,"Ġtales":7323,"Ġacknow":7324,"Ġwipe":7325,"hast":7326,"Ġcook":7327,"Ġlin":7328,"Ġheinous":7329,"ingu":7330,"sters":7331,"Ġnotwithstanding":7332,"order":7333,"verty":7334,"Ġdefe":7335,"ĠEach":7336,"ĠMaine":7337,"ĠMichael":7338,"Ġsequ":7339,"Ġsugar":7340,"ĠFull":7341,"ĠPublius":7342,"ĠGrey":7343,"Ġshirt":7344,"Ġnegl":7345,"ĠDun":7346,"Ġhates":7347,"Ġpos":7348,"Ġpoverty":7349,"Ġextend":7350,"ĠJuno":7351,"Young":7352,"Ġindifferent":7353,"Ġtriump":7354,"their":7355,"ĠStanley":7356,"ĠANNE":7357,"ĠRegan":7358,"Ġdiet":7359,"Ġmajest":7360,"ĠFrenchmen":7361,"Ġsumm":7362,"eshrew":7363,"ĠHelic":7364,"Ġtroubles":7365,"Ġtreasons":7366,"Ġmistook":7367,"Ġshoes":7368,"Ġsimpl":7369,"ĠPlay":7370,"Ġneighbours":7371,"Ġviolence":7372,"Ġvanity":7373,"ĠRosaline":7374,"Ġcomplete":7375,"Ġrobes":7376,"Ġstole":7377,"Ġholid":7378,"ĠMilford":7379,"ĠAlexander":7380,"Ġhinder":7381,"Ġliquor":7382,"Ġprodigal":7383,"Ġrebellion":7384,"Ġrheum":7385,"Ġperpetual":7386,"Has":7387,"Hail":7388,"PP":7389,"Until":7390,"VANS":7391,"Zounds":7392,"court":7393,"eases":7394,"great":7395,"hine":7396,"met":7397,"mion":7398,"oqu":7399,"when":7400,"ĠX":7401,"Ġice":7402,"Ġtired":7403,"Ġawe":7404,"ourer":7405,"Ġmiles":7406,"ories":7407,"llen":7408,"Ġfem":7409,"itive":7410,"itation":7411,"Ġdart":7412,"Ġdate":7413,"Ġdower":7414,"Ġcove":7415,"Ġlance":7416,"Ġlatter":7417,"Ġhire":7418,"Ġthorough":7419,"stery":7420,"Ġbethink":7421,"Ġinfection":7422,"Ġhaught":7423,"ĠAumerle":7424,"ĠWorthy":7425,"asures":7426,"Ġstake":7427,"rip":7428,"ĠSend":7429,"Ġreap":7430,"Ġashes":7431,"ĠHAST":7432,"ĠHERM":7433,"ĠEVANS":7434,"ĠCrom":7435,"ĠMuch":7436,"estial":7437,"amy":7438,"aments":7439,"Ġsex":7440,"Ġnoon":7441,"hano":7442,"Ġviz":7443,"ĠPistol":7444,"Ġmantle":7445,"ardy":7446,"Ġneat":7447,"endom":7448,"Ġsheets":7449,"Ġrus":7450,"ulation":7451,"ulvia":7452,"Ġworms":7453,"Ġunre":7454,"Ġalt":7455,"Ġaloof":7456,"Ġaloft":7457,"Ġchap":7458,"hered":7459,"lihood":7460,"Ġpledge":7461,"Ġnightly":7462,"Ġsweetest":7463,"ERIL":7464,"Ġappea":7465,"Ġclamour":7466,"swer":7467,"Ġbrethren":7468,"ĠUntil":7469,"onshine":7470,"Ġanswered":7471,"esario":7472,"Ġconfeder":7473,"Ġrestore":7474,"Ġchest":7475,"Wherefore":7476,"Ġevening":7477,"Ġmoe":7478,"INGS":7479,"Ġswearing":7480,"ittance":7481,"Does":7482,"Ġrevenue":7483,"Ġsufficient":7484,"Ġbroad":7485,"Ġbald":7486,"Ġtrusty":7487,"Ġwaves":7488,"Ġparliament":7489,"Twill":7490,"Although":7491,"essengers":7492,"Ġsurvey":7493,"Ġblessings":7494,"Ġspeedy":7495,"chers":7496,"Ġframed":7497,"Ġextreme":7498,"Ġbeastly":7499,"AGUE":7500,"Ġsoftly":7501,"URIO":7502,"ĠCominius":7503,"Ġutmost":7504,"Ġexecuted":7505,"centio":7506,"ĠRICHMON":7507,"Ġdemands":7508,"ĠTitinius":7509,"Ġfrowns":7510,"Ġdestiny":7511,"Ġesp":7512,"Ġdelights":7513,"ĠLucilius":7514,"Ġhorrid":7515,"Ġinvite":7516,"Ġinjuries":7517,"Ġthreatening":7518,"Ġdearer":7519,"Ġexpectation":7520,"Ġowl":7521,"Ġslipp":7522,"?'\"":7523,"ratiano":7524,"ĠNeither":7525,"Ġingratitude":7526,"ĠLeonatus":7527,"Ġfixed":7528,"Ġinfected":7529,"Ġparents":7530,"ĠMARCUS":7531,"ĠMercutio":7532,"ĠKATHARINE":7533,"ĠPhilipp":7534,"SPERO":7535,"OGEN":7536,"Ġwandering":7537,"Ġcannon":7538,"ĠMONTAGUE":7539,"OWER":7540,"Ġexcellence":7541,"ĠLYS":7542,"Ġprecedent":7543,"Ġreconci":7544,"ĠPhoebus":7545,"ĠHASTINGS":7546,"ĠRICHMOND":7547,"Each":7548,"Gra":7549,"King":7550,"Kne":7551,"MOGEN":7552,"Sc":7553,"TUS":7554,"Whether":7555,"aves":7556,"cover":7557,"pence":7558,"rong":7559,"was":7560,"Ġwet":7561,"Ġwenches":7562,"ĠIMOGEN":7563,"Ġles":7564,"Ġlute":7565,"Ġmystery":7566,"ĠFenton":7567,"Ġmanly":7568,"ĠDrum":7569,"Ġswim":7570,"Ġenf":7571,"Ġenri":7572,"Ġdislike":7573,"Ġpox":7574,"Ġplent":7575,"Ġbloods":7576,"Ġarticle":7577,"Ġcontem":7578,"Ġfollowed":7579,"Ġsetting":7580,"Behold":7581,"Ġundergo":7582,"Ġtaunt":7583,"Ġforthwith":7584,"Ġimpatience":7585,"Ġfighting":7586,"abb":7587,"Ġsights":7588,"Ġmocks":7589,"Ġdivide":7590,"ĠCloten":7591,"Ġpenance":7592,"ĠProsper":7593,"Ġprovost":7594,"Ġchallen":7595,"Ġunpro":7596,"About":7597,"ĠPROSPERO":7598,"Ġfilthy":7599,"Ġmultitude":7600,"Ġtouches":7601,"ĠMessala":7602,"'m":7603,"AIN":7604,"EO":7605,"Im":7606,"LUS":7607,"Leave":7608,"RAS":7609,"TIUS":7610,"bishop":7611,"duff":7612,"even":7613,"from":7614,"gments":7615,"groom":7616,"hus":7617,"jou":7618,"kest":7619,"lar":7620,"lorn":7621,"liness":7622,"ns":7623,"pite":7624,"ples":7625,"sm":7626,"ubs":7627,"ye":7628,"Ġtaint":7629,"Ġsilly":7630,"Ġmouse":7631,"Ġmessengers":7632,"inces":7633,"incul":7634,"incentio":7635,"reant":7636,"Ġom":7637,"Ġcrows":7638,"aniel":7639,"Ġbeats":7640,"Ġbecame":7641,"Ġhack":7642,"ĠADR":7643,"utland":7644,"Ġmeed":7645,"Ġep":7646,"ading":7647,"Ġstiff":7648,"raise":7649,"ĠSw":7650,"ĠSIC":7651,"ĠSEB":7652,"ĠSONG":7653,"Ġrelish":7654,"Ġlief":7655,"urous":7656,"ĠBer":7657,"ĠBed":7658,"ĠCast":7659,"ĠCOM":7660,"Ġnod":7661,"Ġlocks":7662,"ĠOS":7663,"Ġspot":7664,"Ġspell":7665,"ĠPUC":7666,"ĠPAND":7667,"ĠPatience":7668,"ĠPETR":7669,"ĠPETER":7670,"ĠGratiano":7671,"ĠDE":7672,"Ġrue":7673,"ular":7674,"Ġthereto":7675,"Ġblock":7676,"Ġbliss":7677,"ĠROM":7678,"ĠRutland":7679,"Ġhatch":7680,"ĠYe":7681,"Ġunman":7682,"ENIUS":7683,"Ġmuster":7684,"Ġquaint":7685,"Ġheap":7686,"Ġrope":7687,"Ġdescent":7688,"Ġdescription":7689,"Ġlewd":7690,"Ġpartner":7691,"ĠVincentio":7692,"Ġribs":7693,"Ġperi":7694,"Ġappeal":7695,"cheth":7696,"Ġmale":7697,"Ġclam":7698,"Ġcontend":7699,"Ġpurge":7700,"Ġcompare":7701,"Ġkeeper":7702,"Ġendured":7703,"Ġundert":7704,"Ġconfer":7705,"Ġplaying":7706,"Ġchronic":7707,"Ġgiant":7708,"bler":7709,"Ġcharitable":7710,"Ġcurtain":7711,"Ġretreat":7712,"Ġstrangers":7713,"ELO":7714,"ELLE":7715,"Ġimpatient":7716,"ĠDover":7717,"Ġmoving":7718,"ĠHerald":7719,"Ġwindows":7720,"ĠAlencon":7721,"Ġsung":7722,"Ġboard":7723,"Ġdangers":7724,"ranch":7725,"Ġwanting":7726,"Ġsilk":7727,"Ġchose":7728,"ASTIAN":7729,"Ġbattles":7730,"Ġdevised":7731,"velvet":7732,"Ġcounsels":7733,"Ġapproved":7734,"Ġjests":7735,"Ġmotive":7736,"Ġmountains":7737,"Ġfamish":7738,"Ġpleases":7739,"Ġmistrust":7740,"ĠHaving":7741,"Ġproceedings":7742,"Ġwedded":7743,"Ġdriven":7744,"ĠRODER":7745,"Ġvanqu":7746,"Ġgentleness":7747,"Ġgrossly":7748,"moreland":7749,"Ġthreaten":7750,"mpat":7751,"Ġbounteous":7752,"Ġpersuasion":7753,"ĠJOAN":7754,"Ġwitchcraft":7755,"Ġsalute":7756,"Ġdetermined":7757,"Ġnobler":7758,"Ġnoblest":7759,"Ġwonders":7760,"Ġswelling":7761,"Ġperjury":7762,"ĠKatharine":7763,"UCHIO":7764,"Adv":7765,"Ġstatue":7766,"ĠORLAND":7767,"Brother":7768,"ribunes":7769,"TENS":7770,"Ġdissol":7771,"IGO":7772,"ĠBELCH":7773,"Ġcoronation":7774,"ĠWestmoreland":7775,"ĠMurder":7776,"Ġincensed":7777,"LIFFORD":7778,"Ġcandle":7779,"ĠTOBY":7780,"ĠMENENIUS":7781,"Ġmerciful":7782,"ĠGONERIL":7783,"ĠANGELO":7784,"Ġmarvellous":7785,"Ġsuperfluous":7786,"bastian":7787,"Ġvassal":7788,"Ġdrowsy":7789,"ĠHORTENS":7790,"ĠPhebe":7791,"mione":7792,"ĠCromwell":7793,"ĠSEBASTIAN":7794,"ĠCOMINIUS":7795,"ĠPUCELLE":7796,"ĠPETRUCHIO":7797,"ĠROMEO":7798,"ĠRODERIGO":7799,"ĠORLANDO":7800,"Full":7801,"Whither":7802,"bo":7803,"part":7804,"piece":7805,"rude":7806,"Ġafore":7807,"habit":7808,"erity":7809,"Ġcasket":7810,"Ġcurious":7811,"Ġling":7812,"Ġlame":7813,"Ġpath":7814,"Ġheare":7815,"ato":7816,"Ġinch":7817,"cet":7818,"Ġepit":7819,"asing":7820,"rice":7821,"Ġdefect":7822,"ĠCame":7823,"ĠCLIFFORD":7824,"ĠMon":7825,"ifth":7826,"ĠOh":7827,"ĠFly":7828,"ĠFather":7829,"Ġvine":7830,"Ġknowest":7831,"uments":7832,"ĠRa":7833,"Ġlikelihood":7834,"Ġunivers":7835,"Ġgrain":7836,"Ġdesol":7837,"top":7838,"Ġwring":7839,"Ġadore":7840,"Ġraw":7841,"Ġcompar":7842,"Ġkeeping":7843,"Ġreproof":7844,"Ġelbow":7845,"Ġcounty":7846,"Ġbelieved":7847,"Ġreasonable":7848,"Ġhumility":7849,"ouchsafe":7850,"Ġentra":7851,"Ġreturned":7852,"Ġcrook":7853,"Ġattends":7854,"Ġsuitors":7855,"Ġconfession":7856,"Ġvision":7857,"Ġattain":7858,"Ġdevotion":7859,"Ġquarrels":7860,"ĠTrumpets":7861,"Ġverse":7862,"Ġnecessary":7863,"Ġpersuaded":7864,"Ġimagine":7865,"Ġbaseness":7866,"Ġcuckoo":7867,"Ġbridegroom":7868,"Ġtyrann":7869,"Ġmagic":7870,"ĠPARIS":7871,"Ġexceeding":7872,"ĠLOV":7873,"Ġballad":7874,"Ġcorrection":7875,"ĠPaulina":7876,"ĠStephano":7877,"ĠAriel":7878,"Ġbachelor":7879,"adventure":7880,"AP":7881,"Aw":7882,"AQU":7883,"DO":7884,"FE":7885,"Fore":7886,"LEN":7887,"Much":7888,"MIAN":7889,"OTH":7890,"PEY":7891,"SS":7892,"ais":7893,"board":7894,"core":7895,"char":7896,"dit":7897,"fret":7898,"fav":7899,"gate":7900,"gins":7901,"ias":7902,"iqu":7903,"kens":7904,"lot":7905,"might":7906,"pire":7907,"pired":7908,"sick":7909,"tong":7910,"ura":7911,"water":7912,"Ġtea":7913,"Ġtie":7914,"Ġmuff":7915,"Ġwi":7916,"Ġbalm":7917,"erves":7918,"orter":7919,"Ġfert":7920,"Ġcent":7921,"Ġcull":7922,"ese":7923,"esu":7924,"ĠIm":7925,"Ġlar":7926,"Ġlaug":7927,"Ġnigh":7928,"envoy":7929,"Ġthirst":7930,"arius":7931,"Ġpas":7932,"Ġpine":7933,"Ġheel":7934,"ann":7935,"aning":7936,"angs":7937,"Ġgage":7938,"Ġgorge":7939,"imony":7940,"iments":7941,"cho":7942,"ille":7943,"Ġegg":7944,"Ġforlorn":7945,"adem":7946,"heriff":7947,"alter":7948,"raction":7949,"ĠSound":7950,"Ġrein":7951,"Ġsober":7952,"ĠBE":7953,"ĠBAN":7954,"ĠBAP":7955,"Ġdevour":7956,"ĠCesario":7957,"Ġsham":7958,"Ġshames":7959,"amn":7960,"Ġseized":7961,"Ġbutt":7962,"Ġbutter":7963,"Ġalliance":7964,"Ġspurs":7965,"ĠFifth":7966,"ĠPOM":7967,"ousins":7968,"Ġruth":7969,"ules":7970,"Ġtrow":7971,"ĠRes":7972,"Ġcaps":7973,"Ġhatred":7974,"Ġworser":7975,"athom":7976,"Ġbrass":7977,"Ġpope":7978,"Ġexact":7979,"Ġexpense":7980,"Ġoffers":7981,"Ġalms":7982,"Ġsomewhat":7983,"oughs":7984,"udgel":7985,"Ġplains":7986,"Ġmars":7987,"Ġmarble":7988,"Ġroad":7989,"ĠJAQU":7990,"Ġarticles":7991,"Ġwrang":7992,"ĠVOL":7993,"Ġprays":7994,"Ġwhist":7995,"ĠThisbe":7996,"Ġfoolery":7997,"Ġpurple":7998,"never":7999,"ĠUp":8000,"Ġdrinks":8001,"Soft":8002,"beit":8003,"ĠAnon":8004,"Ġfallen":8005,"Ġpeep":8006,"ĠStrike":8007,"TISTA":8008,"Ġhelps":8009,"Ġassay":8010,"twould":8011,"Ġdiscord":8012,"ALLO":8013,"Ġboat":8014,"Ġlays":8015,"STARD":8016,"Ġseeking":8017,"Ġcrim":8018,"Ġcrimes":8019,"Ġsinging":8020,"Ġsickly":8021,"ATURN":8022,"Ġchoke":8023,"Ġyielding":8024,"Ġprofound":8025,"Ġeaten":8026,"Ġmocking":8027,"Ġleaden":8028,"Ġleading":8029,"Ġregent":8030,"Ġlacks":8031,"Ġuntimely":8032,"Ġpitied":8033,"Ġrelieve":8034,"ĠPomfret":8035,"Ġlimit":8036,"Ġaye":8037,"Ġobli":8038,"Ġpatiently":8039,"ĠJulius":8040,"Ġflattering":8041,"ursday":8042,"Ġknocks":8043,"Ġduchess":8044,"Ġvisitation":8045,"Ġrascals":8046,"IDA":8047,"IDIUS":8048,"Ġempire":8049,"Ġshroud":8050,"Ġstops":8051,"Ġdwells":8052,"Ġfruitful":8053,"ĠROSS":8054,"Ġdetest":8055,"Ġaffected":8056,"Ġfunction":8057,"ĠCOSTARD":8058,"Ġnobleness":8059,"Ġbootless":8060,"scap":8061,"Ġsympat":8062,"Ġengaged":8063,"Ġprovoke":8064,"Ġaffliction":8065,"Ġparentage":8066,"ĠBarnard":8067,"Ġporter":8068,"Ġcoffin":8069,"Ġsands":8070,"Ġgloves":8071,"ĠKATHARINA":8072,"QUO":8073,"Ġachieve":8074,"Ġblushing":8075,"ĠCHARMIAN":8076,"Ġwarriors":8077,"Ġscourge":8078,"Ġhomage":8079,"ĠSHALLO":8080,"Ġoverthrow":8081,"Ġcontrol":8082,"ĠSaturnine":8083,"Ġbranches":8084,"Ġcounsellor":8085,"Ġprophesy":8086,"Ġbereft":8087,"ĠAngiers":8088,"Ġstyle":8089,"Ġconcluded":8090,"ĠNerissa":8091,"inculo":8092,"ĠSICINIUS":8093,"ĠHORTENSIO":8094,"ĠBANQUO":8095,"ĠBAPTISTA":8096,"ĠPOMPEY":8097,"ATURNINUS":8098,"ĠBarnardine":8099,"ĠSHALLOW":8100,"Gain":8101,"Mar":8102,"dra":8103,"face":8104,"min":8105,"mpt":8106,"made":8107,"rants":8108,"tree":8109,"vised":8110,"Ġvelvet":8111,"Ġwid":8112,"Ġwakes":8113,"Ġdined":8114,"Ġlime":8115,"Ġpere":8116,"Ġheal":8117,"anish":8118,"ĠTha":8119,"ĠAud":8120,"Ġstuck":8121,"ĠSit":8122,"ĠSATURNINUS":8123,"Ġrevels":8124,"Ġdem":8125,"ĠCAM":8126,"ĠMOTH":8127,"Ġsevent":8128,"ĠFRAN":8129,"ĠFulvia":8130,"ĠLea":8131,"ĠRather":8132,"ĠTopas":8133,"ĠThursday":8134,"Ġdiso":8135,"orns":8136,"Ġscold":8137,"Ġpregnant":8138,"issing":8139,"Ġputting":8140,"ĠAnjou":8141,"irtue":8142,"Ġcrowned":8143,"Ġhandsome":8144,"Ġthousands":8145,"fortune":8146,"Ġwelkin":8147,"range":8148,"owards":8149,"Ġtouching":8150,"Ġrespects":8151,"Ġunderstanding":8152,"Ġlaughing":8153,"Ġexclaim":8154,"Ġcheerful":8155,"ĠChristendom":8156,"Ġadmit":8157,"Ġobst":8158,"Ġtorches":8159,"Ġfellowship":8160,"Ġlists":8161,"Ġstorms":8162,"Ġsuccession":8163,"Ġcontinu":8164,"Ġdebts":8165,"Ġknavery":8166,"Ġsquare":8167,"Ġcrept":8168,"Ġcorrupted":8169,"Ġjoints":8170,"ĠMARCIUS":8171,"Ġflatterer":8172,"Remember":8173,"Ġnuncle":8174,"Ġpenitent":8175,"Ġexploit":8176,"ĠDuncan":8177,"Ġepitaph":8178,"'ve":8179,"Ant":8180,"BEL":8181,"EW":8182,"Eng":8183,"Fal":8184,"Giving":8185,"HUM":8186,"MOR":8187,"Many":8188,"Music":8189,"Res":8190,"REY":8191,"Tut":8192,"UB":8193,"aur":8194,"cal":8195,"cons":8196,"field":8197,"firm":8198,"got":8199,"gress":8200,"mas":8201,"mont":8202,"maker":8203,"nish":8204,"sino":8205,"uary":8206,"Ġtire":8207,"Ġmor":8208,"Ġmur":8209,"Ġmort":8210,"inth":8211,"Ġwave":8212,"Ġbone":8213,"Ġbail":8214,"isement":8215,"Ġfift":8216,"Ġded":8217,"Ġnourish":8218,"Ġhood":8219,"Ġpir":8220,"Ġpant":8221,"Ġpounds":8222,"Ġtoad":8223,"ayer":8224,"Ġebb":8225,"Ġweed":8226,"Ġweal":8227,"terbury":8228,"add":8229,"ĠWidow":8230,"Ġstates":8231,"rian":8232,"ĠSy":8233,"ĠShylock":8234,"ĠHORA":8235,"ĠEvery":8236,"rove":8237,"using":8238,"ckets":8239,"unuch":8240,"ĠAndrew":8241,"geons":8242,"Ġlosing":8243,"Ġlofty":8244,"Ġallay":8245,"Ġsums":8246,"Ġsullen":8247,"ello":8248,"ĠFour":8249,"ĠFind":8250,"ĠFAB":8251,"ĠLORD":8252,"Ġvap":8253,"ĠGRA":8254,"ĠGOWER":8255,"Ġample":8256,"ĠDu":8257,"ĠDuns":8258,"ĠDUCH":8259,"ĠDROM":8260,"Ġwhel":8261,"Ġwhet":8262,"Ġcong":8263,"Ġconvers":8264,"Ġrud":8265,"Ġrings":8266,"Ġblossom":8267,"ĠRou":8268,"ĠRight":8269,"icer":8270,"Ġcauses":8271,"Ġbranch":8272,"igion":8273,"Ġenra":8274,"Ġdiseases":8275,"Ġproves":8276,"Ġabbey":8277,"Ġabomin":8278,"Ġwhereon":8279,"Ġleaving":8280,"lier":8281,"Ġflock":8282,"oult":8283,"ĠAss":8284,"ĠVAL":8285,"Ġricher":8286,"Ġscant":8287,"Ġrace":8288,"Ġrags":8289,"Ġrabble":8290,"Ġsweeter":8291,"Ġapply":8292,"Ġlonging":8293,"Ġcompell":8294,"Ġdroop":8295,"Ġhighly":8296,"Ġconsort":8297,"Ġconfidence":8298,"ected":8299,"Ġturning":8300,"Ġhush":8301,"Ġdram":8302,"Ġchanges":8303,"ixenes":8304,"closed":8305,"orset":8306,"Ġkilling":8307,"ontin":8308,"aply":8309,"days":8310,"Ġdial":8311,"Ġmoiety":8312,"Ġbreakfast":8313,"Ġlanded":8314,"STHUM":8315,"Ġflying":8316,"Ġcradle":8317,"Ġrevenges":8318,"Ġattendants":8319,"ĠFrenchman":8320,"Ġsilken":8321,"Ġinfer":8322,"Ġsadly":8323,"Ġrecount":8324,"nobar":8325,"Ġminion":8326,"Ġbeating":8327,"Ġprofane":8328,"Ġincon":8329,"Ġtenor":8330,"Ġdivided":8331,"Ġdropp":8332,"eems":8333,"Ġoppression":8334,"ĠCanterbury":8335,"Ġstirs":8336,"Ġprett":8337,"Ġregion":8338,"Ġfeasts":8339,"Ġranks":8340,"Ġscarf":8341,"Ġpuiss":8342,"Ġbeginning":8343,"conbridge":8344,"ĠLead":8345,"Ġagreed":8346,"Ġoccasions":8347,"Ġsnatch":8348,"Ġrebuke":8349,"month":8350,"Ġprocure":8351,"Ġnobody":8352,"iculous":8353,"Ġgrandfather":8354,"ĠTitan":8355,"Ġfrowning":8356,"ugby":8357,"Having":8358,"Ġthreats":8359,"Ġdegrees":8360,"Ġtransform":8361,"Ġtransport":8362,"ĠMacduff":8363,"Ġhunting":8364,"ĠBlunt":8365,"ĠRobin":8366,"Ġdetested":8367,"Ġridiculous":8368,"Ġstomachs":8369,"Ġbaby":8370,"Ġtrembling":8371,"Ġbands":8372,"Ġcaptains":8373,"Ġhighest":8374,"Ġadvanced":8375,"ĠSebastian":8376,"ĠFlorent":8377,"Ġpillow":8378,"ouns":8379,"Ġunseen":8380,"ĠCHARLES":8381,"Ġtutor":8382,"ĠEmilia":8383,"Ġimprisonment":8384,"Ġgilded":8385,"ĠJaques":8386,"YMBEL":8387,"ĠWorcester":8388,"Ġtalents":8389,"ĠPOSTHUM":8390,"Ġaccompl":8391,"ĠBeau":8392,"ĠJudas":8393,"Ġcelestial":8394,"ĠCHIRON":8395,"Ġdefeat":8396,"Ġfemale":8397,"Ġcovet":8398,"ĠPhilippi":8399,"Gainst":8400,"ĠHORATIO":8401,"ĠFABIAN":8402,"ĠDUCHESS":8403,"ĠDROMIO":8404,"YMBELINE":8405,"ĠPOSTHUMUS":8406,"'?\"":8407,"Amen":8408,"Cla":8409,"Cousin":8410,"Fly":8411,"Jo":8412,"Le":8413,"Old":8414,"Off":8415,"Something":8416,"avy":8417,"iable":8418,"lies":8419,"vity":8420,"Ġtheft":8421,"Ġfence":8422,"Ġcities":8423,"att":8424,"imp":8425,"Ġnotorious":8426,"Ġiss":8427,"Ġeats":8428,"ĠWh":8429,"ĠWalter":8430,"Ġstag":8431,"Ġkern":8432,"ĠSer":8433,"ĠSur":8434,"ĠSomething":8435,"Ġrevel":8436,"Ġresem":8437,"Ġlivest":8438,"ĠHE":8439,"ĠCin":8440,"Ġshamed":8441,"ĠMet":8442,"ands":8443,"Ġspar":8444,"ĠLion":8445,"ĠLend":8446,"antime":8447,"Ġwhatsoever":8448,"ĠNell":8449,"qual":8450,"Ġblank":8451,"ication":8452,"Ġcapit":8453,"Ġuses":8454,"aud":8455,"Ġrod":8456,"lict":8457,"Ġstray":8458,"many":8459,"swear":8460,"Ġsettled":8461,"Ġworthless":8462,"Ġworthiness":8463,"Ġafterwards":8464,"Ġsubstit":8465,"ĠHermione":8466,"ĠAlb":8467,"Ġreadiness":8468,"Ġsupport":8469,"Ġasked":8470,"Ġwiser":8471,"Ġprinci":8472,"Ġtruer":8473,"Ġdespise":8474,"ĠMayor":8475,"Ġvein":8476,"Ġlimb":8477,"Ġbriefly":8478,"Ġsmallest":8479,":'\"":8480,"Ġcapable":8481,"Ġcorner":8482,"Ġcompanions":8483,"ĠPole":8484,"ĠGuild":8485,"Ġbigger":8486,"Ġchiefest":8487,"Ġafflict":8488,"Ġdischarged":8489,"Ġbeguiled":8490,"ĠLEONATUS":8491,"ĠReturn":8492,"ĠPhilip":8493,"irectly":8494,"Ġburnt":8495,"Ġinfirmity":8496,"ĠROSALIND":8497,"Ġopportunity":8498,"Ġacknowledge":8499,"Ġperiod":8500,"Bless":8501,"Else":8502,"Luc":8503,"Sw":8504,"Send":8505,"Sound":8506,"Sings":8507,"Sleep":8508,"TA":8509,"TEUS":8510,"Up":8511,"VIR":8512,"abl":8513,"bi":8514,"count":8515,"eur":8516,"eys":8517,"fa":8518,"ffered":8519,"ipt":8520,"kn":8521,"lam":8522,"lings":8523,"loyal":8524,"must":8525,"ob":8526,"picious":8527,"til":8528,"whel":8529,"Ġtick":8530,"Ġtainted":8531,"Ġsith":8532,"Ġmonsieur":8533,"inane":8534,"Ġwra":8535,"recy":8536,"Ġbills":8537,"Ġbeneath":8538,"isher":8539,"erd":8540,"lle":8541,"lling":8542,"llies":8543,"Ġfut":8544,"Ġfrant":8545,"Ġfathom":8546,"itan":8547,"itate":8548,"Ġdried":8549,"Ġcele":8550,"ĠIRAS":8551,"Ġlatest":8552,"Ġnym":8553,"Ġpatch":8554,"Ġtoe":8555,"Ġtoys":8556,"Ġgilt":8557,"Ġgames":8558,"owing":8559,"stood":8560,"seth":8561,"Ġhal":8562,"Ġhalt":8563,"lead":8564,"ĠTAM":8565,"ĠTRAN":8566,"ĠAAR":8567,"utboys":8568,"imple":8569,"Ġeunuch":8570,"hern":8571,"alty":8572,"Ġstool":8573,"ĠSIM":8574,"ĠSwear":8575,"Ġash":8576,"Ġasunder":8577,"Ġascend":8578,"Ġdol":8579,"Ġdoct":8580,"ĠElse":8581,"ĠCost":8582,"ĠCLO":8583,"ĠChamber":8584,"ĠCELIA":8585,"ĠCYMBELINE":8586,"ĠMo":8587,"Ġherd":8588,"Ġsear":8589,"Ġanointed":8590,"geant":8591,"Ġloathed":8592,"ĠFLA":8593,"ĠLive":8594,"Ġvio":8595,"ĠPIST":8596,"antity":8597,"antages":8598,"Ġamain":8599,"Ġupbra":8600,"ĠDorset":8601,"ĠNed":8602,"Ġprime":8603,"Ġrated":8604,"quiet":8605,"ĠRugby":8606,"icity":8607,"Ġsweep":8608,"urer":8609,"Ġarbit":8610,"laus":8611,"igation":8612,"Ġju":8613,"Ġsap":8614,"Ġsauce":8615,"iced":8616,"Ġpopul":8617,"cio":8618,"cibi":8619,"ARIUS":8620,"Ġdesc":8621,"Ġleaf":8622,"ĠMytil":8623,"Ġleather":8624,"Ġcalling":8625,"Ġpert":8626,"Ġscroll":8627,"Ġwhir":8628,"Ġkeys":8629,"Ġprec":8630,"Ġlabours":8631,"Ġcourses":8632,"Ġworldly":8633,"Ġwayward":8634,"Ġcontag":8635,"Ġharms":8636,"iously":8637,"neath":8638,"Ġsmother":8639,"Ġholding":8640,"Ġtrag":8641,"Ġplayed":8642,"Ġchim":8643,"Ġresort":8644,"Ġreserved":8645,"Ġmeaner":8646,"Ġtaper":8647,"Ġdrag":8648,"Ġcurt":8649,"Ġmeets":8650,"Ġaccent":8651,"Ġimpeach":8652,"ĠShepherd":8653,"Ġshameful":8654,"Ġmoan":8655,"ĠNorway":8656,"Ġbuzz":8657,"Ġlasting":8658,"Ġsecrecy":8659,"ICE":8660,"Ġreturns":8661,"Ġslack":8662,"lets":8663,"Ġmurders":8664,"ILL":8665,"Ġwearing":8666,"Ġbait":8667,"avest":8668,"Ġreports":8669,"Ġreported":8670,"Ġtruce":8671,"Ġmockery":8672,"Ġdeeply":8673,"Anon":8674,"Ġboldly":8675,"Ġattach":8676,"Ġoppose":8677,"Ġoppress":8678,"Ġcowardly":8679,"Ġcowardice":8680,"ĠVIOL":8681,"Ġgrove":8682,"Ġadded":8683,"Ġaddress":8684,"AGUS":8685,"ANDER":8686,"Didst":8687,"mbles":8688,"Ġrelent":8689,"Ġfeature":8690,"Ġresolute":8691,"ĠTrust":8692,"ĠTrinculo":8693,"ĠCommend":8694,"Ġshoe":8695,"Ġobsequ":8696,"Ġbowl":8697,"ĠSeek":8698,"Ġerr":8699,"Ġstudied":8700,"ĠDead":8701,"Ġsuccor":8702,"Ġperformance":8703,"ĠAdv":8704,"Ġsafer":8705,"THUM":8706,"Ġscarcely":8707,"Ġproperty":8708,"Ġcircle":8709,"Ġslanders":8710,"Ġsixth":8711,"Ġgentry":8712,"Commend":8713,"ĠBelmont":8714,"Ġdismay":8715,"Ġbending":8716,"Ġusurping":8717,"ĠARVIR":8718,"Ġweighty":8719,"join":8720,"Ġkinsmen":8721,"ĠQuick":8722,"Ġcorruption":8723,"ĠPoins":8724,"Ġdisguise":8725,"Ġloathsome":8726,"Ġdigest":8727,"ĠCressida":8728,"Ġbells":8729,"Ġinclined":8730,"Ġwolves":8731,"Ġantic":8732,"ĠTrojans":8733,"Ġsyll":8734,"ĠMenenius":8735,"Ġtrifles":8736,"Above":8737,"ĠPROTEUS":8738,"Ġadmirable":8739,"Ġnaughty":8740,"Ġrepeal":8741,"Ġlungs":8742,"Ġlunatic":8743,"Ġstabb":8744,"ĠNORTHUM":8745,"ĠBELARIUS":8746,"TIANO":8747,"Ġmillion":8748,"BERLAND":8749,"Ġdiscontented":8750,"Ġtower":8751,"Ġpilgrimage":8752,"Ġimmediately":8753,"ĠPolixenes":8754,"Ġphilosophy":8755,"Ġsubdued":8756,"Ġbulk":8757,"Ġinsolence":8758,"WALD":8759,"Ġtiger":8760,"Ġannoy":8761,"Ġsubscribe":8762,"Ġchampion":8763,"ĠSecond":8764,"Ġproverb":8765,"Ġfountain":8766,"Ġhabits":8767,"Ġimpediment":8768,"Ġapprehension":8769,"Ġhaughty":8770,"Ġenfranch":8771,"ĠOSWALD":8772,"Ġfertile":8773,"Ġlaughed":8774,"ĠAudrey":8775,"ĠGRATIANO":8776,"ĠDunsinane":8777,"ĠRouen":8778,"nobarbus":8779,"Ġfrantic":8780,"Ġnymph":8781,"ĠTAMORA":8782,"ĠTRANIO":8783,"ĠAARON":8784,"ĠSIMP":8785,"ĠCLOTEN":8786,"ĠChamberlain":8787,"ĠFLAVIUS":8788,"ĠPISTOL":8789,"cibiades":8790,"ĠMytilene":8791,"ĠARVIRAGUS":8792,"ĠNORTHUMBERLAND":8793,":--\"":8794,"Ed":8795,"Sm":8796,"Sit":8797,"Sing":8798,"]\"":8799,"dr":8800,"done":8801,"faith":8802,"gent":8803,"gled":8804,"hill":8805,"jud":8806,"pal":8807,"press":8808,"worthy":8809,"women":8810,"Ġau":8811,"Ġmast":8812,"Ġwilful":8813,"has":8814,"Ġbide":8815,"Ġoil":8816,"Ġcudgel":8817,"Ġgavest":8818,"Ġbeque":8819,"sever":8820,"ĠTar":8821,"ĠTribunes":8822,"Ġeff":8823,"Ġlily":8824,"ĠHar":8825,"ĠBeseech":8826,"ĠEly":8827,"thorn":8828,"Ġshelter":8829,"emp":8830,"Ġrising":8831,"ĠRivers":8832,"Ġarray":8833,"ĠThird":8834,"Ġoutlive":8835,"Ġplough":8836,"Ġparties":8837,"Ġcommodity":8838,"Ġclay":8839,"Ġnobleman":8840,"Ġcomposition":8841,"ĠMarian":8842,"Ġeloqu":8843,"these":8844,"Ġtavern":8845,"Ġhomely":8846,"Ġbuff":8847,"Ġenters":8848,"Ġentire":8849,"coming":8850,"Ġcrab":8851,"Ġfooting":8852,"ĠMARINA":8853,"Ġpastime":8854,"Ġdeserving":8855,"Ġfasting":8856,"Ġsurgeon":8857,"Ġwalking":8858,"Ġthrift":8859,"Ġapproaches":8860,"Ġapprobation":8861,"Ġplainly":8862,"Ġconstancy":8863,"Ġmortality":8864,"ĠTyr":8865,"Ġpractises":8866,"Ġintended":8867,"Ġmutual":8868,"Ġbastards":8869,"Ġespecially":8870,"Ġpriests":8871,"Ġfiends":8872,"Ġdamnation":8873,"Ġcomplaint":8874,"Ġwaiting":8875,"Ġlamentable":8876,"Ġprosperity":8877,"Ġtempted":8878,"Ġprophecy":8879,"Ġprovoked":8880,"Ġevents":8881,"ĠMercury":8882,"Ġobservance":8883,"ĠSicilia":8884,"Ġbrawl":8885,"Ġdiscipline":8886,"Return":8887,"ĠANDREW":8888,"Ġlinen":8889,"Ġtriumphant":8890,"ĠHelicanus":8891,"Ġholiday":8892,"Ġcontempl":8893,"Ġuniversal":8894,"Ġperempt":8895,"AU":8896,"CU":8897,"DE":8898,"Find":8899,"FIDIUS":8900,"GAN":8901,"Ho":8902,"Henry":8903,"Lie":8904,"UFIDIUS":8905,"Worthy":8906,"Ye":8907,"bras":8908,"cub":8909,"door":8910,"fellows":8911,"honour":8912,"iond":8913,"iors":8914,"lion":8915,"make":8916,"riment":8917,"sbury":8918,"tied":8919,"vion":8920,"vius":8921,"Ġtreat":8922,"Ġtorn":8923,"Ġtardy":8924,"Ġaut":8925,"Ġmute":8926,"inu":8927,"inish":8928,"rement":8929,"reason":8930,"rehend":8931,"Ġbishop":8932,"ism":8933,"erate":8934,"Ġfre":8935,"Ġfol":8936,"Ġfile":8937,"Ġfurious":8938,"itus":8939,"itiff":8940,"enor":8941,"Ġhides":8942,"Ġhills":8943,"Ġthumb":8944,"ario":8945,"Ġpent":8946,"Ġpangs":8947,"Ġtoss":8948,"Ġtomorrow":8949,"othe":8950,"otent":8951,"anks":8952,"Ġgains":8953,"Ġgna":8954,"Ġguts":8955,"stasy":8956,"atage":8957,"Ġbeads":8958,"lect":8959,"ĠACH":8960,"ĠAUFIDIUS":8961,"ednes":8962,"imo":8963,"imate":8964,"imber":8965,"ĠWorthi":8966,"asci":8967,"ida":8968,"idents":8969,"alus":8970,"ripp":8971,"rikes":8972,"ĠSLEN":8973,"Ġreek":8974,"urity":8975,"ĠBona":8976,"Ġdole":8977,"ĠChi":8978,"ĠCourt":8979,"ĠMis":8980,"ĠMan":8981,"ĠMethought":8982,"esture":8983,"earest":8984,"Ġsepul":8985,"Ġnoses":8986,"andra":8987,"ifer":8988,"Ġsuffered":8989,"Ġfaster":8990,"ĠPed":8991,"ĠPresent":8992,"ĠGri":8993,"ĠGiving":8994,"ĠGERTR":8995,"ĠDer":8996,"Ġprate":8997,"emned":8998,"umain":8999,"urence":9000,"Ġunfe":9001,"Ġdishes":9002,"Ġdisorder":9003,"Ġhowl":9004,"Ġquake":9005,"Ġquantity":9006,"Ġfoil":9007,"Ġabject":9008,"udent":9009,"Ġplight":9010,"Ġplenty":9011,"Ġplots":9012,"Ġchari":9013,"Ġroots":9014,"ĠJustice":9015,"ARL":9016,"ĠHecub":9017,"ignier":9018,"Ġleek":9019,"tock":9020,"agon":9021,"ENES":9022,"ENEAS":9023,"ĠVillain":9024,"Ġstratage":9025,"Ġcommends":9026,"Ġscars":9027,"Ġowner":9028,"Ġadul":9029,"Ġrav":9030,"ERIUS":9031,"ONE":9032,"Ġwitty":9033,"sweet":9034,"ANO":9035,"Ġmightily":9036,"Ġharlot":9037,"Ġgraced":9038,"Ġcompound":9039,"Ġcompact":9040,"Ġshowers":9041,"ertrude":9042,"ĠULY":9043,"Ġbrag":9044,"Ġbrazen":9045,"Ġcoal":9046,"Ġpapers":9047,"Ġunderneath":9048,"Ġconsist":9049,"Ġconfine":9050,"Ġrestored":9051,"Ġpassions":9052,"Ġpleaseth":9053,"Ġcharges":9054,"Ġbelief":9055,"Ġaccomp":9056,"Ġaccidents":9057,"Ġimpart":9058,"Ġimpress":9059,"Ġdiscovery":9060,"Ġfalsely":9061,"fortunate":9062,"Ġvalued":9063,"Ġdiadem":9064,"Ġmole":9065,"Ġbanks":9066,"Ġbuilt":9067,"Ġdevilish":9068,"about":9069,"Ġboister":9070,"nerly":9071,"acity":9072,"Strike":9073,"Ġdoubts":9074,"Ġproudest":9075,"ILLES":9076,"Ġcoldly":9077,"Ġterr":9078,"Ġwaist":9079,"ventry":9080,"Ġparch":9081,"Ġtruant":9082,"Ġprotection":9083,"ixteen":9084,"Ġentreats":9085,"Ġattire":9086,"LEANS":9087,"Ġgladly":9088,"ception":9089,"Ġoffender":9090,"Ġlosses":9091,"Ġinterim":9092,"ĠLAFE":9093,"Ġlowly":9094,"Ġidly":9095,"Ġidleness":9096,"Ġexcursions":9097,"Ġfeats":9098,"Ġmalicious":9099,"Ġsteals":9100,"ĠLUCIO":9101,"Ġlustre":9102,"Ġblem":9103,"bbles":9104,"Ġigno":9105,"Ġcommendations":9106,"ĠLaurence":9107,"poc":9108,"Ġchurchyard":9109,"ancies":9110,"Ġtemples":9111,"Ġintends":9112,"Ġtribune":9113,"Ġdrunkard":9114,"ICKLY":9115,"IDERIUS":9116,"ucelle":9117,"Ġgirls":9118,"ĠEgyptian":9119,"UDE":9120,"Ġholiness":9121,"Ġsquire":9122,"Ġdisgraced":9123,"Ġdignities":9124,"Ġproduce":9125,"othsayer":9126,"Ġextremes":9127,"Ġmelted":9128,"ĠCORN":9129,"Ġgazing":9130,"Ġpurchased":9131,"Ġwinged":9132,"ĠAlarums":9133,"Ġpatron":9134,"Ġworthiest":9135,"Ġderived":9136,"Ġfantasy":9137,"ĠApril":9138,"ĠORLEANS":9139,"ĠPisa":9140,"Death":9141,"Ġpronounced":9142,"ĠServingman":9143,"ĠGUIDERIUS":9144,"Ġrepeat":9145,"ĠLieutenant":9146,"RIPP":9147,"Ġtrod":9148,"Ġpainting":9149,"Ġbridge":9150,"Ġtraveller":9151,"ĠBrab":9152,"Ġwarrior":9153,"ĠQUICKLY":9154,"Ġbankrupt":9155,"ĠAGRIPP":9156,"Ġapplaud":9157,"Ġnapkin":9158,"ĠGonz":9159,"Ġpursuit":9160,"ĠCornwall":9161,"Ġgossip":9162,"Ġruffian":9163,"Ġornament":9164,"Ġpursued":9165,"ĠOlivia":9166,"white":9167,"withal":9168,"Ġdistracted":9169,"Romeo":9170,"Ġfantastical":9171,"Ġembassy":9172,"Ġpestilence":9173,"Ġbeautiful":9174,"ĠPANDARUS":9175,"SSES":9176,"iquity":9177,"Ġoblivion":9178,"Ġfifteen":9179,"Ġabominable":9180,"Ġfuture":9181,"Ġashore":9182,"ĠVIOLA":9183,"Ġperemptory":9184,"iondello":9185,"ĠACHILLES":9186,"ednesday":9187,"ascivious":9188,"ĠSLENDER":9189,"Ġsepulch":9190,"ĠGERTRUDE":9191,"ĠHecuba":9192,"ĠULYSSES":9193,"ĠLAFEU":9194,"ĠAGRIPPA":9195,"Ch":9196,"Drum":9197,"Fare":9198,"Lady":9199,"Rather":9200,"Sp":9201,"aled":9202,"ba":9203,"bre":9204,"book":9205,"body":9206,"gard":9207,"large":9208,"mind":9209,"miss":9210,"ply":9211,"patch":9212,"rot":9213,"ually":9214,"ouble":9215,"inch":9216,"orth":9217,"Ġfulf":9218,"Ġcri":9219,"ĠIrish":9220,"once":9221,"Ġthigh":9222,"Ġpup":9223,"Ġpipe":9224,"Ġtoy":9225,"cell":9226,"ĠAENEAS":9227,"iding":9228,"ĠHum":9229,"ĠBest":9230,"ĠBreak":9231,"ĠBiondello":9232,"Ġdemon":9233,"ushi":9234,"usions":9235,"ĠCardinal":9236,"ests":9237,"ĠGa":9238,"ĠGertrude":9239,"ĠNew":9240,"Ġsheet":9241,"Ġmoreover":9242,"Ġcaitiff":9243,"Ġarras":9244,"ĠThings":9245,"Ġunruly":9246,"Ġjer":9247,"Ġjump":9248,"Ġoutst":9249,"Ġexcess":9250,"ĠJesu":9251,"ĠKnocking":9252,"Ġwarning":9253,"Ġcompet":9254,"Ġgloss":9255,"Ġnativity":9256,"Ġtraged":9257,"ĠOrsino":9258,"Ġcurs":9259,"Ġrightful":9260,"Ġprivy":9261,"ĠRead":9262,"ometime":9263,"Ġfights":9264,"ĠAlcibiades":9265,"Ġinstinct":9266,"Ġjudgments":9267,"Ġwisest":9268,"Ġparle":9269,"Ġparcel":9270,"Ġpayment":9271,"Ġrichly":9272,"Ġcreated":9273,"ĠDido":9274,"Ġharmless":9275,"Ġregal":9276,"Ġinterrupt":9277,"ĠComm":9278,"Ġhurts":9279,"Ġembraced":9280,"glass":9281,"Ġstarved":9282,"Ġescap":9283,"ĠSoldier":9284,"suing":9285,"Ġtwelvemonth":9286,"Ġantique":9287,"ĠItalian":9288,"ĠShallow":9289,"Ġworthier":9290,"ĠEnough":9291,"Ġvolunt":9292,"Ġsanctuary":9293,"Arm":9294,"Ġaccusation":9295,"Ġbelongs":9296,"ĠHostess":9297,"Ġassembly":9298,"Ġcorporal":9299,"ĠREGAN":9300,"Ġbattery":9301,"Ġnegligence":9302,"Ġaltar":9303,"Kneeling":9304,"Ġenrich":9305,"ĠCinna":9306,"Ġcapital":9307,"ĠCostard":9308,"Cor":9309,"DICK":9310,"DUFF":9311,"Fall":9312,"ILO":9313,"MER":9314,"NON":9315,"PE":9316,"PID":9317,"Patience":9318,"SA":9319,"TES":9320,"XFORD":9321,"bers":9322,"bby":9323,"balls":9324,"could":9325,"cies":9326,"call":9327,"down":9328,"fle":9329,"gor":9330,"iber":9331,"mother":9332,"name":9333,"pol":9334,"rates":9335,"song":9336,"try":9337,"uell":9338,"while":9339,"Ġtalks":9340,"Ġast":9341,"Ġactor":9342,"Ġague":9343,"Ġages":9344,"Ġsow":9345,"Ġsixteen":9346,"Ġmates":9347,"Ġmudd":9348,"iner":9349,"inus":9350,"inance":9351,"inity":9352,"inence":9353,"inbras":9354,"erp":9355,"eril":9356,"orus":9357,"Ġfist":9358,"Ġfren":9359,"Ġomit":9360,"Ġdit":9361,"Ġdul":9362,"Ġdash":9363,"Ġced":9364,"Ġcue":9365,"Ġcard":9366,"Ġcrew":9367,"Ġcords":9368,"ĠImp":9369,"Ġlull":9370,"ena":9371,"enix":9372,"Ġthrows":9373,"arition":9374,"Ġpow":9375,"Ġpel":9376,"Ġpatter":9377,"Ġpatricians":9378,"Ġgust":9379,"owland":9380,"stances":9381,"atin":9382,"Ġbeef":9383,"ĠTR":9384,"ĠTen":9385,"ĠTra":9386,"ĠTouch":9387,"ĠAUM":9388,"Ġmeek":9389,"Ġnotable":9390,"Ġeg":9391,"Ġew":9392,"ĠWIN":9393,"ĠWEST":9394,"ention":9395,"rab":9396,"ĠSC":9397,"ĠSix":9398,"Ġrenew":9399,"Ġliar":9400,"vert":9401,"ĠBour":9402,"ĠBell":9403,"ĠBENE":9404,"ĠBless":9405,"ĠBOL":9406,"ĠBret":9407,"ĠEnobarbus":9408,"Ġshakes":9409,"ĠMasters":9410,"ĠMene":9411,"eable":9412,"Ġseated":9413,"Ġanchor":9414,"unction":9415,"uneration":9416,"andon":9417,"Ġloins":9418,"ĠOver":9419,"ĠOpen":9420,"ĠOXFORD":9421,"Ġsunder":9422,"ĠFle":9423,"ĠFall":9424,"ĠLEN":9425,"hole":9426,"ĠPED":9427,"Ġmangled":9428,"artered":9429,"ending":9430,"ĠDown":9431,"ĠDeliver":9432,"ĠNEST":9433,"Ġwheres":9434,"Ġprim":9435,"Ġprating":9436,"Ġconv":9437,"ĠRun":9438,"Ġarrows":9439,"Ġunlike":9440,"Ġunlaw":9441,"ode":9442,"Ġmadly":9443,"Ġenge":9444,"Ġenchan":9445,"Ġensue":9446,"Ġhop":9447,"Ġhoar":9448,"Ġdisloyal":9449,"Ġoutside":9450,"Ġproject":9451,"arest":9452,"wny":9453,"Ġthinkest":9454,"ffic":9455,"Ġfollies":9456,"Ġabund":9457,"Ġabandon":9458,"udes":9459,"Ġgreatly":9460,"Ġleagues":9461,"liest":9462,"Ġflames":9463,"ĠVent":9464,"ĠVERN":9465,"Ġstrings":9466,"Ġperceived":9467,"Ġpermit":9468,"Ġadverse":9469,"Ġrages":9470,"ERLE":9471,"Ġlazy":9472,"Ġcloth":9473,"Ġclown":9474,"Ġdownright":9475,"Ġpreserved":9476,"Ġplagues":9477,"Ġcompul":9478,"ĠSirs":9479,"Ġmerits":9480,"Ġmerriment":9481,"Ġglance":9482,"Ġindust":9483,"ORC":9484,"Ġchival":9485,"Ġunderstood":9486,"Ġconfined":9487,"Ġrests":9488,"Ġrestraint":9489,"Ġfully":9490,"Ġchildish":9491,"Ġcheese":9492,"Ġchances":9493,"ĠAntenor":9494,"Ġhusbandry":9495,"ELAND":9496,",'--\"":9497,"Ġlightly":9498,"Ġassume":9499,"Ġfalcon":9500,"ALT":9501,"gued":9502,"Ġhappier":9503,"INGBROKE":9504,"aby":9505,"enerate":9506,"Ġinstead":9507,"Ġtemperate":9508,"Ġgrowth":9509,"Ġcomfortable":9510,"Ġawaked":9511,"Ġmete":9512,"ILLO":9513,"xton":9514,"Ġinfancy":9515,"Ġinfamy":9516,"Ġcondemned":9517,"Ġbaw":9518,"Ġmusician":9519,"Ġaffair":9520,"Ġaffords":9521,"Ġwished":9522,"Ġrecovered":9523,"Ġrecreant":9524,"bedience":9525,"Ġminutes":9526,"soe":9527,"Ġbarge":9528,"Ġforgiven":9529,"Ġpasture":9530,"Twould":9531,"Ġrequires":9532,"Ġpersonal":9533,"Ġdeeper":9534,"Ġincest":9535,"Ġsummon":9536,"AMEM":9537,"Ġattorn":9538,"Ġsurm":9539,"Ġwretches":9540,"Ġpenalty":9541,"Ġstirr":9542,"Ġbadge":9543,"Ġsuffering":9544,"Ġlambs":9545,"Ġplucks":9546,"Ġrespected":9547,"ĠFluell":9548,"ĠLAUN":9549,"Ġranc":9550,"Ġpupp":9551,"Attend":9552,"Ġmotions":9553,"Ġvilely":9554,"IANUS":9555,"Ġmounted":9556,"Ġdishonest":9557,"Ġselfsame":9558,"Ġidol":9559,"Ġreligion":9560,"Ġfeat":9561,"ĠLUCILIUS":9562,"Ġsecretly":9563,"ĠCommand":9564,"Ġfeeds":9565,"Ġfeeding":9566,"Ġadmired":9567,"Ġshop":9568,"Ġwoods":9569,"ĠLEPID":9570,"Ġoccup":9571,"Ġinsult":9572,"said":9573,"ancing":9574,"ĠROB":9575,"Ġdukes":9576,"Ġsorts":9577,"Ġproofs":9578,"Ġcourtesies":9579,"Ġhunter":9580,"UMN":9581,"Ġmidwife":9582,"ĠFortinbras":9583,"Ġcompliment":9584,"Ġlodged":9585,"Ġwrathful":9586,"ĠBritish":9587,"Ġmended":9588,"Ġamazement":9589,"Ġshrill":9590,"Ġshrink":9591,"EDFORD":9592,"Ġdirected":9593,"Ġstarts":9594,"ĠLEONTES":9595,"Ġdaggers":9596,"iban":9597,"Ġbawdy":9598,"Ġfrighted":9599,"Ġeager":9600,"Ġcaptive":9601,"ĠSpain":9602,"ĠMACDUFF":9603,"NOX":9604,"Ġmagn":9605,"Ġcloudy":9606,"ĠCalais":9607,"Ġheavier":9608,"ĠSyracus":9609,"Ġsaints":9610,"Ġneglected":9611,"Ġadmiration":9612,"olles":9613,"Ġyesternight":9614,"ĠCASSIUS":9615,"Ġmoody":9616,"Ġshriek":9617,"Ġthorns":9618,"Ġarchbishop":9619,"Ġreceipt":9620,"Ġsteeds":9621,"ĠAGAMEM":9622,"Ġapplause":9623,"Ġcarrion":9624,"leanor":9625,"Ġinheritance":9626,"Ġendeavour":9627,"Ġlevied":9628,"quisite":9629,"Ġinterpret":9630,"ĠSILVIA":9631,"ĠParthi":9632,"Ġbraggart":9633,"Ġtapster":9634,"ĠGallia":9635,"Ġlechery":9636,"inguish":9637,"Ġsimplicity":9638,"ĠLYSANDER":9639,"ĠADRIAN":9640,"ĠCastle":9641,"Ġvanquish":9642,"Ġtyrannous":9643,"Ġcentre":9644,"Ġmarshal":9645,"ĠVOLUMN":9646,"Ġcrimson":9647,"scaped":9648,"MORELAND":9649,"ĠFlorentine":9650,"ĠBeaufort":9651,"Ġsyllable":9652,"ĠSIMPLE":9653,"Ġfolks":9654,"Ġboisterous":9655,"ĠBrabant":9656,"Ġsepulchre":9657,"Ġfrenzy":9658,"ĠAUMERLE":9659,"ĠWESTMORELAND":9660,"ĠBENEDICK":9661,"ĠBOLINGBROKE":9662,"ĠMenelaus":9663,"ĠLENNOX":9664,"ĠPEDRO":9665,"ĠNESTOR":9666,"ĠVERNON":9667,"ĠFluellen":9668,"ĠLEPIDUS":9669,"ĠAGAMEMNON":9670,"Break":9671,"Father":9672,"Gl":9673,"Se":9674,"away":9675,"cor":9676,"cast":9677,"cont":9678,"fish":9679,"nothing":9680,"sir":9681,"word":9682,"Ġbate":9683,"orm":9684,"lled":9685,"Ġfitted":9686,"Ġfowl":9687,"ital":9688,"Ġcushi":9689,"Ġnut":9690,"onius":9691,"Ġoffered":9692,"Ġgets":9693,"attle":9694,"advised":9695,"ĠWednesday":9696,"ĠSon":9697,"ĠSaw":9698,"Ġrehear":9699,"Ġsol":9700,"urther":9701,"ĠHie":9702,"ĠBottom":9703,"ĠBEDFORD":9704,"ĠEleanor":9705,"ĠChe":9706,"ĠCAL":9707,"Ġspacious":9708,"ĠLatin":9709,"Ġshower":9710,"ĠDef":9711,"ĠDumain":9712,"quer":9713,"quit":9714,"ĠRuss":9715,"ĠRowland":9716,"Ġswoon":9717,"ĠExcellent":9718,"Ġsavour":9719,"Things":9720,"Ġgravity":9721,"Ġexquisite":9722,"ffer":9723,"Ġabst":9724,"aved":9725,"Ġperadventure":9726,"Ġnighting":9727,"Ġlac":9728,"Noble":9729,"Ġcoil":9730,"ĠAnswer":9731,"Ġchrist":9732,"Ġtabour":9733,"Ġdraught":9734,"Ġdragon":9735,"Ġlawy":9736,"ealing":9737,"Ġcommandment":9738,"comp":9739,"ervation":9740,"mercy":9741,"Ġyields":9742,"Ġforgotten":9743,"Ġrequired":9744,"Ġfourth":9745,"Another":9746,"Ġboldness":9747,"Ġtenderness":9748,"Ġentreaty":9749,"Ġchamberlain":9750,"angled":9751,"Ġchurlish":9752,"ĠComes":9753,"Ġbeards":9754,"Ġinsinu":9755,"borne":9756,"Comes":9757,"Ġcontrad":9758,"ĠAEd":9759,"Ġexecutioner":9760,"Ġstockings":9761,"ĠCoventry":9762,"Ġheaviness":9763,"Ġtestimony":9764,"Ġdesigns":9765,"Ġavouch":9766,"Gentlemen":9767,"Ġhypoc":9768,"Ġecstasy":9769,"Ġwrinkled":9770,"window":9771,"Ġtrencher":9772,"ĠAntiochus":9773,"ĠKneels":9774,"Ġprincipal":9775,"ĠWorthies":9776,"Ġjerkin":9777,"Char":9778,"CIS":9779,"CLIFF":9780,"Deliver":9781,"Every":9782,"Five":9783,"Gives":9784,"Him":9785,"IER":9786,"La":9787,"Methought":9788,"NIER":9789,"Pre":9790,"Run":9791,"Right":9792,"Sure":9793,"Sblood":9794,"Ten":9795,"ZAB":9796,"burn":9797,"bable":9798,"dea":9799,"found":9800,"iot":9801,"iard":9802,"ibly":9803,"journ":9804,"lers":9805,"mans":9806,"nam":9807,"phan":9808,"pens":9809,"poster":9810,"roop":9811,"rhus":9812,"skin":9813,"too":9814,"ugs":9815,"vial":9816,"heres":9817,"Ġache":9818,"Ġsess":9819,"Ġsans":9820,"Ġsize":9821,"Ġmum":9822,"Ġmate":9823,"Ġmuse":9824,"Ġwester":9825,"Ġbal":9826,"Ġbree":9827,"Ġbias":9828,"isa":9829,"iseth":9830,"orate":9831,"Ġfet":9832,"Ġfres":9833,"Ġfishes":9834,"Ġobl":9835,"Ġdirt":9836,"Ġdally":9837,"Ġdomin":9838,"Ġcu":9839,"Ġcy":9840,"Ġcod":9841,"Ġcured":9842,"Ġcases":9843,"ĠIlly":9844,"ĠIACH":9845,"Ġlot":9846,"Ġnort":9847,"Ġnail":9848,"enown":9849,"Ġhound":9850,"Ġthund":9851,"Ġthwart":9852,"arre":9853,"Ġpoo":9854,"Ġpious":9855,"Ġpuff":9856,"Ġtops":9857,"Ġtokens":9858,"Ġgull":9859,"omest":9860,"Ġbeam":9861,"Ġinches":9862,"Ġinhabit":9863,"Ġhag":9864,"ĠALE":9865,"Ġmew":9866,"Ġmeal":9867,"irnam":9868,"Ġforged":9869,"adise":9870,"ĠWall":9871,"ĠWitness":9872,"ashes":9873,"Ġken":9874,"ribly":9875,"rave":9876,"raised":9877,"rained":9878,"ĠSail":9879,"Ġrent":9880,"vertis":9881,"ĠBL":9882,"ĠBAL":9883,"ĠBRA":9884,"ĠBeshrew":9885,"ĠBirnam":9886,"Ġdeem":9887,"ĠEur":9888,"ĠEver":9889,"ĠEgl":9890,"ĠELI":9891,"ĠCar":9892,"ĠCRESS":9893,"Ġshaft":9894,"ĠMeet":9895,"ifter":9896,"ĠFore":9897,"ĠFetch":9898,"Ġknell":9899,"Ġvices":9900,"ĠPre":9901,"ĠPoly":9902,"ĠParson":9903,"ĠPucelle":9904,"ĠGives":9905,"Ġmansion":9906,"Ġnecks":9907,"Ġwhate":9908,"Ġgoest":9909,"Ġconsec":9910,"Ġrad":9911,"Ġrout":9912,"Ġtrash":9913,"ĠRAT":9914,"icing":9915,"Ġcanop":9916,"reath":9917,"feits":9918,"Ġarrant":9919,"Ġusage":9920,"Ġbrim":9921,"Ġuncon":9922,"Ġunfortunate":9923,"Ġjar":9924,"Ġjade":9925,"Ġenlarge":9926,"Ġproffer":9927,"arer":9928,"ptuous":9929,"Ġeyel":9930,"Ġplants":9931,"Ġmarr":9932,"ĠJUL":9933,"Ġlevy":9934,"Ġarts":9935,"Ġrivers":9936,"eeds":9937,"Ġrapt":9938,"plex":9939,"Ġcloy":9940,"gery":9941,"quel":9942,"Ġhousewife":9943,"Ġbetters":9944,"Ġglow":9945,"Ġsmart":9946,"Ġindent":9947,"vilion":9948,"Ġtravail":9949,"Ġconsum":9950,"Ġconfused":9951,"Ġpeaceful":9952,"Ġpresented":9953,"Ġneedless":9954,"Ġpricks":9955,"Ġretires":9956,"Ġretired":9957,"Ġfaithfully":9958,"Ġsuborn":9959,"Ġsubmit":9960,"Ġcaused":9961,"Ġassail":9962,"ĠReady":9963,"Ġsleepy":9964,"ometimes":9965,"Ġgoldsm":9966,"ĠAlmost":9967,"ourscore":9968,"Ġboon":9969,"Ġpaltry":9970,"Ġgreets":9971,"Ġhorsemen":9972,"Ġdenies":9973,"Ġdenial":9974,"Ġgeneration":9975,"Ġvoid":9976,"IAM":9977,"Ġcrush":9978,"Ġcram":9979,"Ġcrafty":9980,"itories":9981,"Ġdistill":9982,"Ġairy":9983,"Ġasking":9984,"Ġbroils":9985,"Ġdreamt":9986,"Ġtrusted":9987,"Ġwaft":9988,"aville":9989,"avarre":9990,"Almost":9991,"Ġincorp":9992,"Ġsignal":9993,"Ġentreated":9994,"Ġordinary":9995,"Ġspeedily":9996,"Ġweaker":9997,"Ġplainness":9998,"gging":9999,"Ġspeechless":10000,"iped":10001,"ĠUncle":10002,"Ġadder":10003,"Ġwildly":10004,"Ġwoeful":10005,"Ġrelief":10006,"Ġmalign":10007,"ĠLucio":10008,"Ġpoisonous":10009,"ĠParolles":10010,"Ġadmitted":10011,"Ġfills":10012,"Ġchooseth":10013,"Ġdrives":10014,"Ġpractised":10015,"CHESTER":10016,"Ġstudies":10017,"Ġlane":10018,"Ġopinions":10019,"Ġwhipp":10020,"Ġwasted":10021,"Ġgaoler":10022,"Ġkneels":10023,"Ġwealthy":10024,"Haven":10025,"Command":10026,"Ġdecree":10027,"Ġremainder":10028,"ĠStands":10029,"Ġutterance":10030,"IMO":10031,"Ġrevolted":10032,"ĠCambridge":10033,"Ġfigures":10034,"Ġmaidenhead":10035,"Ġdwelling":10036,"Ġbaser":10037,"Ġbasest":10038,"cannot":10039,"Ġbeggary":10040,"Ġlanguish":10041,"therefore":10042,"Ġperilous":10043,"Ġdeceased":10044,"ĠCLEON":10045,"Ġghosts":10046,"Ġcovert":10047,"ĠTHURIO":10048,"Ġcompassion":10049,"Ġinclination":10050,"ĠBoyet":10051,"Ġmurderers":10052,"Ġpearls":10053,"ĠCaliban":10054,"Ġsprings":10055,"Ġworthily":10056,"Ġfinish":10057,"ĠALENC":10058,"Ġstatutes":10059,"Ġcoffers":10060,"Ġungentle":10061,"Ġfeathers":10062,"IGNIER":10063,"Ġdebate":10064,"ĠLongaville":10065,"Ġachieved":10066,"Ġgreyh":10067,"Ġambassadors":10068,"Neither":10069,"ĠWestmin":10070,"Ġhurl":10071,"Ġrumour":10072,"Ġincense":10073,"ĠGrace":10074,"Ġadversaries":10075,"Ġmiscarry":10076,"Ġdungh":10077,"Ġobscure":10078,"Ġcorpse":10079,"Ġunluck":10080,"Ġbolt":10081,"ĠAccording":10082,"Ġmingle":10083,"Ġmingled":10084,"ĠGoneril":10085,"Ġtext":10086,"ĠREIGNIER":10087,"Ġindignation":10088,"According":10089,"Ġquestions":10090,"Ġpigeons":10091,"ĠBASSIANUS":10092,"Ġsolicit":10093,"Ġcopy":10094,"Ġvictorious":10095,"Ġostent":10096,"yrrhus":10097,"Ġvigour":10098,"ĠXI":10099,"Ġplenteous":10100,"Ġchallenged":10101,"ĠMonmouth":10102,"Ġdesolation":10103,"favoured":10104,"Ġpassed":10105,"Ġruthless":10106,"Ġmurm":10107,"Ġenraged":10108,"ounsieur":10109,"Ġcovetous":10110,"ĠHECTOR":10111,"Ġchimney":10112,"rippa":10113,"Ġterritories":10114,"ĠWINCHESTER":10115,"Ġchivalry":10116,"ĠROBIN":10117,"ZABETH":10118,"ĠIACHIMO":10119,"ĠALEX":10120,"ĠBALTH":10121,"ĠEglamour":10122,"ĠELIZABETH":10123,"ĠCRESSIDA":10124,"ĠRATCLIFF":10125,"Ġgoldsmith":10126,"ĠALENCON":10127,"ĠWestminster":10128,"Better":10129,"Lea":10130,"Lies":10131,"Making":10132,"New":10133,"Richard":10134,"against":10135,"bag":10136,"fool":10137,"gown":10138,"grown":10139,"hrew":10140,"lord":10141,"ops":10142,"pri":10143,"pla":10144,"serv":10145,"ream":10146,"Ġbites":10147,"Ġfen":10148,"Ġfest":10149,"Ġfancies":10150,"Ġdaring":10151,"Ġcow":10152,"Ġcas":10153,"Ġyare":10154,"Ġpence":10155,"Ġpicked":10156,"Ġgam":10157,"Ġgear":10158,"ste":10159,"stable":10160,"ĠTalk":10161,"ĠAw":10162,"ĠWatch":10163,"Ġhiss":10164,"Ġstare":10165,"riends":10166,"ĠSa":10167,"Ġreform":10168,"Ġrelease":10169,"ĠHERO":10170,"ĠBetter":10171,"ĠChat":10172,"ĠMaking":10173,"amity":10174,"Ġsepar":10175,"three":10176,"ĠLies":10177,"ĠPrepare":10178,"ĠPyrrhus":10179,"ĠGot":10180,"ender":10181,"Ġupward":10182,"ĠNan":10183,"rowing":10184,"Ġswine":10185,"ppily":10186,"Ġjades":10187,"Ġsall":10188,"Ġdisplay":10189,"Ġprogress":10190,"Ġhandle":10191,"Ġpole":10192,"civil":10193,"Ġchains":10194,"lips":10195,"ager":10196,"Ġwarn":10197,"Ġscale":10198,"Ġpurses":10199,"retty":10200,"ĠAny":10201,"ĠWhereof":10202,"Ġconflict":10203,"blind":10204,"Whereof":10205,"Ġbeshrew":10206,"ĠReignier":10207,"Ġdiscom":10208,"Ġdiscovered":10209,"penny":10210,"Ġsending":10211,"Ġcommander":10212,"Ġgetting":10213,"Ġgenerally":10214,"Ġcarp":10215,"Ġrecovery":10216,"Ġactors":10217,"Ġpossessed":10218,"Ġgallants":10219,"ĠEnglishman":10220,"afford":10221,"ĠCanst":10222,"Ġfrailty":10223,"Ġlabouring":10224,"Ġmirror":10225,"Ġsnake":10226,"monster":10227,"Ġelement":10228,"ĠHadst":10229,"Ġknocking":10230,"ĠVenet":10231,"Ġinnoc":10232,"Ġcapacity":10233,"Ġpublish":10234,"Ġcontinent":10235,"ĠShrew":10236,"Ġeduc":10237,"Ġwickedness":10238,"ĠBritons":10239,"Ġsolemnity":10240,"Ġdooms":10241,"Ġcompanies":10242,"Ġingen":10243,"portion":10244,"Ġtestament":10245,"Brutus":10246,"Ġclap":10247,"Ġassistance":10248,"colour":10249,"Ġblushes":10250,"Ġchiding":10251,"Ġdissembling":10252,"gentleman":10253,"Ġmanifest":10254,"Ġplanet":10255,"ĠProspero":10256,"ĠBedford":10257,"Ġentrails":10258,"Ġcrooked":10259,"ĠFRANCIS":10260,"ĠSurrey":10261,"favour":10262,"Ġcontemplation":10263,"Ġpupil":10264,"Ġvoluntary":10265,"Ġunlawful":10266,"ĠVentidius":10267,"'!":10268,"AV":10269,"AX":10270,"Among":10271,"AUL":10272,"Cl":10273,"COL":10274,"Down":10275,"Ever":10276,"Fetch":10277,"GE":10278,"GUN":10279,"JAX":10280,"Live":10281,"LAS":10282,"March":10283,"Open":10284,"OUR":10285,"RICE":10286,"SC":10287,"WIS":10288,"Witness":10289,"aces":10290,"ached":10291,"aws":10292,"bearer":10293,"car":10294,"cold":10295,"did":10296,"doubt":10297,"fend":10298,"fire":10299,"friend":10300,"ipp":10301,"low":10302,"lady":10303,"mor":10304,"mir":10305,"married":10306,"ocate":10307,"pter":10308,"phy":10309,"pray":10310,"purse":10311,"such":10312,"tween":10313,"uit":10314,"uld":10315,"vation":10316,"vided":10317,"witted":10318,"zes":10319,"Ġtack":10320,"Ġtilt":10321,"Ġaust":10322,"Ġsheriff":10323,"Ġmus":10324,"iners":10325,"inction":10326,"inty":10327,"Ġwight":10328,"Ġwages":10329,"hale":10330,"Ġbau":10331,"Ġbows":10332,"Ġbars":10333,"Ġbudge":10334,"isc":10335,"issed":10336,"erth":10337,"Ġful":10338,"Ġfrow":10339,"itimate":10340,"Ġdon":10341,"Ġdice":10342,"Ġdall":10343,"Ġcousins":10344,"Ġlur":10345,"Ġlux":10346,"Ġnurs":10347,"onish":10348,"onna":10349,"enster":10350,"Ġparson":10351,"Ġhew":10352,"Ġgulf":10353,"omy":10354,"stal":10355,"stock":10356,"athan":10357,"atcl":10358,"atory":10359,"Ġbeck":10360,"Ġbellow":10361,"Ġinn":10362,"seed":10363,"seem":10364,"cels":10365,"Ġham":10366,"lear":10367,"ĠTur":10368,"etition":10369,"ldst":10370,"ĠAmong":10371,"uto":10372,"keys":10373,"Ġweb":10374,"ĠWit":10375,"ĠWrite":10376,"ĠWORC":10377,"idel":10378,"alms":10379,"Ġstem":10380,"Ġstinking":10381,"raign":10382,"raught":10383,"ĠSi":10384,"Ġrevell":10385,"Ġlick":10386,"Ġlicence":10387,"ĠHUM":10388,"ĠHOT":10389,"ĠBEN":10390,"ĠBUR":10391,"ĠEr":10392,"ĠEthi":10393,"ĠESC":10394,"hire":10395,"ĠCut":10396,"ĠCent":10397,"ĠCORD":10398,"ĠCimber":10399,"ĠME":10400,"eased":10401,"Ġherbs":10402,"Ġsevere":10403,"Ġsequel":10404,"unct":10405,"ifies":10406,"ifully":10407,"Ġspies":10408,"Ġsphere":10409,"Ġspec":10410,"Ġspider":10411,"Ġsparrow":10412,"ellus":10413,"ĠFR":10414,"ĠFive":10415,"ĠFaul":10416,"ilities":10417,"Ġfav":10418,"Ġvac":10419,"ĠPe":10420,"ĠPha":10421,"ĠPent":10422,"ĠProm":10423,"ĠPUCK":10424,"Ġshouts":10425,"artar":10426,"Ġamount":10427,"Ġuphold":10428,"ĠDr":10429,"ĠDest":10430,"ĠDER":10431,"ĠDION":10432,"ĠNER":10433,"ĠNich":10434,"ĠNavarre":10435,"Ġconception":10436,"Ġrats":10437,"Ġriddle":10438,"ersu":10439,"Ġtrad":10440,"Ġtrun":10441,"umps":10442,"quess":10443,"quenet":10444,"ici":10445,"ico":10446,"Ġswan":10447,"Ġcabin":10448,"urers":10449,"Ġorator":10450,"Ġorphan":10451,"Ġarri":10452,"Ġarrog":10453,"ortune":10454,"olis":10455,"olve":10456,"olas":10457,"iggard":10458,"odest":10459,"Ġjugg":10460,"Ġjaws":10461,"Ġmadmen":10462,"Ġmadonna":10463,"Ġsale":10464,"idele":10465,"Ġprobable":10466,"pton":10467,"allel":10468,"Ġhowling":10469,"ffith":10470,"Ass":10471,"Ġabb":10472,"Ġchafed":10473,"Ġroll":10474,"Ġrode":10475,"ĠKn":10476,"agne":10477,"Ġserving":10478,"Ġrive":10479,"Ġwary":10480,"Ġsonnet":10481,"Ġscra":10482,"Ġrape":10483,"oused":10484,"Ġpredom":10485,"chest":10486,"swain":10487,"Ġbrew":10488,"Ġimages":10489,"Ġfooling":10490,"Ġcontrived":10491,"ucket":10492,"isses":10493,"Ġremed":10494,"Ġpurged":10495,"Ġcomposed":10496,"ĠSoothsayer":10497,"Ġmerchan":10498,"OLY":10499,"OLOG":10500,"Ġglories":10501,"Ġlively":10502,"Ġsmack":10503,"Ġgrudge":10504,"Ġslender":10505,"beg":10506,"Ġcope":10507,"Ġpavilion":10508,"Ġtraffic":10509,"Ġtribe":10510,"blest":10511,"bleness":10512,"Ġtables":10513,"Ġtawny":10514,"Ġpeck":10515,"Ġcurb":10516,"Ġcurts":10517,"Ġneedle":10518,"Ġtreble":10519,"Ġchanced":10520,"Ġchanging":10521,"Ġhumorous":10522,"Ġsubmission":10523,"Ġmonsters":10524,"Ġdiscern":10525,"Ġstreams":10526,"Ġmisfortune":10527,"Ġstately":10528,"ĠHerne":10529,"Ġyeoman":10530,"Ġfarm":10531,"Ġhappen":10532,"Ġlaying":10533,"versy":10534,"plain":10535,"STONE":10536,"ĠEdgar":10537,"Ġreads":10538,"Ġspoils":10539,"Ġgenerous":10540,"Ġharder":10541,"Ġcrime":10542,"Ġcrutch":10543,"Ġsingular":10544,"Ġbreathless":10545,"Ġmurdered":10546,"Ġdistressed":10547,"Ġdistraction":10548,"Ġsuffers":10549,"ATE":10550,"ATRICE":10551,"Ġdames":10552,"Ġinfants":10553,"Ġchop":10554,"Ġchoked":10555,"Ġunclean":10556,"ubd":10557,"ubber":10558,"Ġwaits":10559,"Ġparagon":10560,"Ġbarr":10561,"avish":10562,"ASAR":10563,"Ġtruest":10564,"ISSA":10565,"ointing":10566,"Ġleader":10567,"Ġentreaties":10568,"Ġordain":10569,"Ġsurly":10570,"Ġwatchful":10571,"ĠProve":10572,"ĠPerchance":10573,"Ġcleave":10574,"Ġsports":10575,"Ġfraught":10576,"ĠLAUR":10577,"Ġstrengthen":10578,"Ġmodel":10579,"ĠTheseus":10580,"conce":10581,"Ġmalady":10582,"Ġfamine":10583,"Ġstealing":10584,"strong":10585,"strate":10586,"Ġteaching":10587,"Ġagent":10588,"Ġproceeded":10589,"ĠLEWIS":10590,"EMIO":10591,"Ġwedlock":10592,"show":10593,"Ġsnuff":10594,"ĠScroop":10595,"Ġjealousies":10596,"Ġmedit":10597,"Ġimportune":10598,"Ġbeggarly":10599,"Ġarguments":10600,"Ġlisten":10601,"Ġgape":10602,"Ġrefused":10603,"UMIO":10604,"Ġmidst":10605,"Ġedict":10606,"Ġdegenerate":10607,"Ġmemor":10608,"Ġmember":10609,"Ġdebtor":10610,"Ġowed":10611,"Ġpublicly":10612,"Ġsongs":10613,"Ġsailors":10614,"eese":10615,"Ġports":10616,"hispers":10617,"ĠBlanch":10618,"Ġflee":10619,"Ġsmells":10620,"Ġexpressly":10621,"Ġcircumstances":10622,"ERTES":10623,"Ġdetain":10624,"Stands":10625,"Ġslanderous":10626,"ĠAbove":10627,"Ġtriumphs":10628,"ĠPROLOG":10629,"Ġfloods":10630,"Ġschoolmaster":10631,"ĠCleon":10632,"Ġallowance":10633,"Ġcherry":10634,"Ġrewards":10635,"UGLAS":10636,"Ġpageant":10637,"Ġcozened":10638,"Ġrashness":10639,"Ġfrozen":10640,"UCHSTONE":10641,"Ġvexation":10642,"Adieu":10643,"Ġpilot":10644,"ENTINE":10645,"spur":10646,"ĠBarb":10647,"ĠMusicians":10648,"Ġfarthest":10649,"Ġvolume":10650,"ĠGRUMIO":10651,"ĠPandar":10652,"ĠDOUGLAS":10653,"Ġdoting":10654,"Ġdotage":10655,"Ġshrewdly":10656,"Ġabhorr":10657,"Perchance":10658,"Ġglobe":10659,"Ġcommonweal":10660,"Ġdescended":10661,"Ġarrested":10662,"Ġcholeric":10663,"Ġflatterers":10664,"SPUR":10665,"oubted":10666,"Ġcorrect":10667,"Ġtumult":10668,"Ġtowers":10669,"ĠTOUCHSTONE":10670,"Ġoverthrown":10671,"Ġdissemble":10672,"ĠArmado":10673,"Ġcrop":10674,"ĠHymen":10675,"Ġperfume":10676,"ĠJaquenet":10677,"ĠSILVIUS":10678,"Ġfactious":10679,"Ġornaments":10680,"Ġfrankly":10681,"Ġdiligence":10682,"Ġpulse":10683,"ĠBOY":10684,"Ġvotre":10685,"ienna":10686,"ĠMALVOLIO":10687,"ĠMALCOL":10688,"Ġconspiracy":10689,"Ġceremonies":10690,"Ġdisperse":10691,"Ġinflu":10692,"ĠHERMIA":10693,"Ġchapel":10694,"Ġappeared":10695,"Ġslippery":10696,"Ġreconcile":10697,"Ġominous":10698,"Ġunmannerly":10699,"Ġclamorous":10700,"Ġlingering":10701,"Ġhearers":10702,"urable":10703,"ĠBEATRICE":10704,"ĠJAQUES":10705,"Ġwhistle":10706,"Ġdemi":10707,"England":10708,"ĠVALENTINE":10709,"whelm":10710,"Ġprecise":10711,"Edward":10712,"Ġbequeath":10713,"ĠGriffith":10714,"ĠDerby":10715,"minded":10716,"Ġcedar":10717,"Ġpattern":10718,"Ġwestern":10719,"ĠIllyria":10720,"Ġnorthern":10721,"enowned":10722,"Ġthunders":10723,"Ġeyelids":10724,"ĠJULIA":10725,"ĠBALTHASAR":10726,"ĠShrewsbury":10727,"GUNDY":10728,"Ġfroward":10729,"enstern":10730,"atcliff":10731,"ĠWORCESTER":10732,"ĠHOTSPUR":10733,"ĠBENVOLIO":10734,"ĠBURGUNDY":10735,"ĠCORDELIA":10736,"ĠFaulconbridge":10737,"ĠNERISSA":10738,"ĠNicholas":10739,"Ġmerchants":10740,"ĠLAURENCE":10741,"ĠPROLOGUE":10742,"ĠJaquenetta":10743,"ĠMALCOLM":10744,"Beseech":10745,"Cont":10746,"France":10747,"Lead":10748,"Murd":10749,"better":10750,"break":10751,"daughter":10752,"fig":10753,"fair":10754,"ga":10755,"lph":10756,"matter":10757,"sur":10758,"tr":10759,"vis":10760,"Ġapes":10761,"Ġbiting":10762,"Ġfourscore":10763,"ĠIll":10764,"Ġnick":10765,"anger":10766,"Ġgun":10767,"Ġgeld":10768,"aying":10769,"ĠAJAX":10770,"irgin":10771,"ĠWr":10772,"ĠWear":10773,"Ġstark":10774,"ĠSund":10775,"ĠSpir":10776,"ĠSupp":10777,"lying":10778,"ĠHaply":10779,"ĠEl":10780,"rose":10781,"ĠCont":10782,"amis":10783,"Ġsew":10784,"Ġsped":10785,"Ġsulph":10786,"ĠFroth":10787,"ĠLod":10788,"Ġfac":10789,"Ġknives":10790,"holesome":10791,"ĠPres":10792,"ĠGrand":10793,"ĠDick":10794,"--'":10795,"Ġcanon":10796,"Ġcapon":10797,"Ġcalend":10798,"ĠYonder":10799,"olved":10800,"erely":10801,"Ġpros":10802,"Ġpoll":10803,"Ġexhi":10804,"urnish":10805,"fulness":10806,"Ġdaylight":10807,"Ġwrote":10808,"ĠVienna":10809,"Ġadvertis":10810,"Ġpreposter":10811,"Ġapple":10812,"Ġrepute":10813,"mean":10814,"Ġemulation":10815,"vils":10816,"Excellent":10817,"before":10818,"blown":10819,"ĠStafford":10820,"Ġbreathes":10821,"ĠReceive":10822,"Ġdances":10823,"ĠMARIANA":10824,"brain":10825,"Ġwalked":10826,"ROS":10827,"ĠProc":10828,"Ġappearance":10829,"Ġoffenders":10830,"Ġpretence":10831,"Ġbondman":10832,"ĠLAERTES":10833,"Ġscarlet":10834,"Ġwitnesses":10835,"ĠLucet":10836,"ĠDUM":10837,"gracious":10838,"Ġsimply":10839,"ĠHappy":10840,"Ġthrowing":10841,"Ġobserved":10842,"Ġimportant":10843,"Ġgentler":10844,"Ġrequests":10845,"ĠAntonius":10846,"Ġverity":10847,"Ġbestowed":10848,"Ġdamnable":10849,"Ġproclaimed":10850,"Ġhunts":10851,"Ġmeantime":10852,"Ġcalamity":10853,"Ġdifferent":10854,"Ġchiefly":10855,"ĠAlexas":10856,"ĠAmaz":10857,"Ġexamine":10858,"ĠAgrippa":10859,"ĠFairies":10860,"Ġfifth":10861,"ĠCob":10862,"world":10863,"Ġsprite":10864,"Ġevidence":10865,"ĠGREMIO":10866,"Enough":10867,"Ġwrestling":10868,"Ġobservation":10869,"ĠMessina":10870,"Ġalehouse":10871,"Ġstrangeness":10872,"Ġappointment":10873,"ĠLOVELL":10874,"ĠThaisa":10875,"ĠMetellus":10876,"Ġsubstitute":10877,"ĠGuildenstern":10878,"Ġeloquence":10879,"Ġtragedy":10880,"Ġnightingale":10881,"Ġeducation":10882,"ĠLucetta":10883,"',":10884,".--\"":10885,"EPH":10886,"Imp":10887,"LL":10888,"Meet":10889,"Nature":10890,"Over":10891,"Pri":10892,"Present":10893,"Ro":10894,"Ty":10895,"Tush":10896,"Villain":10897,"WELL":10898,"YR":10899,"Yield":10900,"ZO":10901,"ape":10902,"bee":10903,"black":10904,"cat":10905,"dges":10906,"fit":10907,"gone":10908,"gage":10909,"gression":10910,"ivoc":10911,"lest":10912,"ma":10913,"mad":10914,"mid":10915,"nance":10916,"pre":10917,"pend":10918,"pardon":10919,"rons":10920,"spir":10921,"tter":10922,"vals":10923,"viron":10924,"vaunt":10925,"Ġess":10926,"Ġire":10927,"Ġtough":10928,"Ġtakest":10929,"Ġtickle":10930,"Ġath":10931,"Ġster":10932,"Ġmire":10933,"inies":10934,"Ġwren":10935,"Ġwins":10936,"Ġwinking":10937,"Ġber":10938,"Ġbit":10939,"Ġboughs":10940,"oric":10941,"lla":10942,"Ġfel":10943,"Ġflaw":10944,"itc":10945,"Ġoy":10946,"Ġdaint":10947,"Ġdwar":10948,"esy":10949,"eside":10950,"ĠIras":10951,"Ġlink":10952,"Ġlass":10953,"Ġlinger":10954,"Ġlascivious":10955,"Ġnations":10956,"Ġnavy":10957,"Ġniggard":10958,"enc":10959,"Ġhits":10960,"Ġhilt":10961,"Ġpith":10962,"Ġpig":10963,"Ġpile":10964,"Ġpip":10965,"Ġhem":10966,"Ġheath":10967,"Ġheigh":10968,"veal":10969,"othel":10970,"Ġgn":10971,"Ġgore":10972,"Ġginger":10973,"Ġbeet":10974,"Ġbeest":10975,"Ġinvest":10976,"Ġhay":10977,"ĠTush":10978,"utius":10979,"Ġmemb":10980,"Ġmeasures":10981,"ching":10982,"Ġecho":10983,"Ġforfend":10984,"Ġwithhold":10985,"adel":10986,"ĠWife":10987,"asphe":10988,"idore":10989,"idity":10990,"alo":10991,"Ġstew":10992,"Ġkites":10993,"rav":10994,"ĠSimon":10995,"lymp":10996,"Ġliked":10997,"ĠHUB":10998,"Ġdeject":10999,"Ġdeform":11000,"ĠEL":11001,"ĠEROS":11002,"rop":11003,"robe":11004,"ĠCad":11005,"ĠCris":11006,"ĠCato":11007,"ĠMENE":11008,"Ġnodd":11009,"Ġanim":11010,"unis":11011,"Ġloses":11012,"ĠOPH":11013,"thus":11014,"Ġspots":11015,"Ġspotted":11016,"Ġspaniel":11017,"eller":11018,"ĠFree":11019,"ilis":11020,"ĠLight":11021,"ĠLast":11022,"ĠList":11023,"ĠLAR":11024,"ĠLAN":11025,"ĠLOR":11026,"Ġvat":11027,"Ġvicious":11028,"hod":11029,"ĠPh":11030,"ĠPind":11031,"ĠPEM":11032,"ĠGany":11033,"Ġshin":11034,"Ġshining":11035,"ĠDel":11036,"ĠDieu":11037,"ĠDane":11038,"ively":11039,"Ġgoodman":11040,"Ġpranks":11041,"venspur":11042,"embroke":11043,"ongue":11044,"Ġtherewithal":11045,"Ġblister":11046,"Ġblade":11047,"Ġswe":11048,"Ġcauld":11049,"reation":11050,"ĠYield":11051,"Ġorb":11052,"Ġoration":11053,"feren":11054,"Ġargues":11055,"Ġusurer":11056,"ĠExcept":11057,"Ġbrat":11058,"Ġbrine":11059,"Ġbrothel":11060,"akers":11061,"Ġunborn":11062,"Ġunquiet":11063,"Ġjet":11064,"Ġjig":11065,"Ġjack":11066,"Ġmadame":11067,"Ġenact":11068,"Ġenjoin":11069,"Ġensuing":11070,"ENZO":11071,"people":11072,"pted":11073,"Ġexeunt":11074,"Ġeyne":11075,"ffrey":11076,"Ġabode":11077,"Ġheave":11078,"Ġplotted":11079,"Ġchaff":11080,"Ġchased":11081,"igns":11082,"peration":11083,"bery":11084,"Ġflinty":11085,"Forgive":11086,"ENET":11087,"Ġcomment":11088,"Ġripen":11089,"Ġperuse":11090,"Ġrarest":11091,"Ġprecept":11092,"Ġprelate":11093,"Ġmap":11094,"Ġmaim":11095,"pled":11096,"Ġimitate":11097,"Ġheadstrong":11098,"Ġarmies":11099,"Ġcontri":11100,"ANIA":11101,"Ġlongs":11102,"Ġpurity":11103,"Ġcompel":11104,"orship":11105,"ĠMary":11106,"ĠMaria":11107,"Ġrepro":11108,"Ġrepetition":11109,"Ġendow":11110,"Ġending":11111,"Ġbraver":11112,"Ġfollower":11113,"Ġsmiled":11114,"Except":11115,"Ġdrugs":11116,"ORS":11117,"Ġgrin":11118,"beians":11119,"Ġdearth":11120,"Ġqueens":11121,"Ġconfines":11122,"Ġrestrain":11123,"Ġchides":11124,"Ġcourts":11125,"Ġcourtiers":11126,"Ġpassages":11127,"Ġkindle":11128,"Ġresidence":11129,"Ġgripe":11130,"Ġtapers":11131,"Ġprized":11132,"cloth":11133,"Ġhopeful":11134,"Ġimpression":11135,"Ġlighted":11136,"ontes":11137,"Ġjustify":11138,"Ġmoons":11139,"Ġmoonshine":11140,"Ġbanners":11141,"Ġadvantages":11142,"Ġsuns":11143,"Ġcommanding":11144,"Ġgreasy":11145,"Ġfreeze":11146,"Ġjudged":11147,"Ġcrystal":11148,"Ġdefiance":11149,"ĠProud":11150,"Ġproudly":11151,"ILLE":11152,"Ġbriers":11153,"Ġmarrying":11154,"Ġmusicians":11155,"ubal":11156,"Ġfitness":11157,"Ġbarber":11158,"Ġeating":11159,"Ġincur":11160,"Ġchambers":11161,"Ġwooer":11162,"Ġfasten":11163,"Ġvisor":11164,"Ġvisited":11165,"Ġdevout":11166,"Ġquarre":11167,"Ġsurv":11168,"ĠWouldst":11169,"ĠChorus":11170,"Ġtraitorous":11171,"overn":11172,"Ġopposition":11173,"Ġconstruction":11174,"Ġundes":11175,"mede":11176,"emption":11177,"Ġintercept":11178,"cribe":11179,"Ġwilder":11180,"Ġmotley":11181,"Ġmodern":11182,"Ġmoderate":11183,"Ġrelate":11184,"Ġrelation":11185,"Ġrelieved":11186,"Ġtyrants":11187,"Ġvehe":11188,"Ġveil":11189,"Ġjolly":11190,"Ġstealth":11191,"Ġcheerfully":11192,"ĠChristians":11193,"Ġmistaking":11194,"Ġmistaken":11195,"Ġtenth":11196,"Ġadmittance":11197,"Ġeffected":11198,"Ġwooden":11199,"Ġbreasts":11200,"shine":11201,"Ġsnail":11202,"pherds":11203,"Ġlantern":11204,"Ġforswore":11205,"Ġtorments":11206,"Ġquietly":11207,"Ġbitterly":11208,"Ġdemanded":11209,"ĠLovell":11210,"itizen":11211,"Ġmutton":11212,"Ġurging":11213,"Ġgaunt":11214,"Ġwretchedness":11215,"Ġhumbled":11216,"Ġshipw":11217,"Ġinjustice":11218,"Ġdecreed":11219,"ĠBelike":11220,"Ġlouder":11221,"ĠSalique":11222,"Ġcornets":11223,"Ġnecessities":11224,"Ġexpected":11225,"ĠBriton":11226,"Ġamaze":11227,"Ġrarely":11228,"Ġfaintly":11229,"Ġlamentation":11230,"Proud":11231,"Ġodious":11232,"ĠHeavens":11233,"Ġguiltiness":11234,"Ġunhallow":11235,"Ġreigns":11236,"Ġaffects":11237,"Ġwonted":11238,"ĠGeffrey":11239,"ĠGreen":11240,"ĠCounty":11241,"Ġrooted":11242,"Ġuncertain":11243,"valiant":11244,"Ġsalve":11245,"Ġimperious":11246,"Ġextremest":11247,"Ġearnestly":11248,"ĠTITANIA":11249,"Ġcherub":11250,"Ġtemperance":11251,"ishops":11252,"Ġswells":11253,"ĠHalf":11254,"Ġengine":11255,"Ġclimate":11256,"Ġmagist":11257,"Ġpreferr":11258,"Ġpreferment":11259,"Ġbuilding":11260,"Ġrhymes":11261,"Ġgroaning":11262,"Ġheavily":11263,"IONE":11264,"Ġslightly":11265,"olla":11266,"Ġnicely":11267,"ĠGreekish":11268,"Ġdissension":11269,"Ġhumanity":11270,"Ġmultit":11271,"Ġcontracted":11272,"Ġrescued":11273,"Ġhaunts":11274,"colm":11275,"Ġbags":11276,"rogative":11277,"Ġsinew":11278,"Ġperfections":11279,"Ġcoronet":11280,"olerable":11281,"Ġcharacters":11282,"stantial":11283,"ĠBrave":11284,"ĠMurderers":11285,"Ġbreadth":11286,"Ġrusty":11287,"Ġpoetry":11288,"aughan":11289,"ĠSTEPH":11290,"Ġbuds":11291,"ĠMENAS":11292,"Ġcontroversy":11293,"Ġgratify":11294,"Ġobscured":11295,"Ġassembled":11296,"Ġphilosopher":11297,"Ġstumble":11298,"Ġspectacle":11299,"ĠPHIL":11300,"Ġrevive":11301,"Ġblaze":11302,"Ġpedant":11303,"chorida":11304,"Ġperdition":11305,"Ġtarget":11306,"Ġcordial":11307,"ĠSinging":11308,"Ġaccordingly":11309,"Ġgirdle":11310,"Ġdispersed":11311,"Ġsummons":11312,"ĠRavenspur":11313,"Ġmuffled":11314,"Ġsympathy":11315,"Ġcontinuance":11316,"Ġmorsel":11317,"Ġprettiest":11318,"Ġpuissant":11319,"Lucilius":11320,"ablish":11321,"Ġcurtains":11322,"ĠHarfle":11323,"Ġgnaw":11324,"ĠChild":11325,"Ġchariot":11326,"Ġblemish":11327,"Ġignoble":11328,"ĠGonzalo":11329,"Ġmuddy":11330,"Ġpowder":11331,"ĠSixth":11332,"ĠBellario":11333,"Ġcompulsion":11334,"Ġoccupation":11335,"ĠADRIANO":11336,"ĠVOLUMNIA":11337,"Ġbalance":11338,"omestic":11339,"ĠPolyd":11340,"Ġincorporate":11341,"Ġdunghill":11342,"ĠALEXAS":11343,"AULINA":11344,"Ġbauble":11345,"ĠBOYET":11346,"Murder":11347,"Ġmembers":11348,"ĠHUBERT":11349,"ĠOPHELIA":11350,"ĠLARTIUS":11351,"ĠLORENZO":11352,"ĠPindarus":11353,"ĠPEMBROKE":11354,"ĠGanymede":11355,"Ġcauldron":11356,"ĠRavenspurgh":11357,"ĠHarfleur":11358,"Best":11359,"Betwixt":11360,"Content":11361,"Den":11362,"Fool":11363,"Hal":11364,"Knocking":11365,"Lend":11366,"Oh":11367,"Oft":11368,"Part":11369,"Pres":11370,"Sa":11371,"Saw":11372,"Supp":11373,"Takes":11374,"Talk":11375,"Wear":11376,"bod":11377,"bition":11378,"between":11379,"cond":11380,"gr":11381,"kill":11382,"lves":11383,"oes":11384,"poor":11385,"pipe":11386,"rook":11387,"ride":11388,"turn":11389,"town":11390,"vise":11391,"Ġtu":11392,"Ġtink":11393,"ouches":11394,"into":11395,"erning":11396,"Ġfard":11397,"Ġduck":11398,"Ġcru":11399,"Ġyard":11400,"Ġhook":11401,"arce":11402,"ange":11403,"another":11404,"Ġglean":11405,"stru":11406,"ĠTakes":11407,"ĠTiber":11408,"ĠTunis":11409,"ĠTubal":11410,"ĠAdd":11411,"child":11412,"Ġkitc":11413,"ĠSn":11414,"ĠHigh":11415,"ĠHop":11416,"ĠBIRON":11417,"ĠBetwixt":11418,"ĠEast":11419,"ĠCur":11420,"ĠContent":11421,"ĠMel":11422,"Ġherb":11423,"uncle":11424,"ĠOw":11425,"ĠOft":11426,"ĠOlymp":11427,"thri":11428,"ĠFidele":11429,"ĠPur":11430,"ĠPAULINA":11431,"ĠGower":11432,"Ġcomedy":11433,"ĠDion":11434,"emb":11435,"Ġtrot":11436,"Ġwasp":11437,"question":11438,"ĠRatcliff":11439,"Ġswag":11440,"labell":11441,"ĠTogether":11442,"Together":11443,"ĠThunder":11444,"Ġune":11445,"Ġunst":11446,"Ġenow":11447,"unto":11448,"Ġabuses":11449,"Ġdeserv":11450,"ĠKnock":11451,"ĠAsk":11452,"ĠVouchsafe":11453,"Ġanything":11454,"fted":11455,"Hector":11456,"Ġharp":11457,"Ġpurg":11458,"ĠUse":11459,"Ġchoo":11460,"Ġpresents":11461,"apes":11462,"ailing":11463,"guard":11464,"ables":11465,"Ġsecurity":11466,"eneral":11467,"Ġbeauties":11468,"Ġdistinguish":11469,"Ġintr":11470,"Ġminst":11471,"Ġparish":11472,"Ġgarter":11473,"Any":11474,"brace":11475,"Ġdivinity":11476,"Ġopening":11477,"Ġsurge":11478,"Ġwatching":11479,"Ġredemption":11480,"Ġdishon":11481,"Ġidiot":11482,"Ġcasement":11483,"Ġeasier":11484,"grace":11485,"Ġdrowning":11486,"ĠPluck":11487,"Ġprovision":11488,"Ġwhipping":11489,"Ġmeasured":11490,"Ġimports":11491,"Ġgaol":11492,"Hadst":11493,"Ġequivoc":11494,"Seeing":11495,"Trumpets":11496,"Ġcomplaints":11497,"ĠCamb":11498,"flow":11499,"Ġdispleased":11500,"Ġingrateful":11501,"himself":11502,"ĠMenas":11503,"ĠMalcolm":11504,"Ġpiercing":11505,"ĠFriends":11506,"lication":11507,"banished":11508,"disc":11509,"Ġshrift":11510,"Pluck":11511,"Ġbaggage":11512,"Ġreceives":11513,"Ġadversary":11514,"ĠIndian":11515,"Ġinterpre":11516,"Ġworships":11517,"ĠPlayers":11518,"Ġthoroughly":11519,"Ġwidows":11520,"ĠCAMILLO":11521,"Ġconversation":11522,"Ġissues":11523,"Ġsparks":11524,"ĠAlbany":11525,"ĠMoonshine":11526,"ĠTarqu":11527,"ĠTyrrel":11528,"ĠGaoler":11529,"Ġrehearse":11530,"Ġingenious":11531,"Ġcalendar":11532,"-\"":11533,"?--\"":11534,"ADO":11535,"BIA":11536,"BOUR":11537,"CI":11538,"CK":11539,"CO":11540,"CY":11541,"Cut":11542,"CUS":11543,"Cass":11544,"CAST":11545,"Courage":11546,"CLUS":11547,"DES":11548,"Dead":11549,"Free":11550,"Fortune":11551,"GILIA":11552,"IX":11553,"IZ":11554,"Int":11555,"IBAN":11556,"Lu":11557,"Lives":11558,"MADO":11559,"PEM":11560,"RS":11561,"Rich":11562,"RGILIA":11563,"Sil":11564,"Swear":11565,"Tra":11566,"Tro":11567,"Time":11568,"Touch":11569,"UELL":11570,"VER":11571,"Warwick":11572,"Write":11573,"YLO":11574,"ache":11575,"cqu":11576,"cass":11577,"cation":11578,"cary":11579,"certain":11580,"cund":11581,"dame":11582,"eres":11583,"ext":11584,"full":11585,"fix":11586,"hors":11587,"ipping":11588,"kers":11589,"lant":11590,"mber":11591,"og":11592,"oat":11593,"oons":11594,"purn":11595,"rine":11596,"rade":11597,"sla":11598,"tha":11599,"taking":11600,"wr":11601,"wood":11602,"yally":11603,"Ġil":11604,"Ġ--":11605,"Ġtha":11606,"Ġtis":11607,"heads":11608,"Ġaright":11609,"Ġaug":11610,"Ġmud":11611,"Ġmater":11612,"inand":11613,"Ġwage":11614,"Ġwiped":11615,"Ġwhale":11616,"Ġbower":11617,"Ġballs":11618,"Ġbourn":11619,"isome":11620,"erlook":11621,"oring":11622,"Ġfer":11623,"Ġfates":11624,"Ġfitt":11625,"Ġfitting":11626,"Ġfetter":11627,"Ġfickle":11628,"itary":11629,"Ġoh":11630,"Ġoo":11631,"Ġdar":11632,"Ġdastard":11633,"Ġduteous":11634,"Ġdressed":11635,"Ġcures":11636,"Ġloo":11637,"Ġlitter":11638,"Ġyawn":11639,"oned":11640,"enu":11641,"Ġhint":11642,"Ġhired":11643,"arth":11644,"Ġpho":11645,"Ġpard":11646,"Ġheres":11647,"otect":11648,"anim":11649,"anied":11650,"Ġgay":11651,"Ġgem":11652,"Ġgasp":11653,"Ġgesture":11654,"stool":11655,"aten":11656,"Ġinqu":11657,"Ġhale":11658,"Ġhaven":11659,"Ġhalter":11660,"ĠTrain":11661,"ĠTartar":11662,"ĠAf":11663,"ĠArab":11664,"ĠAquit":11665,"ĠAPEM":11666,"Ġmellow":11667,"chool":11668,"illings":11669,"ĠWILL":11670,"ently":11671,"Ġstint":11672,"Ġstalk":11673,"Ġstored":11674,"Ġstabs":11675,"rious":11676,"raight":11677,"rament":11678,"ĠSister":11679,"Ġlivers":11680,"urbs":11681,"ĠHol":11682,"ĠHonour":11683,"ĠHonest":11684,"ĠBen":11685,"ĠBurn":11686,"ĠBull":11687,"ĠBalt":11688,"ĠBORA":11689,"Ġdoit":11690,"Ġdoves":11691,"Ġdeity":11692,"Ġdepose":11693,"Ġdeformed":11694,"Ġdemean":11695,"ĠEsc":11696,"ĠEARL":11697,"hips":11698,"ushy":11699,"uspicious":11700,"ĠChan":11701,"ĠCold":11702,"Ġshaking":11703,"ĠMount":11704,"ĠMER":11705,"Ġseed":11706,"Ġsect":11707,"Ġseiz":11708,"Ġnost":11709,"Ġanat":11710,"Ġangle":11711,"Ġlog":11712,"ĠOber":11713,"Ġspear":11714,"Ġspade":11715,"Ġspices":11716,"Ġspheres":11717,"ĠFife":11718,"ĠField":11719,"ĠFerd":11720,"ĠLart":11721,"ĠLives":11722,"ĠLONG":11723,"Ġknots":11724,"Ġvest":11725,"Ġvale":11726,"Ġvaunt":11727,"hos":11728,"ĠPAT":11729,"ĠPembroke":11730,"ĠGA":11731,"Ġshru":11732,"anting":11733,"Ġatone":11734,"ousy":11735,"Ġgoat":11736,"ĠDiv":11737,"ĠDIANA":11738,"ĠNear":11739,"ĠName":11740,"Ġpry":11741,"Ġprattle":11742,"Ġconject":11743,"Ġsheathe":11744,"venged":11745,"Ġrite":11746,"Ġrises":11747,"ula":11748,"uming":11749,"Ġblasphe":11750,"ĠRUG":11751,"Ġsways":11752,"Ġswifter":11753,"Ġhatches":11754,"Ġorg":11755,"Ġorgan":11756,"Ġarrow":11757,"Ġheretic":11758,"lare":11759,"ĠExc":11760,"Ġbrood":11761,"ĠThine":11762,"Ġunrest":11763,"Ġuncivil":11764,"Ġjars":11765,"Ġenroll":11766,"Ġsavours":11767,"Ġhovel":11768,"Ġdisclosed":11769,"ENN":11770,"ENAS":11771,"Ġprogen":11772,"Ġpoisons":11773,"Ġexit":11774,"Ġexempt":11775,"Ġquill":11776,"Ġfoils":11777,"Ġabound":11778,"Ġability":11779,"Ġplat":11780,"Ġplate":11781,"Ġplod":11782,"Ġchal":11783,"Ġwhereto":11784,"Ġtwin":11785,"ĠJac":11786,"ĠJESS":11787,"ARINO":11788,"ĠForbear":11789,"Ġbetide":11790,"Ġlect":11791,"Ġearls":11792,"ĠKill":11793,"Ġartific":11794,"Ġcommence":11795,"Ġrig":11796,"Ġrivals":11797,"Ġpersever":11798,"Ġscald":11799,"INTUS":11800,"Ġrailing":11801,"cheon":11802,"Ġmace":11803,"ĠBegin":11804,"Ġclout":11805,"Ġclime":11806,"Ġclub":11807,"Ġimpose":11808,"ĠCapt":11809,"Ġpresum":11810,"Ġcontains":11811,"Ġcontrive":11812,"ANTUS":11813,"Ġbegging":11814,"Ġhart":11815,"Ġharness":11816,"osity":11817,"Ġshowing":11818,"Ġreplied":11819,"atching":11820,"Ġglister":11821,"Ġglitter":11822,"ĠURS":11823,"Ġsmock":11824,"Ġsmelt":11825,"vilius":11826,"Ġlieu":11827,"Ġfortnight":11828,"ORIZ":11829,"Ġgrind":11830,"Ġgrate":11831,"being":11832,"Ġcog":11833,"Ġcoven":11834,"Ġcoals":11835,"Ġtrace":11836,"Ġtract":11837,"Ġconsumed":11838,"Ġconspire":11839,"Ġchuck":11840,"Ġcourtship":11841,"Ġcounted":11842,"Ġfaced":11843,"Ġafterward":11844,"Ġtrembles":11845,"Ġcheques":11846,"Ġrighteous":11847,"Ġseemeth":11848,"ĠAntium":11849,"Ġretain":11850,"Ġovercome":11851,"Ġoverheard":11852,"Ġsuburbs":11853,"ĠDolabell":11854,"Ġdiscreet":11855,"ALUS":11856,"Ġbedfellow":11857,"Ġmisdoubt":11858,"Ġhitherto":11859,"Ġmaidens":11860,"Ġmoist":11861,"Ġbubble":11862,"guish":11863,"Ġsealed":11864,"ICA":11865,"Ġcarefully":11866,"Ġpalate":11867,"Ġlesson":11868,"Ġtalked":11869,"Ġstrait":11870,"comed":11871,"ranmer":11872,"Ġwanted":11873,"Ġthroughly":11874,"Ġdoubted":11875,"Ġbreaths":11876,"Ġmethod":11877,"Ġsuppress":11878,"Ġsuppli":11879,"Ġdistinction":11880,"Ġforego":11881,"Ġquicken":11882,"hampton":11883,"Ġbroach":11884,"Ġcastles":11885,"Ġcarve":11886,"Ġcarcass":11887,"Ġintolerable":11888,"Ġsinful":11889,"Ġbale":11890,"Ġdepth":11891,"Ġskip":11892,"Ġfitter":11893,"Ġcuts":11894,"Ġreco":11895,"Ġrecreation":11896,"Ġmines":11897,"Ġparl":11898,"Ġparadise":11899,"ĠMARTIUS":11900,"Ġhellish":11901,"Ġbated":11902,"Ġknighthood":11903,"Ġgrounds":11904,"Ġprofits":11905,"ĠArise":11906,"ĠArmy":11907,"Ġconfessor":11908,"Ġestates":11909,"Ġordinance":11910,"Ġordnance":11911,"Ġcreation":11912,"askets":11913,"Ġstraightway":11914,"LEY":11915,"otspur":11916,"ROCLUS":11917,"Ġpenet":11918,"Ġfeels":11919,"Ġbasely":11920,"Ġclosed":11921,"Ġclosely":11922,"ĠPerdit":11923,"ĠVIRGILIA":11924,"Ġrevengeful":11925,"Ġharmful":11926,"Ġmoonlight":11927,"Ġconstrue":11928,"Ġcleft":11929,"Ġregions":11930,"ĠLABOUR":11931,"Ġrange":11932,"Ġdeliverance":11933,"Ġextort":11934,"cript":11935,"Ġlowest":11936,"Ġbattlements":11937,"Ġgriev":11938,"Wouldst":11939,"Ġshipp":11940,"Uncle":11941,"Ġpassionate":11942,"Ġjocund":11943,"Ġfamed":11944,"Ġcheerly":11945,"LAUS":11946,"ĠCADE":11947,"ĠLeontes":11948,"Ġorderly":11949,"Ġuttered":11950,"Ġformal":11951,"Ġdaunt":11952,"Ġdawn":11953,"Ġwisdoms":11954,"Ġcommended":11955,"Ġcommendation":11956,"Ġcommendable":11957,"Ġposts":11958,"Ġconsented":11959,"Ġinspired":11960,"CHIO":11961,"Ġsolely":11962,"ĠDecius":11963,"Ġunwholesome":11964,"Ġroundly":11965,"myself":11966,"Ġcounterpo":11967,"THUR":11968,"Ġcarrying":11969,"Ġpainful":11970,"Ġduly":11971,"Ġwhores":11972,"chas":11973,"ĠDescend":11974,"Ġcredulous":11975,"Ġmutinous":11976,"Ġbastardy":11977,"Ġargos":11978,"ĠLucullus":11979,"ival":11980,"parable":11981,"Ġcontinual":11982,"Ġverge":11983,"Seek":11984,"Ġclaims":11985,"Ġdecrees":11986,"ĠConf":11987,"ĠConstance":11988,"ĠBelarius":11989,"Ġcatching":11990,"Ġfailing":11991,"Ġpunished":11992,"Ġgreetings":11993,"Ġconjured":11994,"Ġcorners":11995,"Ġutterly":11996,"Ġuttermost":11997,"Ġusurper":11998,"ĠARMADO":11999,"ĠARTHUR":12000,"monger":12001,"Ġfondly":12002,"ULT":12003,"Ġslips":12004,"Ġglasses":12005,"Ġbasilis":12006,"flies":12007,"Ġriding":12008,"Ġbefits":12009,"ĠPRINC":12010,"ĠQuince":12011,"Ġlenity":12012,"Ġseasons":12013,"Ġfunctions":12014,"ibel":12015,"Ġsacrament":12016,"Ġfirmly":12017,"Prove":12018,"Ġuncles":12019,"Ġallowed":12020,"Ġbuckram":12021,"human":12022,"Ġpacking":12023,"Ġeagles":12024,"ĠEpid":12025,"score":12026,"Ġincline":12027,"Ġpictures":12028,"Ġante":12029,"Ġwhispers":12030,"Ġlengthen":12031,"Ġobjects":12032,"Ġsyn":12033,"Ġdisdainful":12034,"Ġforfeiture":12035,"Ġadvancement":12036,"CAENAS":12037,"ĠSALARINO":12038,"Ġavoided":12039,"ĠFriend":12040,"ĠPERCY":12041,"Ġwaxen":12042,"Ġsprites":12043,"spring":12044,"ĠALBAN":12045,"ĠALCI":12046,"zzled":12047,"Belike":12048,"ĠGRE":12049,"Ġclapp":12050,"Ġsticks":12051,"Ġclergy":12052,"Ġmartial":12053,"Ġdotes":12054,"Ġplanted":12055,"Ġmultip":12056,"ĠPOLIX":12057,"Ġmassac":12058,"Alarums":12059,"Ġexpedient":12060,"Quick":12061,"Ġgarlands":12062,"Ġdukedoms":12063,"ĠLOST":12064,"ĠAppear":12065,"ĠApproach":12066,"Ġbridal":12067,"Ġcollected":12068,"ĠQUINCE":12069,"ĠQUINTUS":12070,"Ġliquid":12071,"ĠOLIVER":12072,"Ġapprehended":12073,"thank":12074,"ĠSHYLO":12075,"ezan":12076,"Ġgratis":12077,"Ġbruised":12078,"ĠTurkish":12079,"ĠConsider":12080,"Ġspectacles":12081,"ĠFLUELL":12082,"keeper":12083,"Ġtimeless":12084,"ĠOliver":12085,"Ġblazon":12086,"Ġinsolent":12087,"Ġfrosty":12088,"Ġplanets":12089,"ĠBOULT":12090,"ĠBASSANIO":12091,"unchient":12092,"Ġgaping":12093,"Ġworshipp":12094,"Ġriotous":12095,"Ġfeigned":12096,"Ġmoulded":12097,"ĠPhilome":12098,"ĠKnights":12099,"ĠGerman":12100,"Ġsuggestion":12101,"Ġbrands":12102,"Ġmajestical":12103,"ĠHERMIONE":12104,"Ġvizards":12105,"Ġrushes":12106,"Ġconfederates":12107,"Ġreconciled":12108,"Ġchronicle":12109,"Advancing":12110,"ditary":12111,"mighty":12112,"tongued":12113,"Ġgorgeous":12114,"Ġwrangling":12115,"Ġdedicate":12116,"Ġpirate":12117,"ĠFourth":12118,"ĠDuchess":12119,"Ġwhelp":12120,"icero":12121,"Ġdrooping":12122,"Ġinferior":12123,"Ġinconstant":12124,"ĠTitania":12125,"Ġtransported":12126,"Ġaccomplish":12127,"John":12128,"Ġcelebr":12129,"Ġgamester":12130,"Ġdoctrine":12131,"Ġviolets":12132,"Ġpopular":12133,"Ġwhirl":12134,"Ġcontagious":12135,"ĠQuickly":12136,"ĠMariana":12137,"othecary":12138,"Ġstratagem":12139,"Ġparchment":12140,"Ġewes":12141,"ĠBourdea":12142,"ĠBretagne":12143,"ĠFleance":12144,"Ġabundance":12145,"Ġindustry":12146,"Ġforgiveness":12147,"Ġattorney":12148,"Ġpuppet":12149,"ĠAEdile":12150,"Ġcups":12151,"ĠBLUNT":12152,"ĠEurope":12153,"Ġradiant":12154,"Ġcanopy":12155,"Ġmalignant":12156,"ĠAwake":12157,"ĠVenetian":12158,"AVILLE":12159,"Ġhammer":12160,"ĠESCALUS":12161,"ĠMECAENAS":12162,"Ġremedies":12163,"Ġcurtsy":12164,"ĠBarbary":12165,"Ġinfluence":12166,"ĠSunday":12167,"ĠDUMAIN":12168,"Tybalt":12169,"Ġoyster":12170,"ĠSimonides":12171,"ĠMENELAUS":12172,"ĠLANCAST":12173,"ĠPhry":12174,"BIADES":12175,"purnia":12176,"Ġphoenix":12177,"ĠAquitaine":12178,"ĠAPEMANTUS":12179,"ĠWILLIAM":12180,"ĠBORACHIO":12181,"ĠEscalus":12182,"ĠOberon":12183,"ĠFerdinand":12184,"ĠLartius":12185,"ĠLONGAVILLE":12186,"ĠPATROCLUS":12187,"ĠRUGBY":12188,"ĠJacob":12189,"ĠJESSICA":12190,"ORIZEL":12191,"ĠDolabella":12192,"ĠPerdita":12193,"ĠLABOURS":12194,"ĠPRINCESS":12195,"ĠALBANY":12196,"ĠALCIBIADES":12197,"ĠPOLIXENES":12198,"ĠSHYLOCK":12199,"ĠFLUELLEN":12200,"ĠBourdeaux":12201,"ĠLANCASTER":12202,"Ang":12203,"Add":12204,"Achilles":12205,"Boy":12206,"Dem":12207,"Def":12208,"Em":12209,"Hum":12210,"High":12211,"Pur":12212,"Rel":12213,"Su":12214,"Sen":12215,"Suff":12216,"Vouchsafe":12217,"Wr":12218,"bid":12219,"basket":12220,"deliver":12221,"fal":12222,"gest":12223,"god":12224,"hot":12225,"houses":12226,"nor":12227,"spo":12228,"wal":12229,"wink":12230,"inter":12231,"inher":12232,"nders":12233,"Ġcott":12234,"Ġcudge":12235,"Ġlousy":12236,"Ġnearest":12237,"Ġhip":12238,"Ġpag":12239,"Ġtoads":12240,"Ġhen":12241,"omb":12242,"atched":12243,"ceives":12244,"Ġhallow":12245,"ĠAct":12246,"ĠAmb":12247,"ĠWast":12248,"ĠWoe":12249,"ĠWhispers":12250,"Ġstings":12251,"ĠSu":12252,"ĠSams":12253,"urate":12254,"ĠHotspur":12255,"ores":12256,"ĠCer":12257,"ĠCond":12258,"ĠCranmer":12259,"ĠMed":12260,"ĠMart":12261,"Ġsexton":12262,"Ġspin":12263,"ĠFit":12264,"ĠFates":12265,"ĠFellow":12266,"ĠFalls":12267,"ilest":12268,"Ġva":12269,"Ġshuff":12270,"Ġgoats":12271,"ĠDirect":12272,"Ġconceived":12273,"indeed":12274,"Ġshepherds":12275,"Ġblasted":12276,"ĠRel":12277,"eps":12278,"lac":12279,"Ġunlook":12280,"Ġmusty":12281,"Ġmustard":12282,"Ġspeaker":12283,"Thrice":12284,"Ġabate":12285,"Ġheaved":12286,"Ġwhereupon":12287,"ĠJe":12288,"ĠJer":12289,"acks":12290,"ĠKind":12291,"Ġplebeians":12292,"ĠVaughan":12293,"Ġperplex":12294,"Ġadorn":12295,"answ":12296,"Ġram":12297,"Ġpred":12298,"Ġpretend":12299,"ĠBecomes":12300,"ĠBeyond":12301,"plete":12302,"ccess":12303,"ledged":12304,"Ġfinding":12305,"Ġshowed":12306,"ĠIsis":12307,"Becomes":12308,"Beyond":12309,"Ġsleeves":12310,"been":12311,"ĠWhereto":12312,"Ġgivest":12313,"irts":12314,"ĠStrange":12315,"Ġthankfully":12316,"pecting":12317,"Read":12318,"Receive":12319,"Ġentering":12320,"comm":12321,"Ġsupplied":12322,"Ġdistinct":12323,"Ġdepends":12324,"Ġattent":12325,"Ġdelivers":12326,"ĠPerhaps":12327,"Ġplucked":12328,"Ġextemp":12329,"Ġextenu":12330,"Ġlimed":12331,"Ġlimits":12332,"ĠSeeing":12333,"settled":12334,"Ġconquering":12335,"Ġencount":12336,"Canst":12337,"Ġbitterness":12338,"Ġsixpence":12339,"ĠCorp":12340,"ĠSilvius":12341,"Ġvirgins":12342,"Ġequally":12343,"ĠShore":12344,"Ġtransgression":12345,"Ġdealing":12346,"ĠFalse":12347,"Ġconcerning":12348,"Ġparticulars":12349,"Ġdifferen":12350,"ĠLychorida":12351,"beard":12352,"ĠPeto":12353,"ĠShame":12354,"Ġetern":12355,"Ġderive":12356,"ĠSatan":12357,"Ġcoffer":12358,"Ġfilth":12359,"Ġabhorred":12360,"ĠMeantime":12361,"Ġcreeping":12362,"Ġpennyworth":12363,"Ġdeclined":12364,"Ġmiscarried":12365,"Ġendeavours":12366,"ĠFLORIZEL":12367,"keeping":12368,"Ġpikes":12369,"Ġsequent":12370,"Ġcomparison":12371,"Ġdisobedience":12372,"False":12373,"Falstaff":12374,"ĠServilius":12375,"Ġresemble":12376,"Ġaugment":12377,"ĠPedant":12378,"Ġescaped":12379,"ĠCALIBAN":12380,"Ġdoomsday":12381,"ĠOwen":12382,"Ġminstrels":12383,"ĠTarquin":12384,"Lucius":12385,"Troilus":12386,"false":12387,"AIS":12388,"Bu":12389,"Beshrew":12390,"Brave":12391,"Div":12392,"Doubt":12393,"Gu":12394,"Harry":12395,"IWARD":12396,"Just":12397,"KEN":12398,"Light":12399,"Last":12400,"Lords":12401,"Mer":12402,"Name":12403,"Par":12404,"SO":12405,"Saint":12406,"SINO":12407,"ULO":12408,"ULA":12409,"Virtue":12410,"YZ":12411,"ah":12412,"ait":12413,"bu":12414,"bing":12415,"bred":12416,"bric":12417,"cides":12418,"durate":12419,"ev":12420,"ech":12421,"every":12422,"fes":12423,"fear":12424,"gartered":12425,"honest":12426,"mine":12427,"much":12428,"nay":12429,"oh":12430,"pres":12431,"pable":12432,"rmid":12433,"sy":12434,"sil":12435,"simple":12436,"tri":12437,"talk":12438,"tail":12439,"true":12440,"vied":12441,"viors":12442,"who":12443,"wark":12444,"za":12445,"Ġides":12446,"Ġtides":12447,"Ġtithe":12448,"Ġtang":12449,"Ġtasted":12450,"Ġapr":12451,"Ġ\"--":12452,"Ġsly":12453,"Ġmow":12454,"Ġmature":12455,"inable":12456,"inated":12457,"inations":12458,"Ġwan":12459,"Ġware":12460,"Ġwreak":12461,"rep":12462,"rebon":12463,"hage":12464,"happy":12465,"ndise":12466,"Ġbout":12467,"Ġbench":12468,"Ġbaked":12469,"isp":12470,"erwhelm":12471,"ority":12472,"itae":12473,"itadel":12474,"Ġdrench":12475,"Ġdaff":12476,"Ġditch":12477,"Ġcart":12478,"Ġcate":12479,"Ġcows":12480,"Ġclip":12481,"Ġcovered":12482,"Ġcitadel":12483,"ĠInt":12484,"ĠIach":12485,"Ġlour":12486,"Ġlump":12487,"Ġlends":12488,"Ġlurk":12489,"Ġnour":12490,"Ġhug":12491,"Ġhinds":12492,"Ġhidden":12493,"Ġpud":12494,"Ġtoday":12495,"Ġhero":12496,"Ġgeese":12497,"owls":12498,"stead":12499,"atisf":12500,"Ġbees":12501,"Ġinve":12502,"Ġinhuman":12503,"Ġhavoc":12504,"ĠTew":12505,"ĠTrip":12506,"ĠAgain":12507,"ĠAli":12508,"ĠAug":12509,"Ġmechan":12510,"ithmet":12511,"Ġeke":12512,"ooch":12513,"keley":12514,"Ġitch":12515,"terate":12516,"ĠWol":12517,"ĠWalk":12518,"ĠWomen":12519,"ĠWALT":12520,"idered":12521,"enti":12522,"entious":12523,"entimes":12524,"Ġstony":12525,"Ġkick":12526,"Ġkite":12527,"Ġkissed":12528,"riking":12529,"rieve":12530,"ĠSout":12531,"ĠSem":12532,"ĠSever":12533,"ĠSPE":12534,"ĠSIWARD":12535,"Ġrealms":12536,"Ġsolace":12537,"Ġsojourn":12538,"Ġaspir":12539,"ĠHall":12540,"ĠBu":12541,"ĠBack":12542,"ĠBase":12543,"ĠBert":12544,"ĠBushy":12545,"Ġdoe":12546,"Ġdeign":12547,"Ġdealt":12548,"rops":12549,"aining":12550,"oody":12551,"usale":12552,"ĠCart":12553,"ĠCol":12554,"ĠCER":12555,"ĠCON":12556,"ĠCertain":12557,"ĠCicero":12558,"ĠMARD":12559,"ĠMESS":12560,"ĠMutius":12561,"aminius":12562,"Ġhermit":12563,"Ġseals":12564,"Ġanguish":12565,"Ġlos":12566,"Ġlogs":12567,"ĠThee":12568,"Ġsued":12569,"elly":12570,"ĠFEN":12571,"ĠFab":12572,"ilogue":12573,"ĠLi":12574,"ĠLic":12575,"ĠLig":12576,"ĠLud":12577,"Ġfails":12578,"Ġfactions":12579,"Ġknavish":12580,"hanging":12581,"earch":12582,"Ġvary":12583,"romise":12584,"ĠPla":12585,"ĠGold":12586,"Ġshillings":12587,"usty":12588,"Ġamiable":12589,"Ġupper":12590,"Ġgover":12591,"ĠDull":12592,"ĠDaughter":12593,"ĠDutch":12594,"Ġconvoy":12595,"ements":12596,"eminate":12597,"Ġrul":12598,"Ġrides":12599,"Ġridd":12600,"Ġrules":12601,"Ġtrades":12602,"Ġthereupon":12603,"qua":12604,"Ġblots":12605,"ĠRest":12606,"ĠRho":12607,"ics":12608,"icial":12609,"Ġswing":12610,"Ġcage":12611,"ĠYor":12612,"lap":12613,"lable":12614,"olic":12615,"Ġbrooch":12616,"ighed":12617,"Ġunity":12618,"Ġunarm":12619,"Ġunadvised":12620,"Ġungracious":12621,"odious":12622,"Ġencom":12623,"Ġsaving":12624,"Ġhogs":12625,"Ġdissu":12626,"Ġdispense":12627,"Ġoutrun":12628,"ĠWhate":12629,"Ġpropose":12630,"Ġprolong":12631,"Ġprobation":12632,"Ġpockets":12633,"Ġhearty":12634,"Thine":12635,"Ġgrapple":12636,"Ġextern":12637,"onday":12638,"Ġhowsoever":12639,"isted":12640,"istake":12641,"Ġfoh":12642,"cible":12643,"ciences":12644,"Ġplun":12645,"Ġplume":12646,"Ġroyally":12647,"Whate":12648,"reech":12649,"ĠJust":12650,"Ġhearken":12651,"ĠHecate":12652,"ĠForgive":12653,"Ġbetake":12654,"Ġbetroth":12655,"igneur":12656,"berries":12657,"Ġhonourably":12658,"lib":12659,"Ġflows":12660,"Ġpartial":12661,"told":12662,"Forbear":12663,"Ġfearfully":12664,"agn":12665,"agate":12666,"Ġsergeant":12667,"ĠVirtue":12668,"Ġrival":12669,"Ġwarp":12670,"Ġperused":12671,"Ġscape":12672,"INS":12673,"Ġraiment":12674,"Ġpraying":12675,"Ġsweets":12676,"Ġsweeten":12677,"Ġprev":12678,"Ġprerogative":12679,"Ġappell":12680,"ONSO":12681,"cheap":12682,"ĠBeg":12683,"Ġbrotherhood":12684,"Ġclubs":12685,"Ġdownfall":12686,"ĠInn":12687,"Ġcontroll":12688,"ksbury":12689,"ANCE":12690,"ANLEY":12691,"Ġmightiest":12692,"Ġgraceful":12693,"oser":12694,"osal":12695,"osure":12696,"oughts":12697,"Ġremn":12698,"Ġcompounded":12699,"Ġreputed":12700,"Ġreprehend":12701,"forward":12702,"Ġmermaid":12703,"ertake":12704,"Ġbrake":12705,"Ġbravery":12706,"Ġbraved":12707,"Ġindirect":12708,"Ġindirectly":12709,"Ġgray":12710,"Ġgrum":12711,"Ġcoach":12712,"Ġcopper":12713,"Ġhighway":12714,"Ġtravels":12715,"Ġconsume":12716,"Ġelves":12717,"Ġservile":12718,"Ġguides":12719,"Ġtribut":12720,"Ġtrivial":12721,"Ġstaying":12722,"Ġstayed":12723,"Ġminded":12724,"Ġwomanish":12725,"ulties":12726,"ĠWhence":12727,"Ġcharter":12728,"Ġelsewhere":12729,"Ġpeal":12730,"Ġpecul":12731,"Ġchildhood":12732,"Ġdrab":12733,"Ġtreas":12734,"Ġtreads":12735,"ĠStabs":12736,"Ġwrongfully":12737,"Ġthreefold":12738,"Ġearthy":12739,"Ġearthqu":12740,"clasp":12741,"Ġhumbleness":12742,"Ġovert":12743,"Ġovertake":12744,"Ġovercame":12745,"Ġbode":12746,"Ġbesiege":12747,"Ġsloth":12748,"Ġmonkey":12749,"ontinent":12750,"ALA":12751,"apolis":12752,"bserve":12753,"Ġbedchamber":12754,"Ġmisled":12755,"Ġmispr":12756,"Ġmiscon":12757,"Ġlawless":12758,"Ġtruths":12759,"Ġwelcomes":12760,"ĠHerod":12761,"rantz":12762,"ĠNormand":12763,"Ready":12764,"Ġstrives":12765,"Ġadvocate":12766,"ability":12767,"Ġboil":12768,"Ġboarded":12769,"pling":12770,"acon":12771,"Ġills":12772,"Ġgrease":12773,"Ġentered":12774,"Stabs":12775,"Ġoftentimes":12776,"Ġstrongest":12777,"Ġdared":12778,"Ġhorseback":12779,"Thank":12780,"Ġspiritual":12781,"comfort":12782,"Ġthroughout":12783,"adshill":12784,"Ġawry":12785,"Ġfouler":12786,"Ġdrawing":12787,"Ġdefiled":12788,"Ġattendant":12789,"Ġattendance":12790,"Ġdistrust":12791,"Ġforesee":12792,"hames":12793,"Ġbroil":12794,"Ġbroker":12795,"Ġgenerals":12796,"uesday":12797,"Ġinfall":12798,"Ġinfring":12799,"Ġdreaming":12800,"Ġcarved":12801,"Ġmusical":12802,"Ġwinters":12803,"Ġcertainty":12804,"Ġdelays":12805,"Ġskies":12806,"Ġskirm":12807,"Ġskilful":12808,"Ġviper":12809,"Ġviands":12810,"Ġwaving":12811,"Ġdispraise":12812,"Ġparallel":12813,"Ġcontention":12814,"Ġmoneys":12815,"ASCA":12816,"azz":12817,"Ġacted":12818,"Ġgalled":12819,"Ġrequital":12820,"Ġprofan":12821,"ĠArch":12822,"Ġgarb":12823,"Ġsuited":12824,"Ġmocked":12825,"Ġincontinent":12826,"Ġwooes":12827,"Ġwooers":12828,"ixture":12829,"voke":12830,"Ġchangeling":12831,"Ġmurdering":12832,"ĠGloucestershire":12833,"without":12834,"ĠProclaim":12835,"Ġconstrain":12836,"Ġconstraint":12837,"Ġregards":12838,"Ġregiment":12839,"Ġsoldiership":12840,"Ġdarkly":12841,"Ġinterchan":12842,"Ġintercess":12843,"Ġfeasting":12844,"ashful":12845,"Ġuntr":12846,"Ġwildness":12847,"ANDA":12848,"Ġmounting":12849,"Ġdireful":12850,"IRANDA":12851,"Ġsoften":12852,"Ġexcused":12853,"Ġmortals":12854,"Ġliberties":12855,"Ġfamily":12856,"Ġsighing":12857,"ĠLUCIANA":12858,"ĠTrans":12859,"Ġreverent":12860,"Ġcrosses":12861,"Ġadmire":12862,"bbo":12863,"Ġmiracles":12864,"Ġlioness":12865,"Ġobdurate":12866,"Ġwoodcock":12867,"ITES":12868,"Ġposterity":12869,"Ġacquit":12870,"Ġhealthful":12871,"Ġbuys":12872,"Ġdeparted":12873,"shot":12874,"Ġentertained":12875,"Ġunwilling":12876,"Ġlances":12877,"Ġjudgement":12878,"Ġambush":12879,"ĠAdrian":12880,"Ġchurchman":12881,"ĠJewry":12882,"ĠHelenus":12883,"Ġqualify":12884,"Ġquietness":12885,"semary":12886,"Ġpainter":12887,"Ġmannerly":12888,"ĠRosenc":12889,"chandise":12890,"Ġtemporal":12891,"Ġmelody":12892,"Ġimportuned":12893,"ĠCorinth":12894,"Ġchastisement":12895,"ĠSilence":12896,"Ġlegate":12897,"Ġverd":12898,"Ġinjurious":12899,"Ġdeclare":12900,"ĠConfess":12901,"ĠConstable":12902,"Ġthreatens":12903,"Ġfruits":12904,"Ġconjunction":12905,"Ġthunderbol":12906,"Trust":12907,"Ġbended":12908,"Ġcourageous":12909,"Ġportly":12910,"Ġportion":12911,"Ġsolemnly":12912,"Ġwantonness":12913,"Ġimagined":12914,"Ġphysicians":12915,"Ġconcord":12916,"RANMER":12917,"Ġdetect":12918,"rato":12919,"Ġventures":12920,"Ġbefal":12921,"ĠAEm":12922,"Ġconveyance":12923,"ĠQuite":12924,"ĠPoison":12925,"Ġembark":12926,"Ġcostly":12927,"Ġlineal":12928,"Ġweighs":12929,"ĠGrecians":12930,"Ġclothe":12931,"Conf":12932,"Confess":12933,"Proceed":12934,"Proclaim":12935,"Ġbandy":12936,"Ġbenefits":12937,"Ġmildly":12938,"Ġmildness":12939,"Ġbuckle":12940,"Ġdigg":12941,"ĠTITINIUS":12942,"Ġaudacious":12943,"Ġpacket":12944,"Ġghostly":12945,"Ġregarded":12946,"Ġfurnished":12947,"ĠTHERS":12948,"ĠTHAIS":12949,"ĠCORIN":12950,"Ġimminent":12951,"Ġcaptives":12952,"Ġmischiefs":12953,"ĠVolumn":12954,"Ġsuspected":12955,"rsula":12956,"Ġcomplexions":12957,"Ġbewray":12958,"Ġmissing":12959,"ĠWiltshire":12960,"Ġwasteful":12961,"Ġafflicted":12962,"Ġheralds":12963,"ĠCalchas":12964,"ĠCalpurnia":12965,"Ġsprung":12966,"Ġporridge":12967,"Ġsteer":12968,"ĠORSINO":12969,"Ġswallowed":12970,"Ġalteration":12971,"Ġwhispering":12972,"ribute":12973,"ĠHenceforth":12974,"Ġsandy":12975,"ĠRetires":12976,"Ġungrateful":12977,"INCULO":12978,"ELLUS":12979,"ouncing":12980,"Arise":12981,"Ġravenous":12982,"mediately":12983,"coloured":12984,"Ġwrestle":12985,"Ġforsook":12986,"Play":12987,"Ġrecorded":12988,"Ġtouched":12989,"Ġrobbers":12990,"ĠDrawing":12991,"Ġhelmet":12992,"Ġbonny":12993,"Ġsupreme":12994,"Ġflag":12995,"Ġmerrier":12996,"brother":12997,"Ġruminate":12998,"Ġtrimm":12999,"ĠSTANLEY":13000,"ĠGracious":13001,"Ġadversity":13002,"Ġpeasants":13003,"Ġirons":13004,"Ġtumble":13005,"Ġdeclining":13006,"Ġbracelet":13007,"Ġsucceeding":13008,"Ġcropp":13009,"ĠIndia":13010,"Ġunjustly":13011,"Ġperfumed":13012,"Ġbruise":13013,"ĠPHILO":13014,"Ġmanifold":13015,"Ġgossips":13016,"Ġpursues":13017,"Ġsubdue":13018,"Ġwrinkles":13019,"Ġdisciplines":13020,"Appear":13021,"Approach":13022,"Ġtimorous":13023,"Ġoxen":13024,"Ġpulpit":13025,"ĠPOINS":13026,"Ġblasts":13027,"Ġgrooms":13028,"Ġtrenches":13029,"ĠROSALINE":13030,"WALL":13031,"Ġseduced":13032,"Ġhawk":13033,"Ġdiamonds":13034,"Ġfantastic":13035,"ĠSleeps":13036,"Ġpestilent":13037,"Ġvigil":13038,"Ġpeerless":13039,"Ġsummers":13040,"Ġdarts":13041,"Ġvizard":13042,"Ġtaunts":13043,"Ġunprovided":13044,"ĠBerkeley":13045,"Ġspotless":13046,"Ġclamours":13047,"Ġcomparisons":13048,"Awake":13049,"Ġthirsty":13050,"Ġshameless":13051,"amnum":13052,"Ġsympathi":13053,"aurus":13054,"Ġpirates":13055,"ĠSycor":13056,"Ġvapour":13057,"ĠDukes":13058,"Ġkerns":13059,"Ġjuice":13060,"Ġtragic":13061,"Ġtragical":13062,"Ġobsequies":13063,"Ġnymphs":13064,"Ġeffeminate":13065,"CUTIO":13066,"Ġautumn":13067,"Ġaccompany":13068,"ĠCORNWALL":13069,"cellus":13070,"Ġlullaby":13071,"ĠTRINCULO":13072,"Ġeggs":13073,"ĠSCARUS":13074,"Ġengender":13075,"Ġinsulting":13076,"ĠSyracusian":13077,"ĠParthia":13078,"ĠBrabantio":13079,"Ġcontradict":13080,"Ġsession":13081,"Ġbreeches":13082,"Ġfresher":13083,"Ġlottery":13084,"ĠSailors":13085,"Ġconsecrate":13086,"Ġostentation":13087,"ĠChatillon":13088,"Ġdalliance":13089,"athaniel":13090,"ĠTurks":13091,"ĠEthiope":13092,"ĠCentaur":13093,"ĠPentapolis":13094,"ĠDERBY":13095,"ĠDIONYZ":13096,"Ġorphans":13097,"begotten":13098,"Ġfleece":13099,"ĠElbow":13100,"ĠCadwal":13101,"Ġprecepts":13102,"Ġwilderness":13103,"Ġmultitudes":13104,"ĠSTEPHANO":13105,"Half":13106,"Ġthaw":13107,"ĠMERCUTIO":13108,"Ġorgans":13109,"Ġplatform":13110,"Ġartificial":13111,"Ġglittering":13112,"ĠURSULA":13113,"Ġbaleful":13114,"ĠEpidamnum":13115,"ĠPhryg":13116,"rebonius":13117,"ĠIachimo":13118,"ĠTewksbury":13119,"ĠAliena":13120,"ithmetic":13121,"ĠWALTER":13122,"ĠSPEED":13123,"ĠBertram":13124,"usalem":13125,"ĠCarthage":13126,"ĠMARDIAN":13127,"ĠMESSALA":13128,"ĠFENTON":13129,"ĠFabian":13130,"ĠLicio":13131,"ĠLigarius":13132,"Ġpeculiar":13133,"ĠNormandy":13134,"ĠRosencrantz":13135,"ĠTHERSITES":13136,"ĠTHAISA":13137,"ĠSycorax":13138,"ĠDIONYZA":13139,"'--":13140,"Bea":13141,"Die":13142,"Foul":13143,"Gave":13144,"Hie":13145,"Ill":13146,"Jove":13147,"Kind":13148,"Mis":13149,"Mad":13150,"OF":13151,"Po":13152,"Prepare":13153,"Wh":13154,"bat":13155,"bird":13156,"crown":13157,"dealing":13158,"eer":13159,"fly":13160,"gory":13161,"greed":13162,"giving":13163,"horn":13164,"lie":13165,"mast":13166,"mel":13167,"mod":13168,"none":13169,"occ":13170,"overs":13171,"point":13172,"rather":13173,"till":13174,"tish":13175,"Ġwaken":13176,"reen":13177,"iser":13178,"Ġnom":13179,"Ġthirt":13180,"Ġpea":13181,"Ġbeadle":13182,"Ġiniquity":13183,"lem":13184,"leave":13185,"lection":13186,"ĠTullus":13187,"ĠThames":13188,"ĠTuesday":13189,"ĠAff":13190,"imm":13191,"illains":13192,"asant":13193,"Ġstation":13194,"Ġstaves":13195,"ĠStop":13196,"ĠSometime":13197,"Ġsoar":13198,"Ġsores":13199,"Ġliable":13200,"Ġliars":13201,"urch":13202,"ĠHOL":13203,"ĠHoly":13204,"ĠHume":13205,"ĠBury":13206,"ĠBishop":13207,"ĠBrief":13208,"ĠCURIO":13209,"ĠCASCA":13210,"ĠCRANMER":13211,"ĠMad":13212,"ĠMIRANDA":13213,"ĠOther":13214,"things":13215,"ĠFar":13216,"ĠFast":13217,"ĠFoul":13218,"ilth":13219,"ĠLed":13220,"hope":13221,"ĠPark":13222,"ĠGave":13223,"ĠGadshill":13224,"ĠDie":13225,"ĠNYM":13226,"ĠNathaniel":13227,"ĠRise":13228,"Ġcaper":13229,"Ġarraign":13230,"laid":13231,"ĠThrice":13232,"Ġunacc":13233,"anced":13234,"Ġhobby":13235,"Thunder":13236,"Ġgrapes":13237,"orner":13238,"Ġexche":13239,"ists":13240,"Ask":13241,"Ġplum":13242,"Ġrosemary":13243,"ĠMyrmid":13244,"Ġstrut":13245,"Ġsconce":13246,"Ġlab":13247,"Ġwithered":13248,"ĠBeen":13249,"pleasing":13250,"ĠMarcellus":13251,"ĠIsidore":13252,"Ġendless":13253,"Ġmerited":13254,"Ġmerchandise":13255,"ĠUrsula":13256,"Been":13257,"ĠAnth":13258,"Ġcourtly":13259,"Ġwomanhood":13260,"Ġanswering":13261,"Ġreserve":13262,"Ġseemed":13263,"ĠStrato":13264,"Whereto":13265,"Ġimpl":13266,"Ġimposition":13267,"Ġoverlook":13268,"ĠYourself":13269,"Ġslut":13270,"Ġpraising":13271,"Ġdiscovers":13272,"verend":13273,"ĠAlcides":13274,"Ġpalaces":13275,"noble":13276,"azed":13277,"prince":13278,"ĠGlamis":13279,"Ġexpost":13280,"ĠProd":13281,"Ġlamp":13282,"Ġfashions":13283,"Ġfingres":13284,"ĠTrumpet":13285,"Ġsorce":13286,"ĠDece":13287,"Ġlanthorn":13288,"poll":13289,"Ġfreshly":13290,"ĠScots":13291,"Ġwhips":13292,"semble":13293,"Ġconclusions":13294,"chaste":13295,"ĠDesp":13296,"Ġbehaviors":13297,"Ġremembered":13298,"Ġpettic":13299,"Ġinvited":13300,"Comm":13301,"Coming":13302,"Ġrascally":13303,"yourself":13304,"Ġowest":13305,"Ġrepentance":13306,"Prince":13307,"ĠLeonine":13308,"Ġbefriend":13309,"dog":13310,"ĠDispatch":13311,"ĠGregory":13312,"ĠKnowing":13313,"actors":13314,"Ġtailors":13315,"ĠSennet":13316,"Ġimpossib":13317,"Ġbewitch":13318,"Ġcooling":13319,"Ġserpents":13320,"Knowing":13321,"Ġtestify":13322,"Ġintellect":13323,"Perhaps":13324,"Ġwrestler":13325,"Meantime":13326,"ĠDraws":13327,"Ġcarriages":13328,"Ġinstructions":13329,"Ġceremonious":13330,"ĠMercy":13331,"haste":13332,"Ġteaches":13333,"drawn":13334,"Ġseventh":13335,"conscience":13336,"ĠSyria":13337,"Ġcongreg":13338,"Ġdialogue":13339,"ĠSergeant":13340,"Ġentirely":13341,"Ġfulfill":13342,"Gloucester":13343,"Ġcushion":13344,"Ġlackey":13345,"Ġlawyer":13346,"burning":13347,"Ġsulphurous":13348,"Ġfardel":13349,"Ġkitchen":13350,"ĠEastcheap":13351,"ĠOlympus":13352,"ĠCambio":13353,"Ġinterpreter":13354,"ĠSamson":13355,"ĠJerusalem":13356,"Ġencountered":13357,"ĠCorporal":13358,"Ġdifferences":13359,"ĠAugust":13360,"Base":13361,"Beneath":13362,"Cold":13363,"CEL":13364,"Dep":13365,"DIT":13366,"During":13367,"Four":13368,"GES":13369,"GBER":13370,"HO":13371,"HY":13372,"Hard":13373,"Hic":13374,"HAN":13375,"Honour":13376,"IV":13377,"Jack":13378,"Ly":13379,"Man":13380,"NA":13381,"Od":13382,"OUN":13383,"RONIUS":13384,"Sad":13385,"Sent":13386,"Tear":13387,"Took":13388,"Teach":13389,"VE":13390,"VIC":13391,"Varro":13392,"Wit":13393,"Walk":13394,"ZAL":13395,"ai":13396,"aps":13397,"ailed":13398,"bet":13399,"bur":13400,"best":13401,"bud":13402,"bold":13403,"bless":13404,"bbed":13405,"brate":13406,"cod":13407,"cles":13408,"cils":13409,"counter":13410,"dist":13411,"duke":13412,"double":13413,"fight":13414,"find":13415,"fitable":13416,"friends":13417,"gom":13418,"gall":13419,"gives":13420,"hour":13421,"home":13422,"jurious":13423,"jection":13424,"known":13425,"lay":13426,"lost":13427,"mar":13428,"mate":13429,"matic":13430,"makers":13431,"nis":13432,"opp":13433,"pan":13434,"pret":13435,"pated":13436,"phant":13437,"rge":13438,"rated":13439,"sho":13440,"sold":13441,"suck":13442,"sleep":13443,"sium":13444,"test":13445,"tling":13446,"tale":13447,"toric":13448,"uity":13449,"view":13450,"villain":13451,"whe":13452,"words":13453,"xter":13454,"yed":13455,"yza":13456,"zar":13457,"zab":13458,"Ġou":13459,"Ġounce":13460,"Ġicy":13461,"Ġtatter":13462,"Ġtesty":13463,"Ġtallow":13464,"Ġtuned":13465,"heth":13466,"Ġauth":13467,"Ġavail":13468,"Ġauspicious":13469,"oubled":13470,"Ġsot":13471,"Ġsurn":13472,"Ġmong":13473,"Ġmol":13474,"Ġmince":13475,"Ġmix":13476,"Ġmated":13477,"Ġmule":13478,"inore":13479,"inant":13480,"inals":13481,"Ġwart":13482,"Ġwakest":13483,"Ġwreath":13484,"rece":13485,"reth":13486,"reng":13487,"render":13488,"reds":13489,"havior":13490,"Ġtheat":13491,"Ġbath":13492,"Ġbits":13493,"Ġbened":13494,"isander":13495,"iscate":13496,"erly":13497,"erver":13498,"erbear":13499,"Ġfum":13500,"Ġfoster":13501,"Ġfisher":13502,"iture":13503,"itution":13504,"Ġdus":13505,"Ġdive":13506,"Ġdub":13507,"Ġdurance":13508,"Ġdirty":13509,"Ġdomestic":13510,"Ġcust":13511,"Ġcres":13512,"Ġcoy":13513,"Ġcuff":13514,"Ġcran":13515,"Ġcaskets":13516,"ĠIX":13517,"ĠIlion":13518,"Ġlep":13519,"Ġlag":13520,"Ġyew":13521,"Ġnin":13522,"Ġnursed":13523,"Ġnerves":13524,"Ġninth":13525,"onus":13526,"eno":13527,"Ġhoop":13528,"Ġthra":13529,"Ġthrees":13530,"arms":13531,"Ġpon":13532,"Ġpend":13533,"Ġpau":13534,"Ġpities":13535,"Ġpang":13536,"Ġpages":13537,"Ġpander":13538,"otha":13539,"anqu":13540,"aniard":13541,"Ġger":13542,"Ġgle":13543,"Ġgum":13544,"Ġgig":13545,"Ġgud":13546,"Ġgash":13547,"Ġgored":13548,"Ġgaud":13549,"string":13550,"atches":13551,"athes":13552,"Ġinvoc":13553,"Ġhaps":13554,"Ġhagg":13555,"ĠTook":13556,"ĠTeach":13557,"ĠTongue":13558,"eta":13559,"ayed":13560,"ĠAgin":13561,"ĠAUT":13562,"uting":13563,"utish":13564,"Ġmeals":13565,"irous":13566,"Ġeb":13567,"Ġeaster":13568,"Ġweird":13569,"iders":13570,"ideth":13571,"hery":13572,"alas":13573,"Ġstif":13574,"Ġstink":13575,"Ġstable":13576,"Ġstains":13577,"rier":13578,"rable":13579,"rawn":13580,"ĠSad":13581,"ĠSent":13582,"ĠSly":13583,"ĠSus":13584,"ĠSard":13585,"ĠSau":13586,"ĠSUR":13587,"ĠSNO":13588,"ĠSIMON":13589,"ĠSands":13590,"Ġren":13591,"Ġrever":13592,"Ġreplete":13593,"Ġsoe":13594,"Ġsola":13595,"Ġsoever":13596,"Ġlikest":13597,"vering":13598,"ĠHard":13599,"ĠHorns":13600,"ĠHipp":13601,"ĠBUS":13602,"ĠBold":13603,"ĠBAG":13604,"ĠBIG":13605,"ĠBoult":13606,"Ġdoff":13607,"Ġdews":13608,"ĠEve":13609,"ĠEight":13610,"ĠEli":13611,"ĠEls":13612,"user":13613,"usual":13614,"ĠCIN":13615,"ĠCret":13616,"ĠCeres":13617,"ĠMin":13618,"ĠMor":13619,"ĠMaid":13620,"ĠMino":13621,"amps":13622,"eapol":13623,"Ġseeds":13624,"Ġselves":13625,"Ġnov":13626,"anda":13627,"Ġlopp":13628,"Ġallies":13629,"ĠOBER":13630,"Ġspan":13631,"Ġspill":13632,"Ġspout":13633,"Ġspied":13634,"Ġspright":13635,"ella":13636,"ĠFound":13637,"ilfully":13638,"eary":13639,"Ġvall":13640,"Ġvag":13641,"ighted":13642,"ĠPal":13643,"ĠPass":13644,"ĠPlace":13645,"ĠGoth":13646,"ĠGARDIN":13647,"Ġshorter":13648,"ardo":13649,"ardseed":13650,"ustering":13651,"Ġamber":13652,"Ġampl":13653,"Ġgobl":13654,"outhed":13655,"ĠDor":13656,"ĠDep":13657,"ĠDare":13658,"ĠDOL":13659,"ĠDuring":13660,"ĠDaniel":13661,"ĠDAU":13662,"ĠDENN":13663,"ĠNile":13664,"ĠNAT":13665,"ĠNilus":13666,"Ġwheat":13667,"Ġwheels":13668,"ieces":13669,"Ġshell":13670,"venom":13671,"venal":13672,"Ġrider":13673,"ulcan":13674,"ntreat":13675,"quires":13676,"ĠRIV":13677,"Ġswarm":13678,"Ġcanary":13679,"Ġcaves":13680,"Ġcaution":13681,"reathe":13682,"ppery":13683,"ĠYOUN":13684,"Ġorbs":13685,"Ġorange":13686,"Ġlethar":13687,"Ġletting":13688,"eping":13689,"Ġarithmetic":13690,"Ġhereditary":13691,"Ġusual":13692,"laws":13693,"elf":13694,"orts":13695,"oln":13696,"olo":13697,"Ġbrist":13698,"aks":13699,"aketh":13700,"ĠThrow":13701,"igs":13702,"iger":13703,"igate":13704,"igonus":13705,"Ġunv":13706,"Ġuneven":13707,"Ġunpeople":13708,"Ġunthri":13709,"Ġunsettled":13710,"Ġunusual":13711,"Ġmadest":13712,"Ġmadcap":13713,"Ġenchant":13714,"Ġsaves":13715,"Ġhog":13716,"Ġhoped":13717,"Ġdisaster":13718,"Ġdisfig":13719,"Ġdisinher":13720,"Ġproposed":13721,"peius":13722,"arers":13723,"Ġpoise":13724,"Throw":13725,"Ġexiled":13726,"aund":13727,"ondam":13728,"Ġoffspring":13729,"UST":13730,"Ġeyeless":13731,"Ġquell":13732,"Ġquondam":13733,"Ġfog":13734,"oys":13735,"Ġabj":13736,"Ġabides":13737,"udy":13738,"udence":13739,"Ġheaps":13740,"Ġpless":13741,"hence":13742,"Ġchaps":13743,"Ġmarches":13744,"Ġmariners":13745,"Ġroars":13746,"ĠJames":13747,"ĠForres":13748,"igned":13749,"perion":13750,"perience":13751,"berd":13752,"berg":13753,"berry":13754,"berate":13755,"berds":13756,"ĠKings":13757,"ĠKilling":13758,"Ġpartake":13759,"Ġpartners":13760,"ulling":13761,"ighing":13762,"agre":13763,"agot":13764,"Ġplea":13765,"ĠVEN":13766,"ĠVER":13767,"ĠVern":13768,"ĠVulcan":13769,"Ġstring":13770,"Ġstride":13771,"Ġcommun":13772,"Ġrichest":13773,"Ġscare":13774,"Ġscared":13775,"Ġadult":13776,"Ġrag":13777,"Ġrap":13778,"Ġraz":13779,"Ġrails":13780,"Ġramp":13781,"Ġrazed":13782,"Ġhastily":13783,"Ġsweetness":13784,"ERV":13785,"ERICK":13786,"Ġapparition":13787,"ONIC":13788,"Ġlaced":13789,"Ġwitches":13790,"Ġmaw":13791,"ĠBeat":13792,"Ġeyesight":13793,"Ġcliff":13794,"sworn":13795,"Ġheadlong":13796,"Ġarmourer":13797,"Ġpresage":13798,"Ġpreservation":13799,"quered":13800,"ANT":13801,"Ġmightier":13802,"Ġbegs":13803,"Ġlongest":13804,"ossed":13805,"asonable":13806,"ESEUS":13807,"Ġremo":13808,"Ġremiss":13809,"Ġremote":13810,"Ġremuneration":13811,"Ġpuritan":13812,"Ġpoorly":13813,"aching":13814,"achio":13815,"Ġrepul":13816,"Ġbestrid":13817,"Ġmercil":13818,"Ġbrags":13819,"Ġinduce":13820,"Ġdrug":13821,"Ġdrudge":13822,"Ġgrud":13823,"Ġchick":13824,"Ġpaces":13825,"harp":13826,"Ġconfiscate":13827,"web":13828,"Ġguile":13829,"ruised":13830,"Ġtrip":13831,"Ġplayer":13832,"Ġpassen":13833,"Ġcounts":13834,"Ġkinder":13835,"Ġrespite":13836,"blossom":13837,"Ġcharmed":13838,"Ġthroned":13839,"Ġcursing":13840,"Ġneedy":13841,"Ġcouched":13842,"Ġchew":13843,"Ġchannel":13844,"ĠAntigonus":13845,"ĠStrikes":13846,"Ġpricket":13847,"Ġaccents":13848,"ELIUS":13849,"Ġimpious":13850,"Ġimpudent":13851,"Ġoverborne":13852,"Ġbodes":13853,"Ġbeset":13854,"Ġbespeak":13855,"Ġbeseem":13856,"ĠBrought":13857,"ĠBristol":13858,"Ġlightness":13859,"Ġlightens":13860,"Ġasses":13861,"Ġassign":13862,"Ġdiscred":13863,"Ġdiscont":13864,"Ġdisclaim":13865,"ontory":13866,"Ġthanked":13867,"ĠGoes":13868,"pected":13869,"Ġhitherward":13870,"Ġsentine":13871,"Ġsentences":13872,"Ġmoss":13873,"Ġbane":13874,"Ġhelping":13875,"Ġmistresses":13876,"Ġsunshine":13877,"abouts":13878,"ICANUS":13879,"Ġhonestly":13880,"Ġboats":13881,"Ġinstances":13882,"nery":13883,"Ġcommanders":13884,"PHIN":13885,"Ġdank":13886,"Ġcareer":13887,"Ġsawest":13888,"acqu":13889,"Ġpalpable":13890,"Ġillust":13891,"weening":13892,"Ġrung":13893,"Strikes":13894,"Ġwishing":13895,"Ġpromontory":13896,"ĠThank":13897,"Ġstrains":13898,"Ġsenior":13899,"Ġsennet":13900,"Ġroyalties":13901,"Ġhardy":13902,"Ġhardness":13903,"Ġjudges":13904,"ifted":13905,"Ġcomforted":13906,"Ġbeaver":13907,"Ġawful":13908,"Ġaweary":13909,"Ġexcels":13910,"Ġexceeds":13911,"Ġsicken":13912,"Ġmetap":13913,"Ġsupple":13914,"Ġsupplication":13915,"Ġsupplant":13916,"Ġcraven":13917,"Ġforester":13918,"Ġforerun":13919,"Ġforesaid":13920,"Ġbrier":13921,"Ġbribe":13922,"Ġboundless":13923,"Sirs":13924,"Ġsoonest":13925,"Ġcarb":13926,"Ġcargo":13927,"Ġsinister":13928,"Ġsincer":13929,"Ġcolder":13930,"Ġtrusting":13931,"Ġterrors":13932,"ĠThyself":13933,"Ġfitly":13934,"Ġwaited":13935,"Ġwounding":13936,"otting":13937,"Ġdispro":13938,"Ġdispossess":13939,"Ġparcels":13940,"Ġbarks":13941,"Ġbarons":13942,"avo":13943,"ceeding":13944,"Ġacting":13945,"Ġbathe":13946,"rested":13947,"Ġgallop":13948,"Ġgalleys":13949,"ĠEnglishmen":13950,"ĠArden":13951,"Ġmocker":13952,"Ġacross":13953,"Ġwondering":13954,"Ġsumptuous":13955,"Ġtenderly":13956,"Ġopenly":13957,"Ġattaint":13958,"Ġattired":13959,"Ġrubs":13960,"Ġdevices":13961,"Ġdevoted":13962,"Ġquarters":13963,"Ġsurprise":13964,"LEIUS":13965,"Ġdrove":13966,"alties":13967,"ĠChiron":13968,"Ġpense":13969,"Ġpenury":13970,"parent":13971,"ĠDONALB":13972,"Ġoffends":13973,"Ġscornful":13974,"Ġlamps":13975,"Ġlaments":13976,"Ġregister":13977,"Ġdenying":13978,"Ġguards":13979,"ipotent":13980,"Ġinterchange":13981,"ashion":13982,"Ġadding":13983,"cribes":13984,"Ġwriters":13985,"ANDRA":13986,"Ġmounts":13987,"Ġlaughs":13988,"amples":13989,"Ġshipping":13990,"roned":13991,"angling":13992,"Ġchurl":13993,"Ġlibert":13994,"Ġempery":13995,"Ġlustful":13996,"Ġsafeguard":13997,"umbers":13998,"ĠDULL":13999,"olyta":14000,"Ġagony":14001,"Ġshock":14002,"Ġbleak":14003,"Ġfilling":14004,"bbet":14005,"ĠHautboys":14006,"ITH":14007,"Ġdaws":14008,"albain":14009,"ĠPlains":14010,"ĠPluto":14011,"Ġposted":14012,"Ġpostern":14013,"Ġprovinces":14014,"Ġflatteries":14015,"Ġinside":14016,"Ġerst":14017,"Ġerrors":14018,"Ġrebu":14019,"Ġfinely":14020,"Ġunwill":14021,"Ġunworthi":14022,"Ġblowing":14023,"Ġsharper":14024,"Ġsafest":14025,"Ġvainly":14026,"Ġmedd":14027,"Ġmeditation":14028,"Ġmedlar":14029,"Ġdug":14030,"rentford":14031,"Ġtempor":14032,"Ġunsha":14033,"Ġunspeak":14034,"Ġunsatisf":14035,"Ġdefended":14036,"ĠValiant":14037,"rers":14038,"Ġvanities":14039,"Ġdrunkards":14040,"Ġgrossness":14041,"ĠLucrece":14042,"Ġhorrors":14043,"Ġrefresh":14044,"Ġrefuge":14045,"ugn":14046,"Ġlegitimate":14047,"Ġstrucken":14048,"Ġremembran":14049,"Ġswiftly":14050,"Ġverily":14051,"Ġverified":14052,"ĠMustardseed":14053,"Ġprivately":14054,"Ġunfit":14055,"Ġembracements":14056,"death":14057,"IDES":14058,"Ġconjo":14059,"Ġconjur":14060,"Trans":14061,"Ġnecessaries":14062,"Ġbleeds":14063,"Ġtranslate":14064,"Ġauthorities":14065,"Ġcaterp":14066,"Ġbountiful":14067,"Ġrobbery":14068,"IMACH":14069,"ĠMacmor":14070,"Ġencounters":14071,"Ġheathen":14072,"ĠARCH":14073,"Ġshrine":14074,"Ġshrunk":14075,"Ġprotestation":14076,"EDERICK":14077,"Ġslily":14078,"ĠBlow":14079,"Ġfaints":14080,"Ġfainting":14081,"ĠMontjoy":14082,"Ġflea":14083,"Ġlamented":14084,"Ġformerly":14085,"Ġimaginary":14086,"Ġpotion":14087,"Ġpotency":14088,"Ġbasis":14089,"Ġunhand":14090,"Ġconsideration":14091,"Ġconquerors":14092,"Ġbabbling":14093,"Ġcream":14094,"doing":14095,"Ġspared":14096,"acedon":14097,"lois":14098,"Ġcostard":14099,"Ġlineaments":14100,"Ġprodigious":14101,"Ġfirmament":14102,"Ġcombined":14103,"Ġcloven":14104,"Ġcloister":14105,"valued":14106,"Ġaims":14107,"Ġsalutation":14108,"Ġimperfect":14109,"Ġimperfection":14110,"Ġaccounted":14111,"Ġmilitary":14112,"Ġborrowed":14113,"Ġunkindly":14114,"Ġaudit":14115,"Ġdispositions":14116,"Ġhiding":14117,"Ġmelting":14118,"Ġcovering":14119,"ĠTHYR":14120,"ĠTHESEUS":14121,"Ġprevention":14122,"Ġaptly":14123,"Ġinclining":14124,"Ġcaptivity":14125,"Ġprophecies":14126,"Captain":14127,"ĠSpart":14128,"ronted":14129,"Ġexcepted":14130,"Ġreckless":14131,"ĠSALANIO":14132,"rossed":14133,"Ġinfectious":14134,"ĠShake":14135,"Ġsuperstit":14136,"Ġvenison":14137,"Ġprovokes":14138,"ERNES":14139,"Ġconfirmation":14140,"ĠPERDIT":14141,"Ġsource":14142,"Ġweaver":14143,"Ġweasel":14144,"adoes":14145,"ĠOCTAVIA":14146,"ĠCoeur":14147,"Ġheaviest":14148,"wearied":14149,"Ġfiner":14150,"Ġfinest":14151,"ĠALONSO":14152,"Ġconsuls":14153,"zzle":14154,"ĠOfficer":14155,"Ġswallowing":14156,"ĠPROCU":14157,"ĠGREY":14158,"Brought":14159,"Ġbutchers":14160,"Ġdimin":14161,"Ġeighteen":14162,"ĠServingmen":14163,"Ġnephews":14164,"ĠDOGBER":14165,"ĠDoubt":14166,"ĠVolscian":14167,"Ġmartyr":14168,"ĠWelshman":14169,"Ġsecurely":14170,"Ġsanctity":14171,"Ġrejoicing":14172,"Ġhaunted":14173,"Ġshifts":14174,"ĠLaunce":14175,"Quite":14176,"Ġalarums":14177,"Ġsociable":14178,"Ġsacrifices":14179,"Ġtoucheth":14180,"Ġtrodden":14181,"handed":14182,"Ġaccusers":14183,"Ġaccusations":14184,"Ġpetitions":14185,"ĠCapulets":14186,"Heavens":14187,"Ġthorny":14188,"ĠHELICANUS":14189,"ĠLODO":14190,"Ġmonarchs":14191,"Ġroused":14192,"Ġflax":14193,"Ġnonny":14194,"Ġproportions":14195,"Ġclimbing":14196,"Ġavaunt":14197,"Ġnether":14198,"Ġgrievously":14199,"ĠMONTANO":14200,"footed":14201,"Ġirks":14202,"ĠSicily":14203,"Ġdecline":14204,"Ġdungeon":14205,"ĠDonalbain":14206,"Ġdeceitful":14207,"Ġbrawls":14208,"Ġbrawling":14209,"ĠPolonius":14210,"Ġrhetoric":14211,"Ġlevity":14212,"Ġhymn":14213,"Ġinfirmities":14214,"Shake":14215,"Ġturf":14216,"ĠGONZAL":14217,"Ġindignity":14218,"ĠANGUS":14219,"Ġeclip":14220,"Ġensign":14221,"Ġpenitence":14222,"BANTIO":14223,"Ġdiligent":14224,"ĠHimself":14225,"Ġexploits":14226,"Drawing":14227,"aeus":14228,"Ġhawthorn":14229,"Ġtigers":14230,"Ġmasqu":14231,"Ġmasque":14232,"Ġbragging":14233,"ĠGermany":14234,"Ġconvert":14235,"ĠANDRONIC":14236,"Consider":14237,"Ġsuggest":14238,"Ġoutrageous":14239,
[...]
